{
  "version": "1.0",
  "truncation": null,
  "padding": null,
  "added_tokens": [
    {
      "id": 0,
      "content": "[UNK]",
      "single_word": false,
      "lstrip": false,
      "rstrip": false,
      "normalized": false,
      "special": true
    },
    {
      "id": 1,
      "content": "[PAD]",
      "single_word": false,
      "lstrip": false,
      "rstrip": false,
      "normalized": false,
      "special": true
    },
    {
      "id": 2,
      "content": "[SOS]",
      "single_word": false,
      "lstrip": false,
      "rstrip": false,
      "normalized": false,
      "special": true
    },
    {
      "id": 3,
      "content": "[EOS]",
      "single_word": false,
      "lstrip": false,
      "rstrip": false,
      "normalized": false,
      "special": true
    }
  ],
  "normalizer": null,
  "pre_tokenizer": {
    "type": "Whitespace"
  },
  "post_processor": null,
  "decoder": null,
  "model": {
    "type": "BPE",
    "dropout": null,
    "unk_token": "[UNK]",
    "continuing_subword_prefix": null,
    "end_of_word_suffix": null,
    "fuse_unk": false,
    "byte_fallback": false,
    "ignore_merges": false,
    "vocab": {
      "[UNK]": 0,
      "[PAD]": 1,
      "[SOS]": 2,
      "[EOS]": 3,
      "!": 4,
      "\"": 5,
      "#": 6,
      "$": 7,
      "%": 8,
      "&": 9,
      "'": 10,
      "(": 11,
      ")": 12,
      ",": 13,
      "-": 14,
      ".": 15,
      "0": 16,
      "1": 17,
      "2": 18,
      "3": 19,
      "4": 20,
      "5": 21,
      "6": 22,
      "7": 23,
      "8": 24,
      "9": 25,
      ":": 26,
      ";": 27,
      "=": 28,
      "?": 29,
      "A": 30,
      "B": 31,
      "C": 32,
      "D": 33,
      "E": 34,
      "F": 35,
      "G": 36,
      "H": 37,
      "I": 38,
      "J": 39,
      "K": 40,
      "L": 41,
      "M": 42,
      "N": 43,
      "O": 44,
      "P": 45,
      "Q": 46,
      "R": 47,
      "S": 48,
      "T": 49,
      "U": 50,
      "V": 51,
      "W": 52,
      "X": 53,
      "Y": 54,
      "Z": 55,
      "`": 56,
      "a": 57,
      "b": 58,
      "c": 59,
      "d": 60,
      "e": 61,
      "f": 62,
      "g": 63,
      "h": 64,
      "i": 65,
      "j": 66,
      "k": 67,
      "l": 68,
      "m": 69,
      "n": 70,
      "o": 71,
      "p": 72,
      "q": 73,
      "r": 74,
      "s": 75,
      "t": 76,
      "u": 77,
      "v": 78,
      "w": 79,
      "x": 80,
      "y": 81,
      "z": 82,
      "in": 83,
      "an": 84,
      "ing": 85,
      "th": 86,
      "re": 87,
      "er": 88,
      "on": 89,
      "le": 90,
      "ar": 91,
      "hi": 92,
      "man": 93,
      "the": 94,
      "ou": 95,
      "and": 96,
      "at": 97,
      "st": 98,
      "wo": 99,
      "al": 100,
      "is": 101,
      "la": 102,
      "en": 103,
      "of": 104,
      "it": 105,
      "wi": 106,
      "ow": 107,
      "ck": 108,
      "with": 109,
      "to": 110,
      "ld": 111,
      "or": 112,
      "ir": 113,
      "es": 114,
      "et": 115,
      "ch": 116,
      "op": 117,
      "id": 118,
      "oun": 119,
      "are": 120,
      "whi": 121,
      "bo": 122,
      "ed": 123,
      "king": 124,
      "gr": 125,
      "ear": 126,
      "woman": 127,
      "as": 128,
      "oo": 129,
      "pla": 130,
      "all": 131,
      "te": 132,
      "ic": 133,
      "men": 134,
      "do": 135,
      "pe": 136,
      "ople": 137,
      "Two": 138,
      "play": 139,
      "ro": 140,
      "ho": 141,
      "ers": 142,
      "he": 143,
      "un": 144,
      "ge": 145,
      "ting": 146,
      "ts": 147,
      "shi": 148,
      "ss": 149,
      "bl": 150,
      "wear": 151,
      "wal": 152,
      "shir": 153,
      "red": 154,
      "sit": 155,
      "wearing": 156,
      "stand": 157,
      "ad": 158,
      "people": 159,
      "shirt": 160,
      "ll": 161,
      "own": 162,
      "ide": 163,
      "ra": 164,
      "oung": 165,
      "gh": 166,
      "me": 167,
      "white": 168,
      "be": 169,
      "irl": 170,
      "young": 171,
      "his": 172,
      "ue": 173,
      "ce": 174,
      "girl": 175,
      "boy": 176,
      "dog": 177,
      "bla": 178,
      "ri": 179,
      "black": 180,
      "lding": 181,
      "ack": 182,
      "co": 183,
      "while": 184,
      "ther": 185,
      "for": 186,
      "wat": 187,
      "oup": 188,
      "mp": 189,
      "one": 190,
      "blue": 191,
      "sh": 192,
      "ta": 193,
      "ur": 194,
      "ver": 195,
      "se": 196,
      "sitting": 197,
      "ve": 198,
      "ball": 199,
      "air": 200,
      "loo": 201,
      "ound": 202,
      "hild": 203,
      "li": 204,
      "standing": 205,
      "stre": 206,
      "so": 207,
      "playing": 208,
      "fr": 209,
      "bu": 210,
      "child": 211,
      "ard": 212,
      "by": 213,
      "group": 214,
      "lo": 215,
      "street": 216,
      "down": 217,
      "ree": 218,
      "out": 219,
      "ne": 220,
      "am": 221,
      "her": 222,
      "walking": 223,
      "il": 224,
      "ont": 225,
      "ay": 226,
      "walk": 227,
      "ti": 228,
      "sm": 229,
      "front": 230,
      "up": 231,
      "other": 232,
      "br": 233,
      "ap": 234,
      "The": 235,
      "holding": 236,
      "ke": 237,
      "car": 238,
      "ma": 239,
      "po": 240,
      "ress": 241,
      "water": 242,
      "tle": 243,
      "ju": 244,
      "dress": 245,
      "fi": 246,
      "side": 247,
      "run": 248,
      "ach": 249,
      "ying": 250,
      "thr": 251,
      "wor": 252,
      "par": 253,
      "some": 254,
      "back": 255,
      "reen": 256,
      "hat": 257,
      "ru": 258,
      "sk": 259,
      "jump": 260,
      "uit": 261,
      "looking": 262,
      "lit": 263,
      "green": 264,
      "An": 265,
      "ind": 266,
      "bi": 267,
      "women": 268,
      "ga": 269,
      "ght": 270,
      "ren": 271,
      "lar": 272,
      "form": 273,
      "Th": 274,
      "outs": 275,
      "si": 276,
      "rid": 277,
      "ble": 278,
      "ell": 279,
      "outside": 280,
      "sing": 281,
      "ough": 282,
      "cle": 283,
      "sn": 284,
      "Three": 285,
      "ks": 286,
      "ground": 287,
      "little": 288,
      "fe": 289,
      "pa": 290,
      "large": 291,
      "through": 292,
      "ong": 293,
      "cr": 294,
      "ass": 295,
      "ellow": 296,
      "ba": 297,
      "snow": 298,
      "old": 299,
      "di": 300,
      "yellow": 301,
      "brown": 302,
      "two": 303,
      "erson": 304,
      "over": 305,
      "tu": 306,
      "ul": 307,
      "board": 308,
      "lass": 309,
      "fro": 310,
      "eld": 311,
      "mb": 312,
      "from": 313,
      "their": 314,
      "ter": 315,
      "con": 316,
      "ly": 317,
      "into": 318,
      "person": 319,
      "ning": 320,
      "hand": 321,
      "foo": 322,
      "watch": 323,
      "xt": 324,
      "thing": 325,
      "ac": 326,
      "bui": 327,
      "tra": 328,
      "ate": 329,
      "ink": 330,
      "building": 331,
      "children": 332,
      "next": 333,
      "owd": 334,
      "our": 335,
      "small": 336,
      "mo": 337,
      "near": 338,
      "dressed": 339,
      "jack": 340,
      "crowd": 341,
      "jacket": 342,
      "glass": 343,
      "grass": 344,
      "ving": 345,
      "dy": 346,
      "wa": 347,
      "pu": 348,
      "male": 349,
      "sc": 350,
      "Pe": 351,
      "riding": 352,
      "running": 353,
      "ange": 354,
      "People": 355,
      "pi": 356,
      "ture": 357,
      "ha": 358,
      "ion": 359,
      "bas": 360,
      "off": 361,
      "sw": 362,
      "another": 363,
      "around": 364,
      "cli": 365,
      "sta": 366,
      "field": 367,
      "eat": 368,
      "tr": 369,
      "ycle": 370,
      "cer": 371,
      "table": 372,
      "per": 373,
      "tal": 374,
      "sidewalk": 375,
      "ket": 376,
      "top": 377,
      "work": 378,
      "clo": 379,
      "Man": 380,
      "read": 381,
      "ep": 382,
      "glasses": 383,
      "ity": 384,
      "orange": 385,
      "head": 386,
      "beach": 387,
      "ore": 388,
      "ans": 389,
      "ine": 390,
      "hone": 391,
      "ross": 392,
      "way": 393,
      "hair": 394,
      "hind": 395,
      "stands": 396,
      "pink": 397,
      "sits": 398,
      "jumping": 399,
      "je": 400,
      "behind": 401,
      "sun": 402,
      "stru": 403,
      "ice": 404,
      "iling": 405,
      "sp": 406,
      "go": 407,
      "der": 408,
      "tain": 409,
      "park": 410,
      "pic": 411,
      "door": 412,
      "gu": 413,
      "bike": 414,
      "background": 415,
      "cam": 416,
      "ond": 417,
      "fa": 418,
      "od": 419,
      "ment": 420,
      "de": 421,
      "mar": 422,
      "rock": 423,
      "wall": 424,
      "ten": 425,
      "city": 426,
      "suit": 427,
      "player": 428,
      "bic": 429,
      "girls": 430,
      "dan": 431,
      "dle": 432,
      "fl": 433,
      "perform": 434,
      "picture": 435,
      "ben": 436,
      "ool": 437,
      "looks": 438,
      "camer": 439,
      "mu": 440,
      "sur": 441,
      "tion": 442,
      "ves": 443,
      "met": 444,
      "shor": 445,
      "uitar": 446,
      "rop": 447,
      "guitar": 448,
      "dogs": 449,
      "veral": 450,
      "that": 451,
      "camera": 452,
      "wood": 453,
      "ct": 454,
      "get": 455,
      "ant": 456,
      "irt": 457,
      "oom": 458,
      "ountain": 459,
      "ped": 460,
      "hold": 461,
      "mid": 462,
      "hel": 463,
      "talking": 464,
      "tor": 465,
      "something": 466,
      "sho": 467,
      "cing": 468,
      "el": 469,
      "ccer": 470,
      "older": 471,
      "ick": 472,
      "ff": 473,
      "pan": 474,
      "ca": 475,
      "stu": 476,
      "along": 477,
      "walks": 478,
      "road": 479,
      "ish": 480,
      "bus": 481,
      "food": 482,
      "boys": 483,
      "working": 484,
      "bri": 485,
      "lady": 486,
      "cu": 487,
      "gg": 488,
      "toge": 489,
      "soccer": 490,
      "together": 491,
      "blond": 492,
      "gn": 493,
      "skate": 494,
      "gray": 495,
      "hor": 496,
      "les": 497,
      "end": 498,
      "him": 499,
      "bicycle": 500,
      "Asi": 501,
      "smiling": 502,
      "kes": 503,
      "uni": 504,
      "ey": 505,
      "plays": 506,
      "has": 507,
      "game": 508,
      "jo": 509,
      "stri": 510,
      "dr": 511,
      "mer": 512,
      "bench": 513,
      "comp": 514,
      "boo": 515,
      "guy": 516,
      "pre": 517,
      "them": 518,
      "uniform": 519,
      "qu": 520,
      "Asian": 521,
      "che": 522,
      "its": 523,
      "foot": 524,
      "led": 525,
      "holds": 526,
      "ms": 527,
      "sand": 528,
      "ation": 529,
      "face": 530,
      "ction": 531,
      "ol": 532,
      "atch": 533,
      "sa": 534,
      "swi": 535,
      "Four": 536,
      "Se": 537,
      "carr": 538,
      "climb": 539,
      "pants": 540,
      "chair": 541,
      "skateboard": 542,
      "room": 543,
      "col": 544,
      "ling": 545,
      "kid": 546,
      "pain": 547,
      "gs": 548,
      "under": 549,
      "stage": 550,
      "pur": 551,
      "shorts": 552,
      "coup": 553,
      "ping": 554,
      "umb": 555,
      "ent": 556,
      "boat": 557,
      "carrying": 558,
      "dirt": 559,
      "ming": 560,
      "pl": 561,
      "ful": 562,
      "set": 563,
      "ses": 564,
      "spe": 565,
      "baby": 566,
      "couple": 567,
      "tri": 568,
      "race": 569,
      "long": 570,
      "tan": 571,
      "tree": 572,
      "outdoor": 573,
      "base": 574,
      "band": 575,
      "ark": 576,
      "look": 577,
      "female": 578,
      "swim": 579,
      "mic": 580,
      "mountain": 581,
      "coat": 582,
      "day": 583,
      "Several": 584,
      "ple": 585,
      "pool": 586,
      "shop": 587,
      "each": 588,
      "sign": 589,
      "pro": 590,
      "owing": 591,
      "taking": 592,
      "phone": 593,
      "tow": 594,
      "basket": 595,
      "lling": 596,
      "au": 597,
      "doing": 598,
      "dark": 599,
      "cor": 600,
      "ty": 601,
      "hoto": 602,
      "across": 603,
      "watching": 604,
      "bar": 605,
      "iting": 606,
      "ican": 607,
      "jeans": 608,
      "ex": 609,
      "area": 610,
      "team": 611,
      "outh": 612,
      "middle": 613,
      "who": 614,
      "photo": 615,
      "store": 616,
      "sl": 617,
      "vi": 618,
      "jumps": 619,
      "fore": 620,
      "hands": 621,
      "cross": 622,
      "helmet": 623,
      "sic": 624,
      "horse": 625,
      "flo": 626,
      "ence": 627,
      "wind": 628,
      "su": 629,
      "sts": 630,
      "swing": 631,
      "eating": 632,
      "performing": 633,
      "toy": 634,
      "ni": 635,
      "we": 636,
      "being": 637,
      "sweat": 638,
      "light": 639,
      "striped": 640,
      "cks": 641,
      "uring": 642,
      "motor": 643,
      "baseball": 644,
      "cre": 645,
      "using": 646,
      "color": 647,
      "mouth": 648,
      "music": 649,
      "Wo": 650,
      "whe": 651,
      "football": 652,
      "rel": 653,
      "cl": 654,
      "ired": 655,
      "ding": 656,
      "itch": 657,
      "purple": 658,
      "ab": 659,
      "sle": 660,
      "microp": 661,
      "ag": 662,
      "app": 663,
      "hu": 664,
      "ating": 665,
      "tre": 666,
      "ob": 667,
      "haired": 668,
      "toward": 669,
      "fla": 670,
      "gi": 671,
      "nis": 672,
      "enjo": 673,
      "aper": 674,
      "posing": 675,
      "runs": 676,
      "train": 677,
      "window": 678,
      "fu": 679,
      "adul": 680,
      "struction": 681,
      "surf": 682,
      "Young": 683,
      "reading": 684,
      "tennis": 685,
      "na": 686,
      "she": 687,
      "sunglasses": 688,
      "des": 689,
      "ner": 690,
      "tru": 691,
      "can": 692,
      "clothing": 693,
      "dri": 694,
      "three": 695,
      "stick": 696,
      "players": 697,
      "microphone": 698,
      "bow": 699,
      "cean": 700,
      "vered": 701,
      "There": 702,
      "past": 703,
      "flow": 704,
      "fish": 705,
      "ash": 706,
      "ade": 707,
      "covered": 708,
      "ted": 709,
      "erly": 710,
      "catch": 711,
      "ive": 712,
      "tting": 713,
      "inst": 714,
      "basketball": 715,
      "ocean": 716,
      "fire": 717,
      "hill": 718,
      "ouch": 719,
      "watches": 720,
      "during": 721,
      "climbing": 722,
      "motorc": 723,
      "ian": 724,
      "staur": 725,
      "dancing": 726,
      "restaur": 727,
      "bag": 728,
      "bright": 729,
      "kids": 730,
      "aga": 731,
      "ev": 732,
      "round": 733,
      "restaurant": 734,
      "cap": 735,
      "no": 736,
      "ley": 737,
      "roll": 738,
      "outf": 739,
      "smi": 740,
      "ski": 741,
      "against": 742,
      "bal": 743,
      "pack": 744,
      "shirts": 745,
      "ines": 746,
      "full": 747,
      "ated": 748,
      "rides": 749,
      "umbrel": 750,
      "umbrella": 751,
      "um": 752,
      "high": 753,
      "ath": 754,
      "ft": 755,
      "open": 756,
      "elderly": 757,
      "ak": 758,
      "vers": 759,
      "arm": 760,
      "very": 761,
      "lored": 762,
      "market": 763,
      "du": 764,
      "ouse": 765,
      "One": 766,
      "So": 767,
      "wooden": 768,
      "about": 769,
      "trees": 770,
      "ang": 771,
      "having": 772,
      "cell": 773,
      "floor": 774,
      "waiting": 775,
      "instru": 776,
      "they": 777,
      "thers": 778,
      "drin": 779,
      "line": 780,
      "swimming": 781,
      "ew": 782,
      "getting": 783,
      "book": 784,
      "costu": 785,
      "truck": 786,
      "bear": 787,
      "aning": 788,
      "lea": 789,
      "cket": 790,
      "ily": 791,
      "cart": 792,
      "construction": 793,
      "trying": 794,
      "workers": 795,
      "shing": 796,
      "night": 797,
      "motorcycle": 798,
      "ces": 799,
      "rest": 800,
      "ycli": 801,
      "busy": 802,
      "colorful": 803,
      "ows": 804,
      "singing": 805,
      "bes": 806,
      "fence": 807,
      "ride": 808,
      "age": 809,
      "pie": 810,
      "Woman": 811,
      "This": 812,
      "dis": 813,
      "ler": 814,
      "ous": 815,
      "new": 816,
      "ance": 817,
      "stair": 818,
      "body": 819,
      "eps": 820,
      "ip": 821,
      "path": 822,
      "ci": 823,
      "mach": 824,
      "clothe": 825,
      "compet": 826,
      "pol": 827,
      "ons": 828,
      "laying": 829,
      "hats": 830,
      "itchen": 831,
      "Some": 832,
      "pass": 833,
      "ser": 834,
      "less": 835,
      "lau": 836,
      "track": 837,
      "Men": 838,
      "paper": 839,
      "stic": 840,
      "beard": 841,
      "kitchen": 842,
      "others": 843,
      "inside": 844,
      "cour": 845,
      "kick": 846,
      "grassy": 847,
      "eping": 848,
      "gging": 849,
      "cellphone": 850,
      "im": 851,
      "art": 852,
      "river": 853,
      "making": 854,
      "ject": 855,
      "surround": 856,
      "ort": 857,
      "aff": 858,
      "tur": 859,
      "sha": 860,
      "backpack": 861,
      "brick": 862,
      "clothes": 863,
      "mas": 864,
      "als": 865,
      "grap": 866,
      "takes": 867,
      "bik": 868,
      "metal": 869,
      "outfit": 870,
      "fac": 871,
      "rain": 872,
      "big": 873,
      "towards": 874,
      "laugh": 875,
      "ban": 876,
      "ckey": 877,
      "fli": 878,
      "stone": 879,
      "vest": 880,
      "enjoying": 881,
      "coun": 882,
      "cking": 883,
      "ood": 884,
      "box": 885,
      "colored": 886,
      "ny": 887,
      "tic": 888,
      "mes": 889,
      "ope": 890,
      "ready": 891,
      "piece": 892,
      "lap": 893,
      "raw": 894,
      "cas": 895,
      "dd": 896,
      "hard": 897,
      "ates": 898,
      "tank": 899,
      "inter": 900,
      "ster": 901,
      "ors": 902,
      "house": 903,
      "ition": 904,
      "unch": 905,
      "painting": 906,
      "Five": 907,
      "abo": 908,
      "cow": 909,
      "dru": 910,
      "hang": 911,
      "ite": 912,
      "Child": 913,
      "ring": 914,
      "lake": 915,
      "tire": 916,
      "sweater": 917,
      "pare": 918,
      "iti": 919,
      "trick": 920,
      "sub": 921,
      "several": 922,
      "photograp": 923,
      "above": 924,
      "af": 925,
      "frican": 926,
      "brid": 927,
      "bles": 928,
      "view": 929,
      "kne": 930,
      "vol": 931,
      "thered": 932,
      "lot": 933,
      "going": 934,
      "police": 935,
      "fri": 936,
      "lec": 937,
      "many": 938,
      "chas": 939,
      "like": 940,
      "class": 941,
      "onto": 942,
      "ird": 943,
      "bot": 944,
      "snowy": 945,
      "dance": 946,
      "gy": 947,
      "ones": 948,
      "temp": 949,
      "wave": 950,
      "worker": 951,
      "shopping": 952,
      "wheel": 953,
      "cal": 954,
      "coo": 955,
      "fo": 956,
      "gen": 957,
      "ill": 958,
      "sto": 959,
      "uniforms": 960,
      "surrounded": 961,
      "gather": 962,
      "crowded": 963,
      "In": 964,
      "gear": 965,
      "poin": 966,
      "snowboard": 967,
      "teen": 968,
      "smiles": 969,
      "pra": 970,
      "vel": 971,
      "pole": 972,
      "outdoors": 973,
      "beside": 974,
      "friend": 975,
      "todd": 976,
      "convers": 977,
      "adults": 978,
      "roller": 979,
      "Amer": 980,
      "cur": 981,
      "plan": 982,
      "drinking": 983,
      "fam": 984,
      "yard": 985,
      "shoes": 986,
      "den": 987,
      "mon": 988,
      "ments": 989,
      "after": 990,
      "bridge": 991,
      "fall": 992,
      "scar": 993,
      "star": 994,
      "flowers": 995,
      "fountain": 996,
      "ys": 997,
      "gathered": 998,
      "prepar": 999,
      "auti": 1000,
      "leap": 1001,
      "arms": 1002,
      "event": 1003,
      "hanging": 1004,
      "away": 1005,
      "ary": 1006,
      "lder": 1007,
      "prepare": 1008,
      "subway": 1009,
      "African": 1010,
      "carri": 1011,
      "gym": 1012,
      "family": 1013,
      "autiful": 1014,
      "xing": 1015,
      "ening": 1016,
      "graff": 1017,
      "rap": 1018,
      "ballo": 1019,
      "smo": 1020,
      "rope": 1021,
      "preparing": 1022,
      "ph": 1023,
      "leaning": 1024,
      "steps": 1025,
      "hockey": 1026,
      "take": 1027,
      "object": 1028,
      "costume": 1029,
      "toddler": 1030,
      "mat": 1031,
      "attemp": 1032,
      "racing": 1033,
      "offic": 1034,
      "Many": 1035,
      "short": 1036,
      "compu": 1037,
      "forest": 1038,
      "sleeping": 1039,
      "fishing": 1040,
      "does": 1041,
      "make": 1042,
      "trail": 1043,
      "guys": 1044,
      "appear": 1045,
      "graffiti": 1046,
      "pr": 1047,
      "plaid": 1048,
      "machine": 1049,
      "Children": 1050,
      "kis": 1051,
      "beautiful": 1052,
      "sky": 1053,
      "stairs": 1054,
      "cup": 1055,
      "four": 1056,
      "ved": 1057,
      "dies": 1058,
      "American": 1059,
      "bat": 1060,
      "bed": 1061,
      "rail": 1062,
      "chairs": 1063,
      "adult": 1064,
      "gar": 1065,
      "asian": 1066,
      "try": 1067,
      "bre": 1068,
      "bee": 1069,
      "Ch": 1070,
      "fil": 1071,
      "ven": 1072,
      "ined": 1073,
      "too": 1074,
      "ersey": 1075,
      "shirtless": 1076,
      "selling": 1077,
      "pract": 1078,
      "bet": 1079,
      "jersey": 1080,
      "tall": 1081,
      "ste": 1082,
      "stat": 1083,
      "list": 1084,
      "sunny": 1085,
      "rocks": 1086,
      "setting": 1087,
      "aged": 1088,
      "equ": 1089,
      "ari": 1090,
      "lls": 1091,
      "pose": 1092,
      "just": 1093,
      "yclist": 1094,
      "iv": 1095,
      "net": 1096,
      "stance": 1097,
      "ise": 1098,
      "shou": 1099,
      "pot": 1100,
      "scarf": 1101,
      "land": 1102,
      "match": 1103,
      "ron": 1104,
      "tch": 1105,
      "wet": 1106,
      "ery": 1107,
      "lead": 1108,
      "both": 1109,
      "ramp": 1110,
      "putting": 1111,
      "corner": 1112,
      "volley": 1113,
      "gentle": 1114,
      "equip": 1115,
      "numb": 1116,
      "isbee": 1117,
      "throwing": 1118,
      "pushing": 1119,
      "tent": 1120,
      "clu": 1121,
      "flip": 1122,
      "bor": 1123,
      "fet": 1124,
      "sed": 1125,
      "blic": 1126,
      "time": 1127,
      "parade": 1128,
      "public": 1129,
      "have": 1130,
      "drink": 1131,
      "slide": 1132,
      "ween": 1133,
      "between": 1134,
      "volleyball": 1135,
      "couch": 1136,
      "row": 1137,
      "hicle": 1138,
      "stop": 1139,
      "ladies": 1140,
      "scen": 1141,
      "laughing": 1142,
      "lf": 1143,
      "med": 1144,
      "show": 1145,
      "fruit": 1146,
      "someone": 1147,
      "reads": 1148,
      "flag": 1149,
      "instruments": 1150,
      "computer": 1151,
      "equipment": 1152,
      "squ": 1153,
      "vend": 1154,
      "chool": 1155,
      "home": 1156,
      "vehicle": 1157,
      "bikes": 1158,
      "pictures": 1159,
      "where": 1160,
      "cra": 1161,
      "glo": 1162,
      "happ": 1163,
      "plastic": 1164,
      "woods": 1165,
      "spea": 1166,
      "photograph": 1167,
      "bottle": 1168,
      "bird": 1169,
      "pat": 1170,
      "pad": 1171,
      "ure": 1172,
      "reach": 1173,
      "which": 1174,
      "ally": 1175,
      "playground": 1176,
      "poses": 1177,
      "works": 1178,
      "party": 1179,
      "concre": 1180,
      "sweatshirt": 1181,
      "concrete": 1182,
      "ctor": 1183,
      "gold": 1184,
      "dock": 1185,
      "feren": 1186,
      "statue": 1187,
      "low": 1188,
      "ward": 1189,
      "winter": 1190,
      "midair": 1191,
      "ggles": 1192,
      "Bo": 1193,
      "ium": 1194,
      "sil": 1195,
      "wr": 1196,
      "suits": 1197,
      "ini": 1198,
      "bucket": 1199,
      "skirt": 1200,
      "scope": 1201,
      "cowboy": 1202,
      "number": 1203,
      "emp": 1204,
      "ix": 1205,
      "tat": 1206,
      "ators": 1207,
      "blo": 1208,
      "veget": 1209,
      "tive": 1210,
      "distance": 1211,
      "Gr": 1212,
      "din": 1213,
      "ki": 1214,
      "tte": 1215,
      "what": 1216,
      "anim": 1217,
      "attire": 1218,
      "place": 1219,
      "right": 1220,
      "shes": 1221,
      "seated": 1222,
      "bags": 1223,
      "prote": 1224,
      "cream": 1225,
      "school": 1226,
      "ins": 1227,
      "left": 1228,
      "lad": 1229,
      "site": 1230,
      "rist": 1231,
      "spor": 1232,
      "spect": 1233,
      "slid": 1234,
      "lined": 1235,
      "ps": 1236,
      "enter": 1237,
      "edge": 1238,
      "blan": 1239,
      "beer": 1240,
      "vests": 1241,
      "wait": 1242,
      "struc": 1243,
      "cutting": 1244,
      "kneel": 1245,
      "cooking": 1246,
      "filled": 1247,
      "Fr": 1248,
      "draw": 1249,
      "mil": 1250,
      "ned": 1251,
      "ops": 1252,
      "buildings": 1253,
      "pulling": 1254,
      "cliff": 1255,
      "newsp": 1256,
      "Lit": 1257,
      "gare": 1258,
      "kers": 1259,
      "ry": 1260,
      "let": 1261,
      "station": 1262,
      "alley": 1263,
      "ese": 1264,
      "grill": 1265,
      "hot": 1266,
      "rider": 1267,
      "bowl": 1268,
      "cigare": 1269,
      "Little": 1270,
      "Girl": 1271,
      "bare": 1272,
      "ters": 1273,
      "wrest": 1274,
      "roof": 1275,
      "but": 1276,
      "close": 1277,
      "cheer": 1278,
      "appears": 1279,
      "break": 1280,
      "practic": 1281,
      "tattoo": 1282,
      "vegeta": 1283,
      "ghts": 1284,
      "showing": 1285,
      "mountains": 1286,
      "crossing": 1287,
      "instrument": 1288,
      "court": 1289,
      "blanket": 1290,
      "mul": 1291,
      "bub": 1292,
      "fight": 1293,
      "bathing": 1294,
      "cut": 1295,
      "paint": 1296,
      "structure": 1297,
      "elec": 1298,
      "pet": 1299,
      "len": 1300,
      "offe": 1301,
      "ical": 1302,
      "dresses": 1303,
      "nearby": 1304,
      "performs": 1305,
      "horses": 1306,
      "Women": 1307,
      "Indi": 1308,
      "electr": 1309,
      "ham": 1310,
      "ign": 1311,
      "pair": 1312,
      "rela": 1313,
      "see": 1314,
      "apron": 1315,
      "few": 1316,
      "cert": 1317,
      "driving": 1318,
      "flower": 1319,
      "yclists": 1320,
      "country": 1321,
      "friends": 1322,
      "carries": 1323,
      "Frisbee": 1324,
      "ds": 1325,
      "ie": 1326,
      "por": 1327,
      "uses": 1328,
      "vari": 1329,
      "wing": 1330,
      "res": 1331,
      "sty": 1332,
      "tial": 1333,
      "goal": 1334,
      "shore": 1335,
      "bowling": 1336,
      "leaves": 1337,
      "Group": 1338,
      "offee": 1339,
      "hood": 1340,
      "iz": 1341,
      "arts": 1342,
      "key": 1343,
      "cars": 1344,
      "parked": 1345,
      "boots": 1346,
      "painted": 1347,
      "dents": 1348,
      "cigarette": 1349,
      "Person": 1350,
      "ker": 1351,
      "mir": 1352,
      "mother": 1353,
      "wash": 1354,
      "hit": 1355,
      "tele": 1356,
      "railing": 1357,
      "bru": 1358,
      "goggles": 1359,
      "mud": 1360,
      "shot": 1361,
      "cake": 1362,
      "smile": 1363,
      "display": 1364,
      "snowboarder": 1365,
      "vendor": 1366,
      "gun": 1367,
      "ight": 1368,
      "vis": 1369,
      "law": 1370,
      "talks": 1371,
      "martial": 1372,
      "flying": 1373,
      "skateboarder": 1374,
      "drums": 1375,
      "smoking": 1376,
      "phones": 1377,
      "av": 1378,
      "coffee": 1379,
      "lying": 1380,
      "wed": 1381,
      "gaz": 1382,
      "dire": 1383,
      "concert": 1384,
      "rocky": 1385,
      "eyes": 1386,
      "drum": 1387,
      "bunch": 1388,
      "fun": 1389,
      "fferen": 1390,
      "spla": 1391,
      "ghting": 1392,
      "younger": 1393,
      "coming": 1394,
      "tie": 1395,
      "jackets": 1396,
      "waves": 1397,
      "safet": 1398,
      "swinging": 1399,
      "flags": 1400,
      "kicking": 1401,
      "conversation": 1402,
      "prepares": 1403,
      "newspaper": 1404,
      "safety": 1405,
      "fen": 1406,
      "pitch": 1407,
      "use": 1408,
      "arti": 1409,
      "ats": 1410,
      "rode": 1411,
      "cement": 1412,
      "parking": 1413,
      "differen": 1414,
      "audi": 1415,
      "costumes": 1416,
      "case": 1417,
      "gentleman": 1418,
      "gloves": 1419,
      "spectators": 1420,
      "practicing": 1421,
      "mers": 1422,
      "this": 1423,
      "onlook": 1424,
      "there": 1425,
      "cleaning": 1426,
      "scoo": 1427,
      "pres": 1428,
      "surfer": 1429,
      "competition": 1430,
      "bearded": 1431,
      "listening": 1432,
      "scene": 1433,
      "Boy": 1434,
      "ladder": 1435,
      "different": 1436,
      "ians": 1437,
      "pon": 1438,
      "say": 1439,
      "sting": 1440,
      "cha": 1441,
      "coll": 1442,
      "bull": 1443,
      "neck": 1444,
      "swe": 1445,
      "spra": 1446,
      "skateboarding": 1447,
      "mask": 1448,
      "items": 1449,
      "staring": 1450,
      "ids": 1451,
      "idu": 1452,
      "rais": 1453,
      "meal": 1454,
      "sion": 1455,
      "pile": 1456,
      "bicycles": 1457,
      "dry": 1458,
      "check": 1459,
      "plat": 1460,
      "giving": 1461,
      "surfboard": 1462,
      "desk": 1463,
      "turn": 1464,
      "bikini": 1465,
      "balloon": 1466,
      "empty": 1467,
      "various": 1468,
      "lawn": 1469,
      "audience": 1470,
      "Con": 1471,
      "port": 1472,
      "itary": 1473,
      "ette": 1474,
      "among": 1475,
      "gets": 1476,
      "drinks": 1477,
      "Someone": 1478,
      "leaps": 1479,
      "rodeo": 1480,
      "onlookers": 1481,
      "card": 1482,
      "ered": 1483,
      "ial": 1484,
      "kay": 1485,
      "nic": 1486,
      "zz": 1487,
      "lay": 1488,
      "gathering": 1489,
      "pointing": 1490,
      "silver": 1491,
      "sliding": 1492,
      "vegetables": 1493,
      "platform": 1494,
      "bb": 1495,
      "cers": 1496,
      "fing": 1497,
      "made": 1498,
      "sof": 1499,
      "eng": 1500,
      "ess": 1501,
      "shoo": 1502,
      "ural": 1503,
      "sold": 1504,
      "streets": 1505,
      "feet": 1506,
      "screen": 1507,
      "trad": 1508,
      "viol": 1509,
      "obser": 1510,
      "iness": 1511,
      "facing": 1512,
      "counter": 1513,
      "chasing": 1514,
      "teenag": 1515,
      "sports": 1516,
      "Indian": 1517,
      "cy": 1518,
      "cir": 1519,
      "que": 1520,
      "before": 1521,
      "waters": 1522,
      "stretch": 1523,
      "nel": 1524,
      "indiv": 1525,
      "ulp": 1526,
      "helmets": 1527,
      "competing": 1528,
      "biker": 1529,
      "happy": 1530,
      "speaking": 1531,
      "wedding": 1532,
      "individu": 1533,
      "Six": 1534,
      "eth": 1535,
      "ken": 1536,
      "mall": 1537,
      "ining": 1538,
      "lights": 1539,
      "sculp": 1540,
      "shovel": 1541,
      "tries": 1542,
      "teams": 1543,
      "huge": 1544,
      "surfing": 1545,
      "cano": 1546,
      "athle": 1547,
      "laptop": 1548,
      "classroom": 1549,
      "tradition": 1550,
      "ast": 1551,
      "ced": 1552,
      "pes": 1553,
      "ton": 1554,
      "tun": 1555,
      "vide": 1556,
      "wrap": 1557,
      "memb": 1558,
      "bride": 1559,
      "fighting": 1560,
      "sings": 1561,
      "waits": 1562,
      "decor": 1563,
      "students": 1564,
      "business": 1565,
      "climbs": 1566,
      "purse": 1567,
      "produ": 1568,
      "sticks": 1569,
      "athon": 1570,
      "traditional": 1571,
      "mi": 1572,
      "sled": 1573,
      "shad": 1574,
      "seen": 1575,
      "part": 1576,
      "crouch": 1577,
      "clown": 1578,
      "plane": 1579,
      "kissing": 1580,
      "animal": 1581,
      "military": 1582,
      "cts": 1583,
      "son": 1584,
      "town": 1585,
      "trun": 1586,
      "well": 1587,
      "stroller": 1588,
      "oper": 1589,
      "hole": 1590,
      "cover": 1591,
      "urban": 1592,
      "walkway": 1593,
      "throw": 1594,
      "skating": 1595,
      "chef": 1596,
      "same": 1597,
      "writing": 1598,
      "Wor": 1599,
      "ked": 1600,
      "allow": 1601,
      "sea": 1602,
      "diving": 1603,
      "sunset": 1604,
      "females": 1605,
      "exam": 1606,
      "skier": 1607,
      "shoulder": 1608,
      "kneeling": 1609,
      "video": 1610,
      "bur": 1611,
      "chi": 1612,
      "cand": 1613,
      "gard": 1614,
      "hoo": 1615,
      "ror": 1616,
      "sup": 1617,
      "sort": 1618,
      "indoor": 1619,
      "ator": 1620,
      "life": 1621,
      "runner": 1622,
      "partic": 1623,
      "waving": 1624,
      "talk": 1625,
      "golf": 1626,
      "chest": 1627,
      "attempting": 1628,
      "ristmas": 1629,
      "barefoot": 1630,
      "scooter": 1631,
      "soldi": 1632,
      "ges": 1633,
      "ien": 1634,
      "lan": 1635,
      "pas": 1636,
      "rink": 1637,
      "touch": 1638,
      "leash": 1639,
      "blowing": 1640,
      "com": 1641,
      "makes": 1642,
      "tables": 1643,
      "cloth": 1644,
      "father": 1645,
      "marathon": 1646,
      "camp": 1647,
      "signs": 1648,
      "clou": 1649,
      "enjoy": 1650,
      "outfits": 1651,
      "balan": 1652,
      "resting": 1653,
      "course": 1654,
      "electric": 1655,
      "violin": 1656,
      "cat": 1657,
      "ies": 1658,
      "leg": 1659,
      "lebr": 1660,
      "adver": 1661,
      "celebr": 1662,
      "lies": 1663,
      "five": 1664,
      "overlooking": 1665,
      "cuss": 1666,
      "bald": 1667,
      "inese": 1668,
      "fully": 1669,
      "officer": 1670,
      "multic": 1671,
      "bubbles": 1672,
      "mirror": 1673,
      "says": 1674,
      "advert": 1675,
      "cont": 1676,
      "gre": 1677,
      "har": 1678,
      "leans": 1679,
      "atten": 1680,
      "stun": 1681,
      "ching": 1682,
      "rolling": 1683,
      "fixing": 1684,
      "pier": 1685,
      "custo": 1686,
      "foll": 1687,
      "gymna": 1688,
      "balloons": 1689,
      "collar": 1690,
      "able": 1691,
      "fin": 1692,
      "ist": 1693,
      "pen": 1694,
      "tack": 1695,
      "ative": 1696,
      "alone": 1697,
      "tool": 1698,
      "gro": 1699,
      "rol": 1700,
      "helping": 1701,
      "micro": 1702,
      "foreground": 1703,
      "musicians": 1704,
      "deser": 1705,
      "brightly": 1706,
      "not": 1707,
      "umbrellas": 1708,
      "leather": 1709,
      "discuss": 1710,
      "faces": 1711,
      "artist": 1712,
      "Construction": 1713,
      "dau": 1714,
      "good": 1715,
      "ners": 1716,
      "vice": 1717,
      "leep": 1718,
      "legs": 1719,
      "stad": 1720,
      "asleep": 1721,
      "meat": 1722,
      "load": 1723,
      "die": 1724,
      "headphones": 1725,
      "ffic": 1726,
      "plate": 1727,
      "giant": 1728,
      "prin": 1729,
      "sculpture": 1730,
      "canoe": 1731,
      "particip": 1732,
      "daught": 1733,
      "Do": 1734,
      "ctive": 1735,
      "dra": 1736,
      "dish": 1737,
      "olored": 1738,
      "sy": 1739,
      "van": 1740,
      "repair": 1741,
      "str": 1742,
      "ched": 1743,
      "chur": 1744,
      "heav": 1745,
      "wears": 1746,
      "mel": 1747,
      "tail": 1748,
      "office": 1749,
      "trash": 1750,
      "doorway": 1751,
      "guard": 1752,
      "sandals": 1753,
      "swings": 1754,
      "slee": 1755,
      "falling": 1756,
      "drawing": 1757,
      "washing": 1758,
      "passing": 1759,
      "grocer": 1760,
      "stadium": 1761,
      "He": 1762,
      "ddle": 1763,
      "fts": 1764,
      "lu": 1765,
      "val": 1766,
      "ref": 1767,
      "hiking": 1768,
      "string": 1769,
      "held": 1770,
      "accor": 1771,
      "move": 1772,
      "heads": 1773,
      "stuff": 1774,
      "comple": 1775,
      "toys": 1776,
      "musical": 1777,
      "skiing": 1778,
      "officers": 1779,
      "hammer": 1780,
      "multicolored": 1781,
      "accordi": 1782,
      "fur": 1783,
      "hall": 1784,
      "kn": 1785,
      "min": 1786,
      "py": 1787,
      "inclu": 1788,
      "mance": 1789,
      "formance": 1790,
      "sel": 1791,
      "throws": 1792,
      "males": 1793,
      "sca": 1794,
      "picking": 1795,
      "performance": 1796,
      "spend": 1797,
      "shoe": 1798,
      "booth": 1799,
      "dirty": 1800,
      "photographer": 1801,
      "teenage": 1802,
      "prof": 1803,
      "reaching": 1804,
      "finish": 1805,
      "church": 1806,
      "accordion": 1807,
      "Whi": 1808,
      "cting": 1809,
      "fan": 1810,
      "fra": 1811,
      "hear": 1812,
      "ima": 1813,
      "pond": 1814,
      "ering": 1815,
      "straw": 1816,
      "laun": 1817,
      "below": 1818,
      "shallow": 1819,
      "veling": 1820,
      "clean": 1821,
      "digging": 1822,
      "traffic": 1823,
      "most": 1824,
      "flu": 1825,
      "eye": 1826,
      "pati": 1827,
      "block": 1828,
      "present": 1829,
      "daughter": 1830,
      "gate": 1831,
      "how": 1832,
      "ige": 1833,
      "igh": 1834,
      "kha": 1835,
      "nap": 1836,
      "pour": 1837,
      "ater": 1838,
      "atop": 1839,
      "ature": 1840,
      "ens": 1841,
      "lders": 1842,
      "teach": 1843,
      "pea": 1844,
      "upside": 1845,
      "brun": 1846,
      "moving": 1847,
      "dancers": 1848,
      "project": 1849,
      "hugging": 1850,
      "gives": 1851,
      "catching": 1852,
      "catches": 1853,
      "passes": 1854,
      "relaxing": 1855,
      "direction": 1856,
      "soft": 1857,
      "tunnel": 1858,
      "microscope": 1859,
      "Bla": 1860,
      "Gu": 1861,
      "aster": 1862,
      "bro": 1863,
      "dun": 1864,
      "ele": 1865,
      "hou": 1866,
      "kar": 1867,
      "pup": 1868,
      "pul": 1869,
      "stor": 1870,
      "allen": 1871,
      "lab": 1872,
      "ession": 1873,
      "ches": 1874,
      "robe": 1875,
      "hoop": 1876,
      "bly": 1877,
      "beige": 1878,
      "shows": 1879,
      "self": 1880,
      "balls": 1881,
      "paved": 1882,
      "pill": 1883,
      "deep": 1884,
      "els": 1885,
      "cau": 1886,
      "cafe": 1887,
      "books": 1888,
      "sleeps": 1889,
      "flies": 1890,
      "leaping": 1891,
      "Christmas": 1892,
      "Chinese": 1893,
      "sweeping": 1894,
      "garden": 1895,
      "stunt": 1896,
      "brunette": 1897,
      "bin": 1898,
      "ber": 1899,
      "estri": 1900,
      "hur": 1901,
      "lone": 1902,
      "step": 1903,
      "teeth": 1904,
      "hose": 1905,
      "cold": 1906,
      "stream": 1907,
      "post": 1908,
      "skin": 1909,
      "singer": 1910,
      "fest": 1911,
      "scaff": 1912,
      "flat": 1913,
      "coats": 1914,
      "conversing": 1915,
      "wards": 1916,
      "chain": 1917,
      "circle": 1918,
      "trunks": 1919,
      "hoodie": 1920,
      "desert": 1921,
      "St": 1922,
      "cri": 1923,
      "cyclist": 1924,
      "fair": 1925,
      "lers": 1926,
      "ness": 1927,
      "war": 1928,
      "stack": 1929,
      "alls": 1930,
      "racket": 1931,
      "ried": 1932,
      "neath": 1933,
      "formal": 1934,
      "contain": 1935,
      "closed": 1936,
      "deck": 1937,
      "stud": 1938,
      "jogging": 1939,
      "underneath": 1940,
      "suspend": 1941,
      "wea": 1942,
      "balcon": 1943,
      "points": 1944,
      "plants": 1945,
      "square": 1946,
      "wrestling": 1947,
      "telescope": 1948,
      "splashing": 1949,
      "covering": 1950,
      "sleeve": 1951,
      "Black": 1952,
      "karate": 1953,
      "Kids": 1954,
      "fre": 1955,
      "fting": 1956,
      "fant": 1957,
      "ger": 1958,
      "us": 1959,
      "without": 1960,
      "cho": 1961,
      "ophone": 1962,
      "appro": 1963,
      "magaz": 1964,
      "gage": 1965,
      "tramp": 1966,
      "dances": 1967,
      "must": 1968,
      "ggling": 1969,
      "themsel": 1970,
      "oline": 1971,
      "sax": 1972,
      "nival": 1973,
      "hula": 1974,
      "cane": 1975,
      "passeng": 1976,
      "curly": 1977,
      "shoulders": 1978,
      "padd": 1979,
      "spray": 1980,
      "including": 1981,
      "themselves": 1982,
      "Co": 1983,
      "Old": 1984,
      "Small": 1985,
      "bun": 1986,
      "kind": 1987,
      "mural": 1988,
      "pin": 1989,
      "tong": 1990,
      "wine": 1991,
      "zed": 1992,
      "ina": 1993,
      "erman": 1994,
      "hiker": 1995,
      "atta": 1996,
      "entr": 1997,
      "opposing": 1998,
      "ung": 1999,
      "taken": 2000,
      "carnival": 2001,
      "clear": 2002,
      "crying": 2003,
      "bath": 2004,
      "moto": 2005,
      "bicyclist": 2006,
      "wooded": 2007,
      "tricks": 2008,
      "crosswalk": 2009,
      "sheet": 2010,
      "opening": 2011,
      "makeup": 2012,
      "matching": 2013,
      "dinner": 2014,
      "kayak": 2015,
      "individuals": 2016,
      "produce": 2017,
      "Workers": 2018,
      "heavy": 2019,
      "pulled": 2020,
      "trampoline": 2021,
      "fly": 2022,
      "nice": 2023,
      "spot": 2024,
      "inspe": 2025,
      "infant": 2026,
      "rece": 2027,
      "stroll": 2028,
      "ower": 2029,
      "eding": 2030,
      "gra": 2031,
      "seat": 2032,
      "sewing": 2033,
      "tub": 2034,
      "picnic": 2035,
      "dles": 2036,
      "performer": 2037,
      "surface": 2038,
      "help": 2039,
      "nose": 2040,
      "cial": 2041,
      "knee": 2042,
      "attempts": 2043,
      "leaders": 2044,
      "brush": 2045,
      "members": 2046,
      "stuffed": 2047,
      "profession": 2048,
      "Bl": 2049,
      "center": 2050,
      "drop": 2051,
      "ire": 2052,
      "lunch": 2053,
      "press": 2054,
      "vil": 2055,
      "inning": 2056,
      "third": 2057,
      "lays": 2058,
      "ital": 2059,
      "icycle": 2060,
      "blouse": 2061,
      "lly": 2062,
      "bel": 2063,
      "bever": 2064,
      "log": 2065,
      "rug": 2066,
      "These": 2067,
      "pushes": 2068,
      "goes": 2069,
      "himself": 2070,
      "exc": 2071,
      "slope": 2072,
      "driver": 2073,
      "chases": 2074,
      "botto": 2075,
      "button": 2076,
      "style": 2077,
      "softball": 2078,
      "estrians": 2079,
      "festiv": 2080,
      "balcony": 2081,
      "approach": 2082,
      "AT": 2083,
      "bble": 2084,
      "mop": 2085,
      "mate": 2086,
      "ot": 2087,
      "pal": 2088,
      "za": 2089,
      "ited": 2090,
      "ares": 2091,
      "ashi": 2092,
      "live": 2093,
      "lift": 2094,
      "waterfall": 2095,
      "skis": 2096,
      "put": 2097,
      "puts": 2098,
      "pulls": 2099,
      "sprink": 2100,
      "device": 2101,
      "bent": 2102,
      "sandy": 2103,
      "type": 2104,
      "staircase": 2105,
      "boxes": 2106,
      "steep": 2107,
      "club": 2108,
      "speaks": 2109,
      "athlete": 2110,
      "advertise": 2111,
      "Br": 2112,
      "Ma": 2113,
      "don": 2114,
      "fallen": 2115,
      "gon": 2116,
      "hal": 2117,
      "ka": 2118,
      "lid": 2119,
      "ns": 2120,
      "pit": 2121,
      "angs": 2122,
      "atting": 2123,
      "stool": 2124,
      "alk": 2125,
      "irts": 2126,
      "robes": 2127,
      "ship": 2128,
      "podi": 2129,
      "overalls": 2130,
      "puddle": 2131,
      "pick": 2132,
      "dancer": 2133,
      "swims": 2134,
      "boats": 2135,
      "enjoys": 2136,
      "design": 2137,
      "drives": 2138,
      "shaking": 2139,
      "wetsuit": 2140,
      "keyboard": 2141,
      "gymnast": 2142,
      "grocery": 2143,
      "scape": 2144,
      "Guy": 2145,
      "fresh": 2146,
      "festival": 2147,
      "New": 2148,
      "Older": 2149,
      "bs": 2150,
      "bou": 2151,
      "farm": 2152,
      "hangs": 2153,
      "jam": 2154,
      "mound": 2155,
      "sco": 2156,
      "onic": 2157,
      "hikers": 2158,
      "grind": 2159,
      "shar": 2160,
      "vement": 2161,
      "apan": 2162,
      "apers": 2163,
      "figu": 2164,
      "tracks": 2165,
      "pian": 2166,
      "headed": 2167,
      "jean": 2168,
      "marching": 2169,
      "bicyclists": 2170,
      "cted": 2171,
      "compan": 2172,
      "ledge": 2173,
      "barbe": 2174,
      "kicks": 2175,
      "shaving": 2176,
      "curb": 2177,
      "garb": 2178,
      "gentlemen": 2179,
      "birds": 2180,
      "porch": 2181,
      "pitcher": 2182,
      "fingers": 2183,
      "teenagers": 2184,
      "wrapped": 2185,
      "cloudy": 2186,
      "customers": 2187,
      "laundry": 2188,
      "pouring": 2189,
      "San": 2190,
      "amp": 2191,
      "bra": 2192,
      "care": 2193,
      "fashi": 2194,
      "ggage": 2195,
      "ls": 2196,
      "enga": 2197,
      "orien": 2198,
      "chalk": 2199,
      "oppo": 2200,
      "arena": 2201,
      "groom": 2202,
      "ears": 2203,
      "shap": 2204,
      "airplane": 2205,
      "lots": 2206,
      "local": 2207,
      "bric": 2208,
      "apart": 2209,
      "polo": 2210,
      "poles": 2211,
      "backyard": 2212,
      "moves": 2213,
      "scu": 2214,
      "shoveling": 2215,
      "cular": 2216,
      "checking": 2217,
      "saw": 2218,
      "sale": 2219,
      "foreign": 2220,
      "colors": 2221,
      "sheep": 2222,
      "evening": 2223,
      "chase": 2224,
      "reaches": 2225,
      "golden": 2226,
      "blocks": 2227,
      "protective": 2228,
      "shooting": 2229,
      "teenager": 2230,
      "Here": 2231,
      "khaki": 2232,
      "paddling": 2233,
      "attached": 2234,
      "palm": 2235,
      "podium": 2236,
      "piano": 2237,
      "oriental": 2238,
      "opposite": 2239,
      "\".": 2240,
      "Japan": 2241,
      "bit": 2242,
      "bread": 2243,
      "ef": 2244,
      "ei": 2245,
      "emb": 2246,
      "far": 2247,
      "gan": 2248,
      "ged": 2249,
      "olding": 2250,
      "range": 2251,
      "swor": 2252,
      "tou": 2253,
      "vac": 2254,
      "was": 2255,
      "yo": 2256,
      "inflat": 2257,
      "recor": 2258,
      "arrow": 2259,
      "oufla": 2260,
      "stle": 2261,
      "ising": 2262,
      "itor": 2263,
      "oppon": 2264,
      "grab": 2265,
      "sition": 2266,
      "rack": 2267,
      "raft": 2268,
      "oney": 2269,
      "sell": 2270,
      "bran": 2271,
      "poss": 2272,
      "poster": 2273,
      "position": 2274,
      "fix": 2275,
      "skirts": 2276,
      "pajam": 2277,
      "pavement": 2278,
      "bage": 2279,
      "cones": 2280,
      "camoufla": 2281,
      "fabric": 2282,
      "del": 2283,
      "tory": 2284,
      "bandan": 2285,
      "windows": 2286,
      "wheelchair": 2287,
      "denim": 2288,
      "fenced": 2289,
      "balancing": 2290,
      "luggage": 2291,
      "saxophone": 2292,
      "tongue": 2293,
      "fashion": 2294,
      "inflatable": 2295,
      "camouflage": 2296,
      "aks": 2297,
      "cool": 2298,
      "flight": 2299,
      "mmer": 2300,
      "tro": 2301,
      "ane": 2302,
      "refe": 2303,
      "ork": 2304,
      "escal": 2305,
      "char": 2306,
      "test": 2307,
      "meet": 2308,
      "beam": 2309,
      "shade": 2310,
      "buying": 2311,
      "amer": 2312,
      "juggling": 2313,
      "tractor": 2314,
      "pipe": 2315,
      "eats": 2316,
      "tops": 2317,
      "fast": 2318,
      "married": 2319,
      "walls": 2320,
      "flor": 2321,
      "swimsuit": 2322,
      "tyard": 2323,
      "floating": 2324,
      "rollers": 2325,
      "motorcycles": 2326,
      "courtyard": 2327,
      "laughs": 2328,
      "kiss": 2329,
      "railroad": 2330,
      "leading": 2331,
      "goalie": 2332,
      "ized": 2333,
      "raised": 2334,
      "finger": 2335,
      "frame": 2336,
      "image": 2337,
      "skinned": 2338,
      "professional": 2339,
      "bottom": 2340,
      "cue": 2341,
      "fir": 2342,
      "fold": 2343,
      "lines": 2344,
      "my": 2345,
      "map": 2346,
      "mix": 2347,
      "spo": 2348,
      "tar": 2349,
      "wk": 2350,
      "wel": 2351,
      "oustic": 2352,
      "toss": 2353,
      "eds": 2354,
      "rac": 2355,
      "rists": 2356,
      "shown": 2357,
      "socks": 2358,
      "bucking": 2359,
      "tiple": 2360,
      "carpet": 2361,
      "achu": 2362,
      "backwards": 2363,
      "six": 2364,
      "riders": 2365,
      "tube": 2366,
      "action": 2367,
      "acoustic": 2368,
      "trans": 2369,
      "ggy": 2370,
      "sail": 2371,
      "plant": 2372,
      "speak": 2373,
      "towel": 2374,
      "float": 2375,
      "musician": 2376,
      "ages": 2377,
      "firefight": 2378,
      "eved": 2379,
      "marketplace": 2380,
      "casu": 2381,
      "carriage": 2382,
      "garbage": 2383,
      "jerseys": 2384,
      "happily": 2385,
      "entertain": 2386,
      "cheering": 2387,
      "relax": 2388,
      "stretched": 2389,
      "soldier": 2390,
      "soldiers": 2391,
      "touching": 2392,
      "tools": 2393,
      "goods": 2394,
      "Dog": 2395,
      "peace": 2396,
      "hurdle": 2397,
      "scaffolding": 2398,
      "suspended": 2399,
      "mustach": 2400,
      "Santa": 2401,
      "either": 2402,
      "pajamas": 2403,
      "bandanna": 2404,
      "american": 2405,
      "floral": 2406,
      "rollersk": 2407,
      "At": 2408,
      "boun": 2409,
      "da": 2410,
      "egg": 2411,
      "emer": 2412,
      "fans": 2413,
      "ging": 2414,
      "hers": 2415,
      "hay": 2416,
      "hones": 2417,
      "if": 2418,
      "oc": 2419,
      "sal": 2420,
      "ze": 2421,
      "invol": 2422,
      "thumb": 2423,
      "isher": 2424,
      "orn": 2425,
      "chop": 2426,
      "gri": 2427,
      "plaza": 2428,
      "ics": 2429,
      "doctor": 2430,
      "bling": 2431,
      "coach": 2432,
      "mpet": 2433,
      "airport": 2434,
      "living": 2435,
      "broom": 2436,
      "parachu": 2437,
      "rubb": 2438,
      "snack": 2439,
      "lymp": 2440,
      "act": 2441,
      "acting": 2442,
      "stacle": 2443,
      "odd": 2444,
      "ations": 2445,
      "Seven": 2446,
      "colle": 2447,
      "paints": 2448,
      "underwater": 2449,
      "corn": 2450,
      "barrel": 2451,
      "welding": 2452,
      "sleeved": 2453,
      "obstacle": 2454,
      "desc": 2455,
      "serving": 2456,
      "backpacks": 2457,
      "stove": 2458,
      "landscape": 2459,
      "dining": 2460,
      "animals": 2461,
      "kneels": 2462,
      "bubble": 2463,
      "hooded": 2464,
      "athletic": 2465,
      "White": 2466,
      "caught": 2467,
      "magazine": 2468,
      "rugby": 2469,
      "advertisement": 2470,
      "Male": 2471,
      "escalator": 2472,
      ".\"": 2473,
      "Ar": 2474,
      "Cr": 2475,
      "Che": 2476,
      "German": 2477,
      "cling": 2478,
      "free": 2479,
      "money": 2480,
      "nu": 2481,
      "sid": 2482,
      "vy": 2483,
      "vic": 2484,
      "inters": 2485,
      "rests": 2486,
      "iron": 2487,
      "heels": 2488,
      "cere": 2489,
      "liqu": 2490,
      "neon": 2491,
      "amuse": 2492,
      "runners": 2493,
      "thrown": 2494,
      "tery": 2495,
      "mobi": 2496,
      "pige": 2497,
      "hawk": 2498,
      "bending": 2499,
      "ropes": 2500,
      "ffy": 2501,
      "jockey": 2502,
      "climber": 2503,
      "exer": 2504,
      "weight": 2505,
      "trumpet": 2506,
      "drive": 2507,
      "polka": 2508,
      "shaw": 2509,
      "casian": 2510,
      "rollerbla": 2511,
      "seems": 2512,
      "brushing": 2513,
      "pony": 2514,
      "neckla": 2515,
      "checkered": 2516,
      "decorated": 2517,
      "operating": 2518,
      "examining": 2519,
      "chestra": 2520,
      "participating": 2521,
      "student": 2522,
      "gravel": 2523,
      "half": 2524,
      "shaped": 2525,
      "referee": 2526,
      "grilling": 2527,
      "amusement": 2528,
      "Jo": 2529,
      "Lo": 2530,
      "Mo": 2531,
      "York": 2532,
      "aw": 2533,
      "cone": 2534,
      "cyclists": 2535,
      "ech": 2536,
      "fle": 2537,
      "gas": 2538,
      "hy": 2539,
      "hound": 2540,
      "jung": 2541,
      "pine": 2542,
      "rout": 2543,
      "rowing": 2544,
      "spa": 2545,
      "warm": 2546,
      "ye": 2547,
      "youth": 2548,
      "zer": 2549,
      "thin": 2550,
      "ars": 2551,
      "hitting": 2552,
      "wire": 2553,
      "wide": 2554,
      "order": 2555,
      "orchestra": 2556,
      "gestu": 2557,
      "beg": 2558,
      "ribb": 2559,
      "shed": 2560,
      "frisbee": 2561,
      "loc": 2562,
      "ilt": 2563,
      "throom": 2564,
      "feeding": 2565,
      "bathroom": 2566,
      "dio": 2567,
      "tum": 2568,
      "things": 2569,
      "model": 2570,
      "wagon": 2571,
      "pull": 2572,
      "headscarf": 2573,
      "haircut": 2574,
      "sport": 2575,
      "pedestrians": 2576,
      "camel": 2577,
      "studio": 2578,
      "ends": 2579,
      "benches": 2580,
      "sandwi": 2581,
      "sets": 2582,
      "summer": 2583,
      "sticking": 2584,
      "dump": 2585,
      "compete": 2586,
      "turning": 2587,
      "bank": 2588,
      "boxing": 2589,
      "attempt": 2590,
      "practice": 2591,
      "vehicles": 2592,
      "craft": 2593,
      "photographs": 2594,
      "patter": 2595,
      "protest": 2596,
      "muddy": 2597,
      "vision": 2598,
      "individual": 2599,
      "crouches": 2600,
      "candy": 2601,
      "control": 2602,
      "harness": 2603,
      "print": 2604,
      "reflec": 2605,
      "hallway": 2606,
      "knit": 2607,
      "heart": 2608,
      "presentation": 2609,
      "teacher": 2610,
      "recei": 2611,
      "excited": 2612,
      "sharing": 2613,
      "Japanese": 2614,
      "opponent": 2615,
      "possi": 2616,
      "mobile": 2617,
      "exerc": 2618,
      "jungle": 2619,
      "Ho": 2620,
      "Mar": 2621,
      "Olymp": 2622,
      "ais": 2623,
      "ded": 2624,
      "een": 2625,
      "eli": 2626,
      "ext": 2627,
      "ig": 2628,
      "native": 2629,
      "pers": 2630,
      "sack": 2631,
      "sink": 2632,
      "xi": 2633,
      "you": 2634,
      "yhound": 2635,
      "iny": 2636,
      "inten": 2637,
      "inery": 2638,
      "only": 2639,
      "aters": 2640,
      "start": 2641,
      "also": 2642,
      "etrack": 2643,
      "racer": 2644,
      "ceiling": 2645,
      "neigh": 2646,
      "herd": 2647,
      "ility": 2648,
      "tiv": 2649,
      "tile": 2650,
      "jumpsuit": 2651,
      "rench": 2652,
      "sized": 2653,
      "cleans": 2654,
      "crash": 2655,
      "mom": 2656,
      "trop": 2657,
      "jewel": 2658,
      "doors": 2659,
      "muzz": 2660,
      "guitars": 2661,
      "elf": 2662,
      "gged": 2663,
      "skateboards": 2664,
      "speech": 2665,
      "bars": 2666,
      "cess": 2667,
      "ously": 2668,
      "machinery": 2669,
      "surrounding": 2670,
      "viewing": 2671,
      "policeman": 2672,
      "focu": 2673,
      "snowboarding": 2674,
      "garage": 2675,
      "fruits": 2676,
      "sporting": 2677,
      "slides": 2678,
      "drummer": 2679,
      "turns": 2680,
      "loading": 2681,
      "patio": 2682,
      "eleph": 2683,
      "passengers": 2684,
      "motocross": 2685,
      "Brown": 2686,
      "figure": 2687,
      "barbecue": 2688,
      "sword": 2689,
      "racetrack": 2690,
      "mustache": 2691,
      "BM": 2692,
      "Lad": 2693,
      "On": 2694,
      "aqu": 2695,
      "dread": 2696,
      "ection": 2697,
      "ience": 2698,
      "mor": 2699,
      "moun": 2700,
      "nas": 2701,
      "narrow": 2702,
      "prop": 2703,
      "rough": 2704,
      "song": 2705,
      "spi": 2706,
      "twi": 2707,
      "ump": 2708,
      "wad": 2709,
      "erial": 2710,
      "itten": 2711,
      "irth": 2712,
      "oping": 2713,
      "assi": 2714,
      "pee": 2715,
      "hosp": 2716,
      "blow": 2717,
      "rier": 2718,
      "cot": 2719,
      "come": 2720,
      "tag": 2721,
      "seum": 2722,
      "sells": 2723,
      "bushes": 2724,
      "locks": 2725,
      "brow": 2726,
      "dim": 2727,
      "boardwalk": 2728,
      "puck": 2729,
      "scre": 2730,
      "headband": 2731,
      "ways": 2732,
      "jects": 2733,
      "museum": 2734,
      "surg": 2735,
      "cape": 2736,
      "baskets": 2737,
      "exhi": 2738,
      "horseback": 2739,
      "nail": 2740,
      "hillside": 2741,
      "leaf": 2742,
      "leaving": 2743,
      "bikers": 2744,
      "paren": 2745,
      "borhood": 2746,
      "stopped": 2747,
      "petting": 2748,
      "electronic": 2749,
      "presen": 2750,
      "shoot": 2751,
      "observe": 2752,
      "member": 2753,
      "super": 2754,
      "lane": 2755,
      "discussion": 2756,
      "astern": 2757,
      "dune": 2758,
      "entrance": 2759,
      "Blond": 2760,
      "beverage": 2761,
      "ATV": 2762,
      "first": 2763,
      "herself": 2764,
      "ornate": 2765,
      "Crowd": 2766,
      "intersection": 2767,
      "ceremon": 2768,
      "routine": 2769,
      "sandwich": 2770,
      "possibly": 2771,
      "hospital": 2772,
      "Fire": 2773,
      "Lar": 2774,
      "She": 2775,
      "Stu": 2776,
      "aking": 2777,
      "ahead": 2778,
      "african": 2779,
      "clap": 2780,
      "clay": 2781,
      "loung": 2782,
      "nur": 2783,
      "oon": 2784,
      "pherd": 2785,
      "tes": 2786,
      "stones": 2787,
      "strap": 2788,
      "lamp": 2789,
      "wild": 2790,
      "iddle": 2791,
      "dot": 2792,
      "hoops": 2793,
      "cobble": 2794,
      "seas": 2795,
      "seats": 2796,
      "baller": 2797,
      "lip": 2798,
      "outstretched": 2799,
      "tight": 2800,
      "skates": 2801,
      "bill": 2802,
      "cond": 2803,
      "condu": 2804,
      "pig": 2805,
      "pipes": 2806,
      "maroon": 2807,
      "helps": 2808,
      "crew": 2809,
      "microphones": 2810,
      "navy": 2811,
      "motorcyclist": 2812,
      "akers": 2813,
      "pieces": 2814,
      "folding": 2815,
      "smoke": 2816,
      "nets": 2817,
      "squatting": 2818,
      "bottles": 2819,
      "ference": 2820,
      "silhou": 2821,
      "buckets": 2822,
      "tattooed": 2823,
      "fencing": 2824,
      "cardboard": 2825,
      "mixing": 2826,
      "indoors": 2827,
      "celebrating": 2828,
      "dishes": 2829,
      "tails": 2830,
      "complete": 2831,
      "fancy": 2832,
      "mostly": 2833,
      "patient": 2834,
      "puppy": 2835,
      "container": 2836,
      "villa": 2837,
      "rubber": 2838,
      "neighborhood": 2839,
      "Lady": 2840,
      "irthday": 2841,
      "Large": 2842,
      "Mu": 2843,
      "Stre": 2844,
      "ai": 2845,
      "bam": 2846,
      "cru": 2847,
      "fer": 2848,
      "gall": 2849,
      "ior": 2850,
      "kite": 2851,
      "nit": 2852,
      "os": 2853,
      "pop": 2854,
      "patch": 2855,
      "punch": 2856,
      "rural": 2857,
      "spar": 2858,
      "intent": 2859,
      "ants": 2860,
      "lection": 2861,
      "stro": 2862,
      "stra": 2863,
      "stares": 2864,
      "labor": 2865,
      "wife": 2866,
      "cked": 2867,
      "grand": 2868,
      "tel": 2869,
      "tex": 2870,
      "tered": 2871,
      "blows": 2872,
      "bean": 2873,
      "rick": 2874,
      "bul": 2875,
      "buy": 2876,
      "loye": 2877,
      "ames": 2878,
      "amid": 2879,
      "tially": 2880,
      "brary": 2881,
      "apple": 2882,
      "carving": 2883,
      "paras": 2884,
      "backs": 2885,
      "formation": 2886,
      "handstand": 2887,
      "activ": 2888,
      "travel": 2889,
      "more": 2890,
      "moment": 2891,
      "pump": 2892,
      "spinning": 2893,
      "got": 2894,
      "flops": 2895,
      "guitarist": 2896,
      "cuts": 2897,
      "stripes": 2898,
      "merch": 2899,
      "uniformed": 2900,
      "quet": 2901,
      "chee": 2902,
      "swimmer": 2903,
      "storefront": 2904,
      "coloring": 2905,
      "hugs": 2906,
      "firetruck": 2907,
      "balance": 2908,
      "newly": 2909,
      "item": 2910,
      "wheels": 2911,
      "calf": 2912,
      "gency": 2913,
      "monstr": 2914,
      "smokes": 2915,
      "flipping": 2916,
      "born": 2917,
      "scenery": 2918,
      "medical": 2919,
      "crafts": 2920,
      "bowls": 2921,
      "cheerleaders": 2922,
      "tattoos": 2923,
      "funny": 2924,
      "spraying": 2925,
      "stretching": 2926,
      "ethnic": 2927,
      "crouching": 2928,
      "comfor": 2929,
      "great": 2930,
      "cricket": 2931,
      "sleeveless": 2932,
      "choir": 2933,
      "inspecting": 2934,
      "belt": 2935,
      "grinding": 2936,
      "apartment": 2937,
      "scuba": 2938,
      "vacu": 2939,
      "isherman": 2940,
      "reflective": 2941,
      "dreadlocks": 2942,
      "Street": 2943,
      "niture": 2944,
      "Bu": 2945,
      "Le": 2946,
      "Middle": 2947,
      "Ro": 2948,
      "Run": 2949,
      "Spe": 2950,
      "US": 2951,
      "birthday": 2952,
      "cong": 2953,
      "ky": 2954,
      "pri": 2955,
      "rons": 2956,
      "sen": 2957,
      "sad": 2958,
      "tour": 2959,
      "zing": 2960,
      "lear": 2961,
      "organ": 2962,
      "tee": 2963,
      "unicycle": 2964,
      "races": 2965,
      "urope": 2966,
      "lifting": 2967,
      "library": 2968,
      "ilts": 2969,
      "ties": 2970,
      "tied": 2971,
      "bris": 2972,
      "partially": 2973,
      "simil": 2974,
      "crane": 2975,
      "boards": 2976,
      "conference": 2977,
      "moder": 2978,
      "spread": 2979,
      "derby": 2980,
      "ondon": 2981,
      "dead": 2982,
      "demonstr": 2983,
      "horn": 2984,
      "colum": 2985,
      "plu": 2986,
      "speed": 2987,
      "exper": 2988,
      "vig": 2989,
      "motorbike": 2990,
      "objects": 2991,
      "name": 2992,
      "naked": 2993,
      "balding": 2994,
      "dust": 2995,
      "duck": 2996,
      "nighttime": 2997,
      "stairway": 2998,
      "turned": 2999,
      "rainy": 3000,
      "banner": 3001,
      "calm": 3002,
      "gymnas": 3003,
      "computers": 3004,
      "batter": 3005,
      "listens": 3006,
      "letes": 3007,
      "Girls": 3008,
      "vegetable": 3009,
      "raises": 3010,
      "sofa": 3011,
      "chick": 3012,
      "candles": 3013,
      "balances": 3014,
      "greyhound": 3015,
      "following": 3016,
      "gymnastic": 3017,
      "discussing": 3018,
      "furniture": 3019,
      "fluffy": 3020,
      "broken": 3021,
      "houses": 3022,
      "approaching": 3023,
      "moped": 3024,
      "folded": 3025,
      "pigeons": 3026,
      "BMX": 3027,
      "dimly": 3028,
      "intently": 3029,
      "similar": 3030,
      "gymnasium": 3031,
      "12": 3032,
      "20": 3033,
      "ather": 3034,
      "ail": 3035,
      "bby": 3036,
      "bass": 3037,
      "cop": 3038,
      "cid": 3039,
      "clad": 3040,
      "dough": 3041,
      "eu": 3042,
      "eath": 3043,
      "ible": 3044,
      "jet": 3045,
      "kni": 3046,
      "om": 3047,
      "ocular": 3048,
      "pping": 3049,
      "papers": 3050,
      "sla": 3051,
      "sne": 3052,
      "slight": 3053,
      "zen": 3054,
      "inte": 3055,
      "arch": 3056,
      "hits": 3057,
      "theater": 3058,
      "ase": 3059,
      "ica": 3060,
      "doll": 3061,
      "unk": 3062,
      "adjust": 3063,
      "forward": 3064,
      "share": 3065,
      "taxi": 3066,
      "sem": 3067,
      "secur": 3068,
      "groups": 3069,
      "tist": 3070,
      "sive": 3071,
      "bleach": 3072,
      "boarder": 3073,
      "smaller": 3074,
      "motion": 3075,
      "push": 3076,
      "pies": 3077,
      "pizz": 3078,
      "beneath": 3079,
      "cameras": 3080,
      "castle": 3081,
      "ending": 3082,
      "merous": 3083,
      "pret": 3084,
      "carry": 3085,
      "plates": 3086,
      "barber": 3087,
      "teammate": 3088,
      "photos": 3089,
      "vie": 3090,
      "crosses": 3091,
      "training": 3092,
      "flowered": 3093,
      "catcher": 3094,
      "fireman": 3095,
      "note": 3096,
      "shaved": 3097,
      "rainbow": 3098,
      "called": 3099,
      "cook": 3100,
      "stomach": 3101,
      "point": 3102,
      "starting": 3103,
      "material": 3104,
      "trailer": 3105,
      "borne": 3106,
      "paddle": 3107,
      "wrestle": 3108,
      "television": 3109,
      "raising": 3110,
      "amongst": 3111,
      "observing": 3112,
      "shovels": 3113,
      "shades": 3114,
      "advertising": 3115,
      "follows": 3116,
      "participate": 3117,
      "While": 3118,
      "directions": 3119,
      "binocular": 3120,
      "engaged": 3121,
      "branch": 3122,
      "spoon": 3123,
      "college": 3124,
      "liquid": 3125,
      "necklace": 3126,
      "space": 3127,
      "ribbon": 3128,
      "jewelry": 3129,
      "elephant": 3130,
      "lounging": 3131,
      "village": 3132,
      "security": 3133,
      "City": 3134,
      "Cau": 3135,
      "Fe": 3136,
      "London": 3137,
      "Mul": 3138,
      "Red": 3139,
      "ax": 3140,
      "bad": 3141,
      "bound": 3142,
      "cree": 3143,
      "eled": 3144,
      "fted": 3145,
      "fisherman": 3146,
      "gers": 3147,
      "gown": 3148,
      "ia": 3149,
      "ike": 3150,
      "lst": 3151,
      "mis": 3152,
      "mates": 3153,
      "mini": 3154,
      "nature": 3155,
      "oes": 3156,
      "plo": 3157,
      "sor": 3158,
      "ut": 3159,
      "usi": 3160,
      "vo": 3161,
      "win": 3162,
      "thusi": 3163,
      "erleaders": 3164,
      "oned": 3165,
      "sters": 3166,
      "enthusi": 3167,
      "ites": 3168,
      "itors": 3169,
      "ounge": 3170,
      "whilst": 3171,
      "tech": 3172,
      "peering": 3173,
      "redheaded": 3174,
      "ador": 3175,
      "admir": 3176,
      "shining": 3177,
      "airborne": 3178,
      "bystand": 3179,
      "downtown": 3180,
      "upon": 3181,
      "keep": 3182,
      "poor": 3183,
      "rubs": 3184,
      "biking": 3185,
      "silly": 3186,
      "terrain": 3187,
      "consi": 3188,
      "angel": 3189,
      "tricycle": 3190,
      "fake": 3191,
      "tents": 3192,
      "job": 3193,
      "quick": 3194,
      "shops": 3195,
      "aud": 3196,
      "gift": 3197,
      "trucks": 3198,
      "caps": 3199,
      "Soccer": 3200,
      "newborn": 3201,
      "machines": 3202,
      "shakes": 3203,
      "factory": 3204,
      "interacting": 3205,
      "rings": 3206,
      "wheelbar": 3207,
      "scarves": 3208,
      "steel": 3209,
      "pottery": 3210,
      "leads": 3211,
      "glove": 3212,
      "photographed": 3213,
      "employe": 3214,
      "protesting": 3215,
      "closeup": 3216,
      "guns": 3217,
      "splashes": 3218,
      "cards": 3219,
      "engine": 3220,
      "trunk": 3221,
      "chefs": 3222,
      "follow": 3223,
      "repairs": 3224,
      "pillow": 3225,
      "weaving": 3226,
      "passenger": 3227,
      "sprinkler": 3228,
      "donkey": 3229,
      "tourists": 3230,
      "charac": 3231,
      "casual": 3232,
      "Cheerleaders": 3233,
      "receiving": 3234,
      "aisle": 3235,
      "wading": 3236,
      "scream": 3237,
      "Students": 3238,
      "cobblestone": 3239,
      "ballerina": 3240,
      "billboard": 3241,
      "straight": 3242,
      "congre": 3243,
      "modern": 3244,
      "slightly": 3245,
      "binoculars": 3246,
      "admiring": 3247,
      "Ad": 3248,
      "Europe": 3249,
      "Mc": 3250,
      "Pol": 3251,
      "Wal": 3252,
      "bing": 3253,
      "craw": 3254,
      "dro": 3255,
      "glid": 3256,
      "imp": 3257,
      "iff": 3258,
      "kin": 3259,
      "lounge": 3260,
      "mun": 3261,
      "may": 3262,
      "mmed": 3263,
      "oven": 3264,
      "pir": 3265,
      "pay": 3266,
      "rows": 3267,
      "sque": 3268,
      "tas": 3269,
      "ware": 3270,
      "xy": 3271,
      "incl": 3272,
      "leot": 3273,
      "arc": 3274,
      "tomat": 3275,
      "ets": 3276,
      "eter": 3277,
      "opes": 3278,
      "places": 3279,
      "robat": 3280,
      "been": 3281,
      "cock": 3282,
      "comb": 3283,
      "comes": 3284,
      "coaster": 3285,
      "tape": 3286,
      "tage": 3287,
      "lips": 3288,
      "lifted": 3289,
      "social": 3290,
      "ticket": 3291,
      "aps": 3292,
      "appl": 3293,
      "keys": 3294,
      "carts": 3295,
      "waterfront": 3296,
      "waterway": 3297,
      "filling": 3298,
      "world": 3299,
      "sniff": 3300,
      "feat": 3301,
      "dig": 3302,
      "overhead": 3303,
      "contest": 3304,
      "handle": 3305,
      "ately": 3306,
      "science": 3307,
      "debris": 3308,
      "tending": 3309,
      "checks": 3310,
      "sailing": 3311,
      "swimmers": 3312,
      "tower": 3313,
      "barrier": 3314,
      "express": 3315,
      "hug": 3316,
      "drill": 3317,
      "dusk": 3318,
      "mess": 3319,
      "messy": 3320,
      "tires": 3321,
      "lecture": 3322,
      "praying": 3323,
      "converse": 3324,
      "official": 3325,
      "cups": 3326,
      "landing": 3327,
      "flips": 3328,
      "paddles": 3329,
      "entering": 3330,
      "butter": 3331,
      "portra": 3332,
      "wings": 3333,
      "telephone": 3334,
      "gundy": 3335,
      "observes": 3336,
      "waterski": 3337,
      "laptops": 3338,
      "shadow": 3339,
      "examines": 3340,
      "burgundy": 3341,
      "lanter": 3342,
      "commun": 3343,
      "attention": 3344,
      "customer": 3345,
      "guards": 3346,
      "groceries": 3347,
      "flute": 3348,
      "teaching": 3349,
      "chainsaw": 3350,
      "studying": 3351,
      "bundle": 3352,
      "spotted": 3353,
      "meeting": 3354,
      "transport": 3355,
      "firefighters": 3356,
      "eggs": 3357,
      "thumbs": 3358,
      "gestures": 3359,
      "tumn": 3360,
      "tropical": 3361,
      "browsing": 3362,
      "ceremony": 3363,
      "rickshaw": 3364,
      "sneakers": 3365,
      "bleachers": 3366,
      "pizza": 3367,
      "pretty": 3368,
      "Caucasian": 3369,
      "Multiple": 3370,
      "consisting": 3371,
      "wheelbarrow": 3372,
      "Police": 3373,
      "leotard": 3374,
      "Don": 3375,
      "It": 3376,
      "Sk": 3377,
      "Su": 3378,
      "Tou": 3379,
      "biting": 3380,
      "bite": 3381,
      "call": 3382,
      "fit": 3383,
      "fed": 3384,
      "games": 3385,
      "hen": 3386,
      "iet": 3387,
      "ied": 3388,
      "iment": 3389,
      "ja": 3390,
      "mming": 3391,
      "poo": 3392,
      "rin": 3393,
      "rad": 3394,
      "shel": 3395,
      "trol": 3396,
      "ument": 3397,
      "ws": 3398,
      "wares": 3399,
      "ino": 3400,
      "anad": 3401,
      "ret": 3402,
      "recl": 3403,
      "arn": 3404,
      "arter": 3405,
      "oud": 3406,
      "andise": 3407,
      "attra": 3408,
      "stare": 3409,
      "still": 3410,
      "lacross": 3411,
      "wires": 3412,
      "ora": 3413,
      "chess": 3414,
      "teal": 3415,
      "rod": 3416,
      "hotel": 3417,
      "blur": 3418,
      "shirted": 3419,
      "ller": 3420,
      "cep": 3421,
      "covers": 3422,
      "semi": 3423,
      "loom": 3424,
      "bush": 3425,
      "love": 3426,
      "main": 3427,
      "watermel": 3428,
      "juice": 3429,
      "fier": 3430,
      "backdrop": 3431,
      "skaters": 3432,
      "bies": 3433,
      "crown": 3434,
      "snowsuit": 3435,
      "diver": 3436,
      "overweight": 3437,
      "tug": 3438,
      "ults": 3439,
      "conven": 3440,
      "handing": 3441,
      "acrobat": 3442,
      "tray": 3443,
      "movie": 3444,
      "ions": 3445,
      "heading": 3446,
      "def": 3447,
      "defen": 3448,
      "mart": 3449,
      "suitcase": 3450,
      "performers": 3451,
      "cause": 3452,
      "bricks": 3453,
      "brief": 3454,
      "horiz": 3455,
      "unique": 3456,
      "quo": 3457,
      "forehead": 3458,
      "wheeli": 3459,
      "give": 3460,
      "nament": 3461,
      "firemen": 3462,
      "bagpipes": 3463,
      "umin": 3464,
      "angle": 3465,
      "serves": 3466,
      "paperwork": 3467,
      "banan": 3468,
      "banjo": 3469,
      "ities": 3470,
      "knees": 3471,
      "monument": 3472,
      "falls": 3473,
      "venue": 3474,
      "listen": 3475,
      "stops": 3476,
      "vendors": 3477,
      "cray": 3478,
      "Boys": 3479,
      "newspapers": 3480,
      "alleyway": 3481,
      "wrestler": 3482,
      "blankets": 3483,
      "seem": 3484,
      "countryside": 3485,
      "izing": 3486,
      "visiting": 3487,
      "visible": 3488,
      "scooters": 3489,
      "sweeps": 3490,
      "kayaks": 3491,
      "shadows": 3492,
      "touches": 3493,
      "attending": 3494,
      "tackle": 3495,
      "strange": 3496,
      "story": 3497,
      "pillows": 3498,
      "scaffold": 3499,
      "inspects": 3500,
      "beverages": 3501,
      "boulder": 3502,
      "tourist": 3503,
      "yoga": 3504,
      "target": 3505,
      "tossing": 3506,
      "emergency": 3507,
      "sides": 3508,
      "Joh": 3509,
      "patterned": 3510,
      "exercise": 3511,
      "umpire": 3512,
      "exhibit": 3513,
      "presenting": 3514,
      "clapping": 3515,
      "pigtails": 3516,
      "bamboo": 3517,
      "beanie": 3518,
      "merchandise": 3519,
      "chicken": 3520,
      "gymnastics": 3521,
      "knife": 3522,
      "bystanders": 3523,
      "applying": 3524,
      "Donal": 3525,
      "trolley": 3526,
      "lacrosse": 3527,
      "wheelie": 3528,
      "Bear": 3529,
      "Ca": 3530,
      "Col": 3531,
      "El": 3532,
      "En": 3533,
      "Mex": 3534,
      "Play": 3535,
      "Teen": 3536,
      "We": 3537,
      "cil": 3538,
      "cans": 3539,
      "centr": 3540,
      "dad": 3541,
      "done": 3542,
      "eight": 3543,
      "fic": 3544,
      "link": 3545,
      "mur": 3546,
      "mower": 3547,
      "nam": 3548,
      "plies": 3549,
      "power": 3550,
      "ris": 3551,
      "rice": 3552,
      "tiny": 3553,
      "usu": 3554,
      "vin": 3555,
      "yarn": 3556,
      "inju": 3557,
      "ank": 3558,
      "any": 3559,
      "ings": 3560,
      "remo": 3561,
      "retri": 3562,
      "maneu": 3563,
      "stir": 3564,
      "lared": 3565,
      "chan": 3566,
      "christmas": 3567,
      "chatting": 3568,
      "assem": 3569,
      "placing": 3570,
      "placed": 3571,
      "tea": 3572,
      "played": 3573,
      "playfully": 3574,
      "ersby": 3575,
      "here": 3576,
      "unusu": 3577,
      "blind": 3578,
      "meas": 3579,
      "bead": 3580,
      "belong": 3581,
      "rized": 3582,
      "separ": 3583,
      "section": 3584,
      "second": 3585,
      "lifts": 3586,
      "soap": 3587,
      "soda": 3588,
      "lose": 3589,
      "logs": 3590,
      "ama": 3591,
      "tired": 3592,
      "tights": 3593,
      "bron": 3594,
      "pocket": 3595,
      "jud": 3596,
      "gathers": 3597,
      "larger": 3598,
      "snowshoes": 3599,
      "dives": 3600,
      "tux": 3601,
      "handrail": 3602,
      "watched": 3603,
      "accompan": 3604,
      "traveling": 3605,
      "mock": 3606,
      "wake": 3607,
      "picks": 3608,
      "sunlight": 3609,
      "bicy": 3610,
      "mug": 3611,
      "shorel": 3612,
      "cage": 3613,
      "gger": 3614,
      "joy": 3615,
      "quarter": 3616,
      "underwear": 3617,
      "trip": 3618,
      "swimsuits": 3619,
      "process": 3620,
      "explo": 3621,
      "slic": 3622,
      "crossed": 3623,
      "floats": 3624,
      "weap": 3625,
      "lighted": 3626,
      "hut": 3627,
      "huddle": 3628,
      "treat": 3629,
      "navig": 3630,
      "motorcyclists": 3631,
      "even": 3632,
      "skiers": 3633,
      "ballet": 3634,
      "highway": 3635,
      "athletes": 3636,
      "opens": 3637,
      "dusty": 3638,
      "anges": 3639,
      "cello": 3640,
      "news": 3641,
      "turquo": 3642,
      "cowboys": 3643,
      "planting": 3644,
      "rapids": 3645,
      "China": 3646,
      "potat": 3647,
      "medium": 3648,
      "homeless": 3649,
      "drawn": 3650,
      "closely": 3651,
      "practices": 3652,
      "multiple": 3653,
      "partment": 3654,
      "supplies": 3655,
      "camping": 3656,
      "celebration": 3657,
      "tackling": 3658,
      "printed": 3659,
      "syn": 3660,
      "repairing": 3661,
      "reflection": 3662,
      "finished": 3663,
      "laundro": 3664,
      "khakis": 3665,
      "elev": 3666,
      "puppies": 3667,
      "suspenders": 3668,
      "weather": 3669,
      "magazines": 3670,
      "motorized": 3671,
      "carefully": 3672,
      "farmer": 3673,
      "washer": 3674,
      "record": 3675,
      "itorium": 3676,
      "firefighter": 3677,
      "rollerskating": 3678,
      "salon": 3679,
      "involved": 3680,
      "parachute": 3681,
      "descent": 3682,
      "rollerblading": 3683,
      "ponytail": 3684,
      "location": 3685,
      "focused": 3686,
      "surgery": 3687,
      "parents": 3688,
      "cheek": 3689,
      "Runners": 3690,
      "learning": 3691,
      "2012": 3692,
      "adjusting": 3693,
      "Female": 3694,
      "creek": 3695,
      "auditorium": 3696,
      "screaming": 3697,
      "McDonal": 3698,
      "arcade": 3699,
      "shoreline": 3700,
      "turquoise": 3701,
      "laundromat": 3702,
      "00": 3703,
      "Am": 3704,
      "Band": 3705,
      "Coup": 3706,
      "Canad": 3707,
      "Close": 3708,
      "De": 3709,
      "Eld": 3710,
      "Ped": 3711,
      "Sm": 3712,
      "Squ": 3713,
      "TV": 3714,
      "Tex": 3715,
      "cul": 3716,
      "eastern": 3717,
      "fat": 3718,
      "floo": 3719,
      "fell": 3720,
      "late": 3721,
      "mit": 3722,
      "mill": 3723,
      "non": 3724,
      "overs": 3725,
      "ption": 3726,
      "pins": 3727,
      "ric": 3728,
      "rally": 3729,
      "spark": 3730,
      "tread": 3731,
      "va": 3732,
      "vas": 3733,
      "valley": 3734,
      "zes": 3735,
      "zens": 3736,
      "tho": 3737,
      "than": 3738,
      "rec": 3739,
      "reli": 3740,
      "erry": 3741,
      "lean": 3742,
      "legging": 3743,
      "ara": 3744,
      "arri": 3745,
      "hip": 3746,
      "hike": 3747,
      "hiding": 3748,
      "stall": 3749,
      "stilts": 3750,
      "launch": 3751,
      "laden": 3752,
      "ened": 3753,
      "ents": 3754,
      "will": 3755,
      "oranges": 3756,
      "opter": 3757,
      "gras": 3758,
      "earphones": 3759,
      "icy": 3760,
      "icopter": 3761,
      "blood": 3762,
      "raz": 3763,
      "racers": 3764,
      "rafting": 3765,
      "blazer": 3766,
      "riot": 3767,
      "coast": 3768,
      "fork": 3769,
      "lighting": 3770,
      "buff": 3771,
      "butch": 3772,
      "lock": 3773,
      "lobby": 3774,
      "walked": 3775,
      "timate": 3776,
      "upward": 3777,
      "pod": 3778,
      "pots": 3779,
      "posed": 3780,
      "juggles": 3781,
      "sideways": 3782,
      "skater": 3783,
      "indu": 3784,
      "single": 3785,
      "divers": 3786,
      "tutu": 3787,
      "ult": 3788,
      "frozen": 3789,
      "workout": 3790,
      "workshop": 3791,
      "headdress": 3792,
      "goat": 3793,
      "dec": 3794,
      "deli": 3795,
      "department": 3796,
      "march": 3797,
      "ctators": 3798,
      "torch": 3799,
      "cast": 3800,
      "roadside": 3801,
      "cute": 3802,
      "Asia": 3803,
      "cheese": 3804,
      "sau": 3805,
      "sage": 3806,
      "collared": 3807,
      "couples": 3808,
      "special": 3809,
      "tribal": 3810,
      "proje": 3811,
      "autumn": 3812,
      "whom": 3813,
      "creating": 3814,
      "ague": 3815,
      "human": 3816,
      "surfs": 3817,
      "shepherd": 3818,
      "canvas": 3819,
      "displaying": 3820,
      "displays": 3821,
      "passersby": 3822,
      "serve": 3823,
      "service": 3824,
      "artwork": 3825,
      "shape": 3826,
      "facility": 3827,
      "raining": 3828,
      "interview": 3829,
      "lecting": 3830,
      "cooks": 3831,
      "foli": 3832,
      "teens": 3833,
      "toddlers": 3834,
      "monitor": 3835,
      "raption": 3836,
      "numbers": 3837,
      "pads": 3838,
      "tively": 3839,
      "hotdog": 3840,
      "rooftop": 3841,
      "lens": 3842,
      "washes": 3843,
      "gaze": 3844,
      "gazes": 3845,
      "kayaking": 3846,
      "cycling": 3847,
      "decorative": 3848,
      "products": 3849,
      "crouched": 3850,
      "burning": 3851,
      "candle": 3852,
      "atory": 3853,
      "cloud": 3854,
      "celebrate": 3855,
      "contraption": 3856,
      "harvest": 3857,
      "trashcan": 3858,
      "furry": 3859,
      "finishing": 3860,
      "brother": 3861,
      "stepping": 3862,
      "sprayed": 3863,
      "belts": 3864,
      "approaches": 3865,
      "bouquet": 3866,
      "score": 3867,
      "chalkboard": 3868,
      "embracing": 3869,
      "branches": 3870,
      "fashioned": 3871,
      "speaker": 3872,
      "casually": 3873,
      "involving": 3874,
      "chopping": 3875,
      "driveway": 3876,
      "Olympics": 3877,
      "intenance": 3878,
      "twir": 3879,
      "silhouette": 3880,
      "Music": 3881,
      "gallery": 3882,
      "stroke": 3883,
      "amidst": 3884,
      "activity": 3885,
      "vacuu": 3886,
      "Roller": 3887,
      "Spectators": 3888,
      "experiment": 3889,
      "interesting": 3890,
      "quickly": 3891,
      "incline": 3892,
      "portrait": 3893,
      "transportation": 3894,
      "John": 3895,
      "Bearded": 3896,
      "injured": 3897,
      "retrie": 3898,
      "Closeup": 3899,
      "Elderly": 3900,
      "Pedestrians": 3901,
      "Square": 3902,
      "leggings": 3903,
      "Ba": 3904,
      "Be": 3905,
      "Bic": 3906,
      "DJ": 3907,
      "Eight": 3908,
      "Eastern": 3909,
      "Ha": 3910,
      "Photo": 3911,
      "School": 3912,
      "Ski": 3913,
      "Vari": 3914,
      "Wi": 3915,
      "ailing": 3916,
      "aband": 3917,
      "bbles": 3918,
      "cro": 3919,
      "eo": 3920,
      "eas": 3921,
      "esta": 3922,
      "every": 3923,
      "find": 3924,
      "gla": 3925,
      "harm": 3926,
      "ikers": 3927,
      "kilt": 3928,
      "now": 3929,
      "tress": 3930,
      "trench": 3931,
      "ues": 3932,
      "uts": 3933,
      "vine": 3934,
      "iner": 3935,
      "ination": 3936,
      "annel": 3937,
      "rele": 3938,
      "really": 3939,
      "arrange": 3940,
      "ouble": 3941,
      "ata": 3942,
      "ston": 3943,
      "sturing": 3944,
      "aling": 3945,
      "almost": 3946,
      "iss": 3947,
      "labe": 3948,
      "enti": 3949,
      "wig": 3950,
      "ldo": 3951,
      "orm": 3952,
      "ety": 3953,
      "chin": 3954,
      "chron": 3955,
      "chinese": 3956,
      "cherry": 3957,
      "opo": 3958,
      "edo": 3959,
      "grad": 3960,
      "ically": 3961,
      "menu": 3962,
      "domin": 3963,
      "peer": 3964,
      "unhappy": 3965,
      "gesturing": 3966,
      "blish": 3967,
      "adju": 3968,
      "mechan": 3969,
      "beret": 3970,
      "rifle": 3971,
      "mpy": 3972,
      "mple": 3973,
      "shiny": 3974,
      "tags": 3975,
      "sees": 3976,
      "lim": 3977,
      "built": 3978,
      "ney": 3979,
      "tiled": 3980,
      "tips": 3981,
      "smoo": 3982,
      "brass": 3983,
      "aprons": 3984,
      "jumper": 3985,
      "jumped": 3986,
      "pale": 3987,
      "ongo": 3988,
      "crates": 3989,
      "dive": 3990,
      "concentr": 3991,
      "handed": 3992,
      "wai": 3993,
      "waist": 3994,
      "scra": 3995,
      "scouts": 3996,
      "scent": 3997,
      "scien": 3998,
      "pilot": 3999,
      "staff": 4000,
      "tran": 4001,
      "guide": 4002,
      "bends": 4003,
      "helicopter": 4004,
      "eling": 4005,
      "cab": 4006,
      "cakes": 4007,
      "stump": 4008,
      "jogs": 4009,
      "quiet": 4010,
      "chewing": 4011,
      "ational": 4012,
      "sawing": 4013,
      "colate": 4014,
      "painter": 4015,
      "tripod": 4016,
      "types": 4017,
      "gie": 4018,
      "gious": 4019,
      "fishes": 4020,
      "hills": 4021,
      "noon": 4022,
      "highchair": 4023,
      "army": 4024,
      "ducks": 4025,
      "cellphones": 4026,
      "pathway": 4027,
      "turban": 4028,
      "raincoat": 4029,
      "boxer": 4030,
      "wheeler": 4031,
      "cooki": 4032,
      "illumin": 4033,
      "stoop": 4034,
      "America": 4035,
      "monkey": 4036,
      "afternoon": 4037,
      "bedroom": 4038,
      "tooth": 4039,
      "leader": 4040,
      "scenic": 4041,
      "writes": 4042,
      "breakdancing": 4043,
      "fighters": 4044,
      "brushes": 4045,
      "displayed": 4046,
      "gazing": 4047,
      "checkers": 4048,
      "circular": 4049,
      "decorations": 4050,
      "operates": 4051,
      "seagu": 4052,
      "clouds": 4053,
      "pencil": 4054,
      "dragging": 4055,
      "heavily": 4056,
      "known": 4057,
      "booths": 4058,
      "images": 4059,
      "cleaner": 4060,
      "caucasian": 4061,
      "stacked": 4062,
      "containing": 4063,
      "chocolate": 4064,
      "pinata": 4065,
      "bathtub": 4066,
      "strolls": 4067,
      "Blue": 4068,
      "designs": 4069,
      "recording": 4070,
      "grabs": 4071,
      "grabbing": 4072,
      "bouncing": 4073,
      "chopsticks": 4074,
      "Army": 4075,
      "vices": 4076,
      "rollerblades": 4077,
      "Lots": 4078,
      "Mohawk": 4079,
      "awning": 4080,
      "begins": 4081,
      "located": 4082,
      "dumpster": 4083,
      "pattern": 4084,
      "Hockey": 4085,
      "muzzle": 4086,
      "morning": 4087,
      "assist": 4088,
      "peeking": 4089,
      "strapped": 4090,
      "sparring": 4091,
      "bulldo": 4092,
      "parasailing": 4093,
      "pumpkin": 4094,
      "cident": 4095,
      "sorting": 4096,
      "Adults": 4097,
      "squee": 4098,
      "task": 4099,
      "sniffing": 4100,
      "featuring": 4101,
      "butterfly": 4102,
      "Skate": 4103,
      "horizon": 4104,
      "Elmo": 4105,
      "belongings": 4106,
      "bicycling": 4107,
      "quarterback": 4108,
      "synchron": 4109,
      "Couple": 4110,
      "Canadian": 4111,
      "Smiling": 4112,
      "Texas": 4113,
      "foliage": 4114,
      "Baby": 4115,
      "establish": 4116,
      "gradu": 4117,
      "adjusts": 4118,
      "11": 4119,
      "Cu": 4120,
      "Jack": 4121,
      "Li": 4122,
      "Loo": 4123,
      "Mi": 4124,
      "Mother": 4125,
      "NY": 4126,
      "No": 4127,
      "Native": 4128,
      "Par": 4129,
      "Pro": 4130,
      "Re": 4131,
      "Ru": 4132,
      "Rod": 4133,
      "Sh": 4134,
      "Shi": 4135,
      "Sur": 4136,
      "Seat": 4137,
      "Span": 4138,
      "Te": 4139,
      "Tim": 4140,
      "Vend": 4141,
      "Yellow": 4142,
      "ain": 4143,
      "bout": 4144,
      "cla": 4145,
      "chis": 4146,
      "cycle": 4147,
      "ders": 4148,
      "dam": 4149,
      "eag": 4150,
      "elabor": 4151,
      "gning": 4152,
      "hon": 4153,
      "hun": 4154,
      "had": 4155,
      "io": 4156,
      "ious": 4157,
      "kim": 4158,
      "lish": 4159,
      "ox": 4160,
      "osa": 4161,
      "powd": 4162,
      "rit": 4163,
      "ske": 4164,
      "tying": 4165,
      "vent": 4166,
      "won": 4167,
      "yell": 4168,
      "inner": 4169,
      "anti": 4170,
      "thou": 4171,
      "regi": 4172,
      "lem": 4173,
      "lets": 4174,
      "level": 4175,
      "league": 4176,
      "histor": 4177,
      "manne": 4178,
      "attered": 4179,
      "stay": 4180,
      "strolling": 4181,
      "stination": 4182,
      "alle": 4183,
      "toi": 4184,
      "oring": 4185,
      "esma": 4186,
      "ides": 4187,
      "ount": 4188,
      "asc": 4189,
      "plain": 4190,
      "icans": 4191,
      "peers": 4192,
      "hoe": 4193,
      "ray": 4194,
      "rabb": 4195,
      "because": 4196,
      "fort": 4197,
      "shine": 4198,
      "secu": 4199,
      "lion": 4200,
      "buried": 4201,
      "logo": 4202,
      "amount": 4203,
      "upset": 4204,
      "brant": 4205,
      "They": 4206,
      "maintenance": 4207,
      "sku": 4208,
      "inder": 4209,
      "signing": 4210,
      "feather": 4211,
      "babies": 4212,
      "boarding": 4213,
      "lasso": 4214,
      "elds": 4215,
      "conne": 4216,
      "accident": 4217,
      "mohawk": 4218,
      "scrubs": 4219,
      "fields": 4220,
      "jeep": 4221,
      "spon": 4222,
      "split": 4223,
      "spins": 4224,
      "destination": 4225,
      "mark": 4226,
      "marble": 4227,
      "tender": 4228,
      "flannel": 4229,
      "much": 4230,
      "midst": 4231,
      "panic": 4232,
      "cabin": 4233,
      "stuck": 4234,
      "Asians": 4235,
      "strial": 4236,
      "drant": 4237,
      "mercial": 4238,
      "underground": 4239,
      "purses": 4240,
      "speeding": 4241,
      "looked": 4242,
      "daytime": 4243,
      "shoppers": 4244,
      "darkened": 4245,
      "bartender": 4246,
      "teammates": 4247,
      "vibrant": 4248,
      "sure": 4249,
      "create": 4250,
      "wheeled": 4251,
      "sleep": 4252,
      "flash": 4253,
      "trains": 4254,
      "canal": 4255,
      "cannon": 4256,
      "skies": 4257,
      "skills": 4258,
      "packing": 4259,
      "packed": 4260,
      "package": 4261,
      "anging": 4262,
      "cigar": 4263,
      "turtle": 4264,
      "shaggy": 4265,
      "masks": 4266,
      "banners": 4267,
      "cases": 4268,
      "hardwood": 4269,
      "bridesma": 4270,
      "classic": 4271,
      "stocking": 4272,
      "fountains": 4273,
      "carrier": 4274,
      "forested": 4275,
      "doesn": 4276,
      "kisses": 4277,
      "filming": 4278,
      "stem": 4279,
      "arium": 4280,
      "tching": 4281,
      "clutte": 4282,
      "shower": 4283,
      "vending": 4284,
      "homemade": 4285,
      "ctors": 4286,
      "diner": 4287,
      "dinosa": 4288,
      "protect": 4289,
      "waiter": 4290,
      "draws": 4291,
      "cheerleading": 4292,
      "lent": 4293,
      "India": 4294,
      "hammock": 4295,
      "directing": 4296,
      "splashed": 4297,
      "sprays": 4298,
      "zzy": 4299,
      "stretches": 4300,
      "canoes": 4301,
      "product": 4302,
      "sledding": 4303,
      "clowns": 4304,
      "alloween": 4305,
      "chip": 4306,
      "gardening": 4307,
      "support": 4308,
      "barefooted": 4309,
      "commercial": 4310,
      "campfire": 4311,
      "tackled": 4312,
      "notes": 4313,
      "loaded": 4314,
      "Dogs": 4315,
      "draped": 4316,
      "stringed": 4317,
      "complex": 4318,
      "completed": 4319,
      "hammering": 4320,
      "napping": 4321,
      "pours": 4322,
      "skinny": 4323,
      "cries": 4324,
      "spotlight": 4325,
      "ATM": 4326,
      "lively": 4327,
      "Brit": 4328,
      "onica": 4329,
      "figures": 4330,
      "company": 4331,
      "companion": 4332,
      "scular": 4333,
      "mixer": 4334,
      "sailboat": 4335,
      "numerous": 4336,
      "victory": 4337,
      "hydrant": 4338,
      "gesture": 4339,
      "Olympic": 4340,
      "crashing": 4341,
      "aqua": 4342,
      "aquarium": 4343,
      "mounta": 4344,
      "surgical": 4345,
      "nails": 4346,
      "parent": 4347,
      "Firefighters": 4348,
      "Shepherd": 4349,
      "nurses": 4350,
      "conductor": 4351,
      "silhouet": 4352,
      "laboratory": 4353,
      "tournament": 4354,
      "columns": 4355,
      "notebook": 4356,
      "enthusia": 4357,
      "followed": 4358,
      "congreg": 4359,
      "warehouse": 4360,
      "xyl": 4361,
      "digital": 4362,
      "waterskiing": 4363,
      "lanterns": 4364,
      "communic": 4365,
      "crayons": 4366,
      "Cafe": 4367,
      "Mexican": 4368,
      "murky": 4369,
      "vintage": 4370,
      "unusual": 4371,
      "beads": 4372,
      "judges": 4373,
      "navigates": 4374,
      "potato": 4375,
      "treadmill": 4376,
      "religious": 4377,
      "industrial": 4378,
      "projector": 4379,
      "Hawai": 4380,
      "Various": 4381,
      "abandoned": 4382,
      "easel": 4383,
      "harmonica": 4384,
      "labeled": 4385,
      "opoly": 4386,
      "transit": 4387,
      "toothbrush": 4388,
      "squeezing": 4389,
      "Skateboarder": 4390,
      "synchronized": 4391,
      "establishment": 4392,
      "Spanish": 4393,
      "mannequ": 4394,
      "cluttered": 4395,
      "dinosaur": 4396,
      "Hawaiian": 4397,
      "10": 4398,
      "Au": 4399,
      "Ara": 4400,
      "Brun": 4401,
      "Base": 4402,
      "Car": 4403,
      "Dark": 4404,
      "Ex": 4405,
      "Food": 4406,
      "Gen": 4407,
      "Green": 4408,
      "Hu": 4409,
      "Jew": 4410,
      "Jenga": 4411,
      "Lat": 4412,
      "Mus": 4413,
      "Memb": 4414,
      "Nu": 4415,
      "Ori": 4416,
      "Ra": 4417,
      "Ve": 4418,
      "Vi": 4419,
      "award": 4420,
      "await": 4421,
      "broad": 4422,
      "brace": 4423,
      "bbling": 4424,
      "bongo": 4425,
      "clar": 4426,
      "citi": 4427,
      "dep": 4428,
      "fellow": 4429,
      "gth": 4430,
      "hour": 4431,
      "hine": 4432,
      "iP": 4433,
      "ists": 4434,
      "iev": 4435,
      "ister": 4436,
      "lining": 4437,
      "mass": 4438,
      "mowing": 4439,
      "mitten": 4440,
      "noo": 4441,
      "nun": 4442,
      "oil": 4443,
      "oke": 4444,
      "otic": 4445,
      "pans": 4446,
      "ran": 4447,
      "rise": 4448,
      "sar": 4449,
      "sear": 4450,
      "slip": 4451,
      "tw": 4452,
      "ttes": 4453,
      "ual": 4454,
      "ute": 4455,
      "ured": 4456,
      "used": 4457,
      "vid": 4458,
      "viron": 4459,
      "wrist": 4460,
      "when": 4461,
      "zone": 4462,
      "zard": 4463,
      "zip": 4464,
      "ingred": 4465,
      "though": 4466,
      "thick": 4467,
      "reme": 4468,
      "leop": 4469,
      "legged": 4470,
      "thedr": 4471,
      "stal": 4472,
      "alt": 4473,
      "ised": 4474,
      "laid": 4475,
      "environ": 4476,
      "itive": 4477,
      "wilder": 4478,
      "cker": 4479,
      "orke": 4480,
      "opy": 4481,
      "identi": 4482,
      "aren": 4483,
      "gry": 4484,
      "grown": 4485,
      "asking": 4486,
      "oot": 4487,
      "alling": 4488,
      "dolls": 4489,
      "hore": 4490,
      "holid": 4491,
      "blower": 4492,
      "redhead": 4493,
      "adow": 4494,
      "ramid": 4495,
      "rafts": 4496,
      "meadow": 4497,
      "beat": 4498,
      "beers": 4499,
      "beating": 4500,
      "rip": 4501,
      "riers": 4502,
      "shack": 4503,
      "vering": 4504,
      "seating": 4505,
      "seven": 4506,
      "licking": 4507,
      "frying": 4508,
      "downhill": 4509,
      "tiger": 4510,
      "upwards": 4511,
      "maj": 4512,
      "mail": 4513,
      "fill": 4514,
      "sidelines": 4515,
      "paralle": 4516,
      "somewhere": 4517,
      "backseat": 4518,
      "rugs": 4519,
      "rustic": 4520,
      "indian": 4521,
      "bie": 4522,
      "sip": 4523,
      "bled": 4524,
      "snorke": 4525,
      "feature": 4526,
      "crops": 4527,
      "bathe": 4528,
      "tured": 4529,
      "tubes": 4530,
      "mber": 4531,
      "termin": 4532,
      "cons": 4533,
      "constru": 4534,
      "dyed": 4535,
      "scrap": 4536,
      "scopes": 4537,
      "picket": 4538,
      "tablecloth": 4539,
      "topless": 4540,
      "sunbathing": 4541,
      "spir": 4542,
      "spring": 4543,
      "sprin": 4544,
      "mentary": 4545,
      "marsh": 4546,
      "marker": 4547,
      "marked": 4548,
      "bend": 4549,
      "muscular": 4550,
      "cameraman": 4551,
      "woodland": 4552,
      "antly": 4553,
      "cave": 4554,
      "casting": 4555,
      "cathedr": 4556,
      "cus": 4557,
      "ggle": 4558,
      "ended": 4559,
      "striking": 4560,
      "stripe": 4561,
      "drying": 4562,
      "safe": 4563,
      "purchase": 4564,
      "speeds": 4565,
      "mountainous": 4566,
      "typing": 4567,
      "expan": 4568,
      "exiting": 4569,
      "stores": 4570,
      "crosscountry": 4571,
      "flock": 4572,
      "were": 4573,
      "weigh": 4574,
      "colorfully": 4575,
      "mouths": 4576,
      "cler": 4577,
      "apples": 4578,
      "fuzzy": 4579,
      "desks": 4580,
      "desser": 4581,
      "bows": 4582,
      "rolls": 4583,
      "aker": 4584,
      "Soon": 4585,
      "disc": 4586,
      "competitive": 4587,
      "polish": 4588,
      "passer": 4589,
      "tracksuit": 4590,
      "mascot": 4591,
      "casino": 4592,
      "chased": 4593,
      "temple": 4594,
      "fog": 4595,
      "foggy": 4596,
      "stomers": 4597,
      "pointed": 4598,
      "snowboards": 4599,
      "monitors": 4600,
      "starring": 4601,
      "prepared": 4602,
      "mattress": 4603,
      "skyline": 4604,
      "skydiving": 4605,
      "battle": 4606,
      "rails": 4607,
      "lands": 4608,
      "fetch": 4609,
      "fetti": 4610,
      "squats": 4611,
      "written": 4612,
      "hotdogs": 4613,
      "cigarettes": 4614,
      "barely": 4615,
      "wrestlers": 4616,
      "cheerleader": 4617,
      "ports": 4618,
      "variety": 4619,
      "resort": 4620,
      "railings": 4621,
      "visor": 4622,
      "artists": 4623,
      "collie": 4624,
      "dryer": 4625,
      "Worker": 4626,
      "seafood": 4627,
      "examine": 4628,
      "videota": 4629,
      "burgers": 4630,
      "chief": 4631,
      "ients": 4632,
      "greet": 4633,
      "harbor": 4634,
      "piercing": 4635,
      "rolled": 4636,
      "prints": 4637,
      "sculptures": 4638,
      "sym": 4639,
      "lush": 4640,
      "strings": 4641,
      "completing": 4642,
      "pyramid": 4643,
      "framed": 4644,
      "peaks": 4645,
      "Guys": 4646,
      "puppet": 4647,
      "storm": 4648,
      "berry": 4649,
      "Star": 4650,
      "warming": 4651,
      "Cola": 4652,
      "Coca": 4653,
      "reception": 4654,
      "advertisements": 4655,
      "designed": 4656,
      "farmers": 4657,
      "grinds": 4658,
      "barbecu": 4659,
      "braid": 4660,
      "trotting": 4661,
      "tarp": 4662,
      "rollerskates": 4663,
      "daily": 4664,
      "occup": 4665,
      "snacks": 4666,
      "barrels": 4667,
      "nude": 4668,
      "shawl": 4669,
      "necklaces": 4670,
      "Local": 4671,
      "ordering": 4672,
      "begin": 4673,
      "camels": 4674,
      "exercising": 4675,
      "extreme": 4676,
      "trophy": 4677,
      "muzzled": 4678,
      "mounted": 4679,
      "cotton": 4680,
      "exhib": 4681,
      "presents": 4682,
      "supermarket": 4683,
      "dotted": 4684,
      "season": 4685,
      "condition": 4686,
      "conducting": 4687,
      "punching": 4688,
      "activities": 4689,
      "travels": 4690,
      "vacuum": 4691,
      "demonstration": 4692,
      "column": 4693,
      "greyhounds": 4694,
      "slacks": 4695,
      "bounds": 4696,
      "miniature": 4697,
      "adorned": 4698,
      "employee": 4699,
      "employees": 4700,
      "character": 4701,
      "characters": 4702,
      "Walmart": 4703,
      "crawls": 4704,
      "maybe": 4705,
      "pirate": 4706,
      "Sub": 4707,
      "Tourists": 4708,
      "fedora": 4709,
      "poodle": 4710,
      "attractive": 4711,
      "blurred": 4712,
      "watermelons": 4713,
      "acrobatic": 4714,
      "defender": 4715,
      "bananas": 4716,
      "Players": 4717,
      "named": 4718,
      "measuring": 4719,
      "separate": 4720,
      "mitt": 4721,
      "buffet": 4722,
      "Musicians": 4723,
      "vacuuming": 4724,
      "Rollerbla": 4725,
      "releas": 4726,
      "scientist": 4727,
      "illuminated": 4728,
      "Customers": 4729,
      "Vendors": 4730,
      "kimon": 4731,
      "British": 4732,
      "mountainto": 4733,
      "silhouetted": 4734,
      "enthusiastic": 4735,
      "xylophone": 4736,
      "Brunette": 4737,
      "Baseball": 4738,
      "Members": 4739,
      "Numerous": 4740,
      "ieval": 4741,
      "ingredients": 4742,
      "leopard": 4743,
      "environment": 4744,
      "wilderness": 4745,
      "holiday": 4746,
      "cathedral": 4747,
      "\",": 4748,
      "Ap": 4749,
      "As": 4750,
      "Bikers": 4751,
      "Cow": 4752,
      "Clau": 4753,
      "Dan": 4754,
      "Dirt": 4755,
      "Ele": 4756,
      "Fam": 4757,
      "Father": 4758,
      "Foot": 4759,
      "Gre": 4760,
      "Happ": 4761,
      "Mil": 4762,
      "Orange": 4763,
      "Sp": 4764,
      "Swi": 4765,
      "Sun": 4766,
      "Sold": 4767,
      "Snow": 4768,
      "Ten": 4769,
      "Todd": 4770,
      "Uni": 4771,
      "Vol": 4772,
      "ame": 4773,
      "aboard": 4774,
      "athered": 4775,
      "bones": 4776,
      "cco": 4777,
      "cash": 4778,
      "cats": 4779,
      "det": 4780,
      "drain": 4781,
      "double": 4782,
      "em": 4783,
      "ere": 4784,
      "est": 4785,
      "elding": 4786,
      "ffe": 4787,
      "french": 4788,
      "gap": 4789,
      "gress": 4790,
      "gent": 4791,
      "hunch": 4792,
      "hops": 4793,
      "igan": 4794,
      "kno": 4795,
      "lin": 4796,
      "lic": 4797,
      "mx": 4798,
      "moo": 4799,
      "nat": 4800,
      "nes": 4801,
      "osk": 4802,
      "olive": 4803,
      "pops": 4804,
      "soup": 4805,
      "sound": 4806,
      "scr": 4807,
      "swa": 4808,
      "sband": 4809,
      "sash": 4810,
      "sance": 4811,
      "tin": 4812,
      "tly": 4813,
      "ula": 4814,
      "ude": 4815,
      "ustr": 4816,
      "vor": 4817,
      "wand": 4818,
      "zom": 4819,
      "inis": 4820,
      "infl": 4821,
      "inspect": 4822,
      "information": 4823,
      "anci": 4824,
      "anvil": 4825,
      "inging": 4826,
      "thy": 4827,
      "return": 4828,
      "erie": 4829,
      "lemon": 4830,
      "hio": 4831,
      "attack": 4832,
      "atula": 4833,
      "woven": 4834,
      "alco": 4835,
      "ison": 4836,
      "within": 4837,
      "toe": 4838,
      "chu": 4839,
      "chure": 4840,
      "challen": 4841,
      "ident": 4842,
      "whis": 4843,
      "kings": 4844,
      "grip": 4845,
      "dots": 4846,
      "rot": 4847,
      "unte": 4848,
      "unloading": 4849,
      "rag": 4850,
      "raking": 4851,
      "raise": 4852,
      "ravine": 4853,
      "memor": 4854,
      "belly": 4855,
      "rimmed": 4856,
      "cocon": 4857,
      "ford": 4858,
      "tau": 4859,
      "talent": 4860,
      "lime": 4861,
      "licks": 4862,
      "soars": 4863,
      "frown": 4864,
      "bump": 4865,
      "bucks": 4866,
      "need": 4867,
      "ami": 4868,
      "illa": 4869,
      "illed": 4870,
      "tip": 4871,
      "brind": 4872,
      "magn": 4873,
      "polit": 4874,
      "ressive": 4875,
      "watering": 4876,
      "words": 4877,
      "rush": 4878,
      "rusty": 4879,
      "jumpsuits": 4880,
      "bib": 4881,
      "forming": 4882,
      "feathered": 4883,
      "cry": 4884,
      "crate": 4885,
      "bak": 4886,
      "bably": 4887,
      "snowball": 4888,
      "overlook": 4889,
      "ulting": 4890,
      "ultimate": 4891,
      "elder": 4892,
      "confu": 4893,
      "contemp": 4894,
      "confetti": 4895,
      "personnel": 4896,
      "handbag": 4897,
      "handheld": 4898,
      "accep": 4899,
      "build": 4900,
      "atee": 4901,
      "nearly": 4902,
      "pub": 4903,
      "puzz": 4904,
      "pushed": 4905,
      "scaling": 4906,
      "sciss": 4907,
      "scattered": 4908,
      "piles": 4909,
      "tures": 4910,
      "haul": 4911,
      "offering": 4912,
      "sundress": 4913,
      "sunshine": 4914,
      "span": 4915,
      "spatula": 4916,
      "gos": 4917,
      "goatee": 4918,
      "favor": 4919,
      "devices": 4920,
      "tends": 4921,
      "mule": 4922,
      "shorter": 4923,
      "antily": 4924,
      "pedal": 4925,
      "cable": 4926,
      "foods": 4927,
      "curi": 4928,
      "ggers": 4929,
      "strike": 4930,
      "merry": 4931,
      "boogie": 4932,
      "quad": 4933,
      "sages": 4934,
      "sample": 4935,
      "climbers": 4936,
      "progress": 4937,
      "probably": 4938,
      "auto": 4939,
      "barric": 4940,
      "barriers": 4941,
      "slopes": 4942,
      "crest": 4943,
      "creates": 4944,
      "husband": 4945,
      "flaming": 4946,
      "flames": 4947,
      "surfers": 4948,
      "bowtie": 4949,
      "flowery": 4950,
      "teddy": 4951,
      "fireworks": 4952,
      "evil": 4953,
      "capped": 4954,
      "noses": 4955,
      "skill": 4956,
      "athers": 4957,
      "versity": 4958,
      "floors": 4959,
      "shingles": 4960,
      "nightclub": 4961,
      "bodysuit": 4962,
      "cier": 4963,
      "clothed": 4964,
      "series": 4965,
      "kicked": 4966,
      "riverbank": 4967,
      "turkey": 4968,
      "shake": 4969,
      "bikinis": 4970,
      "facial": 4971,
      "boxers": 4972,
      "stern": 4973,
      "submer": 4974,
      "affe": 4975,
      "policemen": 4976,
      "wheelchairs": 4977,
      "velin": 4978,
      "plank": 4979,
      "monk": 4980,
      "stars": 4981,
      "mats": 4982,
      "proud": 4983,
      "breath": 4984,
      "shouting": 4985,
      "clutching": 4986,
      "medieval": 4987,
      "squad": 4988,
      "crafting": 4989,
      "patrons": 4990,
      "lower": 4991,
      "blocking": 4992,
      "kiosk": 4993,
      "grills": 4994,
      "length": 4995,
      "relay": 4996,
      "portable": 4997,
      "ize": 4998,
      "direct": 4999,
      "pitching": 5000,
      "poncho": 5001,
      "champ": 5002,
      "checked": 5003,
      "checkout": 5004,
      "cardigan": 5005,
      "essor": 5006,
      "quest": 5007,
      "waterside": 5008,
      "wraps": 5009,
      "operated": 5010,
      "Work": 5011,
      "hook": 5012,
      "lanes": 5013,
      "stunts": 5014,
      "microscopes": 5015,
      "deserted": 5016,
      "drag": 5017,
      "dragon": 5018,
      "system": 5019,
      "sleeves": 5020,
      "minton": 5021,
      "professor": 5022,
      "hearts": 5023,
      "brochure": 5024,
      "pillar": 5025,
      "State": 5026,
      "wineglasses": 5027,
      "strollers": 5028,
      "dropping": 5029,
      "bottoms": 5030,
      "sprinklers": 5031,
      "scooping": 5032,
      "sharp": 5033,
      "swords": 5034,
      "fixes": 5035,
      "testers": 5036,
      "beams": 5037,
      "spots": 5038,
      "relaxes": 5039,
      "occur": 5040,
      "doctors": 5041,
      "brooms": 5042,
      "liquor": 5043,
      "pigeon": 5044,
      "jockeys": 5045,
      "ribbons": 5046,
      "knitting": 5047,
      "excitedly": 5048,
      "aissance": 5049,
      "focus": 5050,
      "propped": 5051,
      "assisting": 5052,
      "ceremonial": 5053,
      "nurse": 5054,
      "lipstick": 5055,
      "completely": 5056,
      "aiming": 5057,
      "texting": 5058,
      "newlywed": 5059,
      "Legos": 5060,
      "USA": 5061,
      "senior": 5062,
      "saddle": 5063,
      "axe": 5064,
      "badge": 5065,
      "badminton": 5066,
      "gowns": 5067,
      "missing": 5068,
      "vocal": 5069,
      "congregate": 5070,
      "European": 5071,
      "tomatoes": 5072,
      "socializing": 5073,
      "expression": 5074,
      "radio": 5075,
      "convention": 5076,
      "convenience": 5077,
      "briefcase": 5078,
      "stirring": 5079,
      "assembled": 5080,
      "bronco": 5081,
      "accompanied": 5082,
      "weapon": 5083,
      "elevated": 5084,
      "McDonald": 5085,
      "those": 5086,
      "grasping": 5087,
      "razor": 5088,
      "butcher": 5089,
      "harvesting": 5090,
      "Beautiful": 5091,
      "glacier": 5092,
      "arrangement": 5093,
      "seesaw": 5094,
      "bulldozer": 5095,
      "Miami": 5096,
      "Protesters": 5097,
      "Shop": 5098,
      "Shir": 5099,
      "Seattle": 5100,
      "Times": 5101,
      "damaged": 5102,
      "elaborate": 5103,
      "thought": 5104,
      "skull": 5105,
      "connected": 5106,
      "bridesmaids": 5107,
      "Jewish": 5108,
      "Muslim": 5109,
      "clarin": 5110,
      "mittens": 5111,
      "major": 5112,
      "parallel": 5113,
      "features": 5114,
      "constructed": 5115,
      "expanse": 5116,
      "dessert": 5117,
      "Sooners": 5118,
      "symbo": 5119,
      "Subway": 5120,
      "mountaintop": 5121,
      "Family": 5122,
      "Football": 5123,
      "Military": 5124,
      "Toddler": 5125,
      "hunched": 5126,
      "scratch": 5127,
      "ancient": 5128,
      "alcoho": 5129,
      "political": 5130,
      "scissors": 5131,
      "favorite": 5132,
      "!\"": 5133,
      "'.": 5134,
      "Ath": 5135,
      "Bal": 5136,
      "Bas": 5137,
      "Bob": 5138,
      "Big": 5139,
      "Cy": 5140,
      "Cal": 5141,
      "Dis": 5142,
      "East": 5143,
      "For": 5144,
      "Gray": 5145,
      "High": 5146,
      "Halloween": 5147,
      "Ital": 5148,
      "Kid": 5149,
      "La": 5150,
      "Min": 5151,
      "Mon": 5152,
      "Mouse": 5153,
      "Over": 5154,
      "Obam": 5155,
      "Pi": 5156,
      "Per": 5157,
      "Pat": 5158,
      "Pic": 5159,
      "Paren": 5160,
      "Ste": 5161,
      "Spon": 5162,
      "To": 5163,
      "Wall": 5164,
      "aid": 5165,
      "ado": 5166,
      "bon": 5167,
      "bmx": 5168,
      "cta": 5169,
      "cuit": 5170,
      "cows": 5171,
      "cinder": 5172,
      "drun": 5173,
      "deter": 5174,
      "ec": 5175,
      "eper": 5176,
      "eque": 5177,
      "found": 5178,
      "fter": 5179,
      "gl": 5180,
      "gue": 5181,
      "haps": 5182,
      "iers": 5183,
      "iors": 5184,
      "ku": 5185,
      "kly": 5186,
      "kins": 5187,
      "kitten": 5188,
      "lla": 5189,
      "lph": 5190,
      "mou": 5191,
      "mind": 5192,
      "mops": 5193,
      "nal": 5194,
      "nder": 5195,
      "oar": 5196,
      "oid": 5197,
      "pou": 5198,
      "pow": 5199,
      "pride": 5200,
      "punk": 5201,
      "rof": 5202,
      "roo": 5203,
      "sling": 5204,
      "slab": 5205,
      "ular": 5206,
      "var": 5207,
      "wan": 5208,
      "want": 5209,
      "xim": 5210,
      "yon": 5211,
      "year": 5212,
      "zy": 5213,
      "zoo": 5214,
      "answ": 5215,
      "angry": 5216,
      "inger": 5217,
      "rer": 5218,
      "real": 5219,
      "resp": 5220,
      "rect": 5221,
      "recre": 5222,
      "rehear": 5223,
      "returns": 5224,
      "era": 5225,
      "eria": 5226,
      "onts": 5227,
      "arr": 5228,
      "hic": 5229,
      "hift": 5230,
      "theme": 5231,
      "atus": 5232,
      "sted": 5233,
      "stride": 5234,
      "last": 5235,
      "lable": 5236,
      "ladd": 5237,
      "wiping": 5238,
      "orary": 5239,
      "escape": 5240,
      "chat": 5241,
      "chunk": 5242,
      "ider": 5243,
      "idated": 5244,
      "ared": 5245,
      "whistle": 5246,
      "gram": 5247,
      "grima": 5248,
      "earth": 5249,
      "early": 5250,
      "earrings": 5251,
      "asm": 5252,
      "asph": 5253,
      "text": 5254,
      "icature": 5255,
      "dolph": 5256,
      "pel": 5257,
      "peach": 5258,
      "pelling": 5259,
      "peak": 5260,
      "robot": 5261,
      "holes": 5262,
      "unfinished": 5263,
      "unknown": 5264,
      "unidenti": 5265,
      "geons": 5266,
      "geBob": 5267,
      "adles": 5268,
      "admi": 5269,
      "rake": 5270,
      "bell": 5271,
      "girlfriend": 5272,
      "shines": 5273,
      "tap": 5274,
      "tamb": 5275,
      "vertic": 5276,
      "sew": 5277,
      "selection": 5278,
      "lie": 5279,
      "limb": 5280,
      "sored": 5281,
      "solo": 5282,
      "solit": 5283,
      "somb": 5284,
      "solder": 5285,
      "solid": 5286,
      "fronts": 5287,
      "bud": 5288,
      "lost": 5289,
      "outfield": 5290,
      "herding": 5291,
      "ilted": 5292,
      "tiara": 5293,
      "ups": 5294,
      "upper": 5295,
      "upright": 5296,
      "appar": 5297,
      "carto": 5298,
      "carve": 5299,
      "cargo": 5300,
      "carouse": 5301,
      "carved": 5302,
      "caricature": 5303,
      "maid": 5304,
      "master": 5305,
      "poking": 5306,
      "posts": 5307,
      "watercraft": 5308,
      "tless": 5309,
      "dressing": 5310,
      "fied": 5311,
      "fills": 5312,
      "ached": 5313,
      "parts": 5314,
      "backlit": 5315,
      "backward": 5316,
      "backstroke": 5317,
      "backhoe": 5318,
      "ruins": 5319,
      "rubble": 5320,
      "litter": 5321,
      "greenery": 5322,
      "Ange": 5323,
      "formed": 5324,
      "sister": 5325,
      "singers": 5326,
      "sna": 5327,
      "snap": 5328,
      "snaps": 5329,
      "feathers": 5330,
      "pace": 5331,
      "paci": 5332,
      "pauses": 5333,
      "cradles": 5334,
      "baked": 5335,
      "snowman": 5336,
      "snowcapped": 5337,
      "digs": 5338,
      "tugging": 5339,
      "conver": 5340,
      "handles": 5341,
      "handling": 5342,
      "actor": 5343,
      "trays": 5344,
      "mob": 5345,
      "mothers": 5346,
      "crowds": 5347,
      "scantily": 5348,
      "swan": 5349,
      "perched": 5350,
      "perhaps": 5351,
      "ketball": 5352,
      "workman": 5353,
      "clock": 5354,
      "headset": 5355,
      "hairstyle": 5356,
      "struggles": 5357,
      "struggling": 5358,
      "goats": 5359,
      "dering": 5360,
      "gum": 5361,
      "gues": 5362,
      "onding": 5363,
      "deer": 5364,
      "marches": 5365,
      "tend": 5366,
      "suitcases": 5367,
      "dant": 5368,
      "flour": 5369,
      "flowing": 5370,
      "pedd": 5371,
      "pedestri": 5372,
      "helf": 5373,
      "torches": 5374,
      "roadway": 5375,
      "ished": 5376,
      "jog": 5377,
      "strian": 5378,
      "themed": 5379,
      "quain": 5380,
      "sands": 5381,
      "olor": 5382,
      "skateboarders": 5383,
      "collecting": 5384,
      "lingerie": 5385,
      "ploring": 5386,
      "trimming": 5387,
      "baseman": 5388,
      "daylight": 5389,
      "pleas": 5390,
      "towels": 5391,
      "barking": 5392,
      "barren": 5393,
      "exploring": 5394,
      "storefronts": 5395,
      "slow": 5396,
      "sline": 5397,
      "vio": 5398,
      "winding": 5399,
      "windbreak": 5400,
      "web": 5401,
      "sweaters": 5402,
      "sweatsuit": 5403,
      "sweatshirts": 5404,
      "motorbikes": 5405,
      "agne": 5406,
      "applies": 5407,
      "husky": 5408,
      "given": 5409,
      "sheer": 5410,
      "canopy": 5411,
      "canyon": 5412,
      "drilling": 5413,
      "drivers": 5414,
      "dribbles": 5415,
      "installing": 5416,
      "fireplace": 5417,
      "hilly": 5418,
      "rounding": 5419,
      "opened": 5420,
      "armor": 5421,
      "armed": 5422,
      "anged": 5423,
      "instructing": 5424,
      "least": 5425,
      "cartwheel": 5426,
      "cession": 5427,
      "rested": 5428,
      "besides": 5429,
      "clothesline": 5430,
      "competitors": 5431,
      "passed": 5432,
      "served": 5433,
      "massive": 5434,
      "message": 5435,
      "lapidated": 5436,
      "interact": 5437,
      "cowgirl": 5438,
      "itement": 5439,
      "suburban": 5440,
      "volunte": 5441,
      "cooked": 5442,
      "foam": 5443,
      "pray": 5444,
      "friendly": 5445,
      "Americans": 5446,
      "curve": 5447,
      "curren": 5448,
      "curtain": 5449,
      "curved": 5450,
      "shoeshine": 5451,
      "monopoly": 5452,
      "starts": 5453,
      "carried": 5454,
      "mature": 5455,
      "appearing": 5456,
      "graffitied": 5457,
      "baton": 5458,
      "batman": 5459,
      "breast": 5460,
      "breaks": 5461,
      "film": 5462,
      "stered": 5463,
      "steam": 5464,
      "ivan": 5465,
      "rowboat": 5466,
      "crazy": 5467,
      "gloved": 5468,
      "photographing": 5469,
      "lowered": 5470,
      "bloss": 5471,
      "vegetation": 5472,
      "Grand": 5473,
      "structing": 5474,
      "milk": 5475,
      "letter": 5476,
      "butt": 5477,
      "multi": 5478,
      "petals": 5479,
      "hammers": 5480,
      "stylish": 5481,
      "Groups": 5482,
      "kerchief": 5483,
      "directs": 5484,
      "splash": 5485,
      "artistic": 5486,
      "saying": 5487,
      "chained": 5488,
      "chains": 5489,
      "masked": 5490,
      "Concert": 5491,
      "tunic": 5492,
      "decorating": 5493,
      "businessman": 5494,
      "shady": 5495,
      "partying": 5496,
      "operation": 5497,
      "burger": 5498,
      "chips": 5499,
      "superman": 5500,
      "passion": 5501,
      "leashes": 5502,
      "makeshift": 5503,
      "cloths": 5504,
      "campsite": 5505,
      "balanced": 5506,
      "cattle": 5507,
      "multicolor": 5508,
      "contents": 5509,
      "harp": 5510,
      "attentively": 5511,
      "attendant": 5512,
      "pengu": 5513,
      "dramat": 5514,
      "refre": 5515,
      "includes": 5516,
      "scales": 5517,
      "eyeglasses": 5518,
      "blocked": 5519,
      "peacock": 5520,
      "dunking": 5521,
      "hooping": 5522,
      "bookshelf": 5523,
      "posters": 5524,
      "fairy": 5525,
      "stacks": 5526,
      "mustard": 5527,
      "saxop": 5528,
      "padded": 5529,
      "Com": 5530,
      "Comp": 5531,
      "bunny": 5532,
      "pinstriped": 5533,
      "pinned": 5534,
      "tongs": 5535,
      "clearing": 5536,
      "sheets": 5537,
      "heavyset": 5538,
      "exciting": 5539,
      "excitement": 5540,
      "donkeys": 5541,
      "bites": 5542,
      "embrace": 5543,
      "vacation": 5544,
      "opponents": 5545,
      "positioned": 5546,
      "delic": 5547,
      "cooler": 5548,
      "coolers": 5549,
      "tossed": 5550,
      "sailor": 5551,
      "floaties": 5552,
      "emerges": 5553,
      "ifying": 5554,
      "salad": 5555,
      "zebra": 5556,
      "ishermen": 5557,
      "parachuting": 5558,
      "parachutes": 5559,
      "descending": 5560,
      "flee": 5561,
      "beginning": 5562,
      "tumbling": 5563,
      "Marathon": 5564,
      "sacks": 5565,
      "intense": 5566,
      "elephants": 5567,
      "spike": 5568,
      "ailable": 5569,
      "popcorn": 5570,
      "sparse": 5571,
      "merchant": 5572,
      "cheeks": 5573,
      "comforting": 5574,
      "comfortable": 5575,
      "priest": 5576,
      "plush": 5577,
      "archway": 5578,
      "bounding": 5579,
      "utility": 5580,
      "crawling": 5581,
      "gliding": 5582,
      "glider": 5583,
      "tomato": 5584,
      "cockpit": 5585,
      "combat": 5586,
      "expressions": 5587,
      "lantern": 5588,
      "community": 5589,
      "bundled": 5590,
      "Tourist": 5591,
      "javelin": 5592,
      "poodles": 5593,
      "shelves": 5594,
      "reclines": 5595,
      "attraction": 5596,
      "cept": 5597,
      "bushy": 5598,
      "lovely": 5599,
      "watermelon": 5600,
      "crowns": 5601,
      "banana": 5602,
      "Color": 5603,
      "remote": 5604,
      "blindfolded": 5605,
      "bronze": 5606,
      "tuxedo": 5607,
      "wakeboard": 5608,
      "slicing": 5609,
      "weapons": 5610,
      "huddled": 5611,
      "McDonalds": 5612,
      "Amish": 5613,
      "recent": 5614,
      "leaned": 5615,
      "arrive": 5616,
      "interviewed": 5617,
      "Bicyclist": 5618,
      "Photograp": 5619,
      "smooth": 5620,
      "concentrates": 5621,
      "cookies": 5622,
      "seagulls": 5623,
      "assistant": 5624,
      "Rodeo": 5625,
      "Surfer": 5626,
      "eagerly": 5627,
      "yelling": 5628,
      "antique": 5629,
      "register": 5630,
      "historic": 5631,
      "toilet": 5632,
      "ascending": 5633,
      "sponsored": 5634,
      "mannequin": 5635,
      "Gentle": 5636,
      "citizens": 5637,
      "depic": 5638,
      "iPod": 5639,
      "saris": 5640,
      "searching": 5641,
      "terminal": 5642,
      "passerby": 5643,
      "barbecuing": 5644,
      "braided": 5645,
      "occupied": 5646,
      "exhibition": 5647,
      "conditions": 5648,
      "Rollerblades": 5649,
      "kimonos": 5650,
      "Apple": 5651,
      "Cowboy": 5652,
      "Claus": 5653,
      "Dancers": 5654,
      "Happy": 5655,
      "Tennis": 5656,
      "University": 5657,
      "identical": 5658,
      "taught": 5659,
      "brindle": 5660,
      "magnifying": 5661,
      "bakery": 5662,
      "confused": 5663,
      "contempl": 5664,
      "champagne": 5665,
      "vocalist": 5666,
      "Shirtless": 5667,
      "clarinet": 5668,
      "symbol": 5669,
      "Basketball": 5670,
      "Obama": 5671,
      "Parents": 5672,
      "SpongeBob": 5673,
      "equestrian": 5674,
      "varying": 5675,
      "recreational": 5676,
      "asphalt": 5677,
      "tambour": 5678,
      "vertical": 5679,
      "apparatus": 5680,
      "carousel": 5681,
      "pacifier": 5682,
      "actors": 5683,
      "pedestrian": 5684,
      "windbreaker": 5685,
      "0s": 5686,
      "95": 5687,
      "Aid": 5688,
      "All": 5689,
      "Afr": 5690,
      "About": 5691,
      "Bur": 5692,
      "Bill": 5693,
      "Bike": 5694,
      "Braz": 5695,
      "CE": 5696,
      "Cyclists": 5697,
      "Cars": 5698,
      "DS": 5699,
      "Day": 5700,
      "Dress": 5701,
      "During": 5702,
      "EL": 5703,
      "Emer": 5704,
      "Fri": 5705,
      "GO": 5706,
      "Gy": 5707,
      "Gard": 5708,
      "Guitar": 5709,
      "Har": 5710,
      "Hand": 5711,
      "His": 5712,
      "Ice": 5713,
      "Isl": 5714,
      "Ken": 5715,
      "Kay": 5716,
      "Kitchen": 5717,
      "Lou": 5718,
      "Long": 5719,
      "MC": 5720,
      "Mr": 5721,
      "Mick": 5722,
      "Ne": 5723,
      "Nike": 5724,
      "Ok": 5725,
      "Or": 5726,
      "Ocean": 5727,
      "Out": 5728,
      "Pop": 5729,
      "Park": 5730,
      "Qu": 5731,
      "Ri": 5732,
      "SU": 5733,
      "Sc": 5734,
      "Side": 5735,
      "South": 5736,
      "Sports": 5737,
      "Singer": 5738,
      "Ti": 5739,
      "Ter": 5740,
      "Wa": 5741,
      "Wet": 5742,
      "Wel": 5743,
      "Wash": 5744,
      "You": 5745,
      "Yama": 5746,
      "aver": 5747,
      "aim": 5748,
      "bay": 5749,
      "bark": 5750,
      "banging": 5751,
      "cen": 5752,
      "cred": 5753,
      "dar": 5754,
      "dge": 5755,
      "dent": 5756,
      "east": 5757,
      "fine": 5758,
      "flea": 5759,
      "gal": 5760,
      "gor": 5761,
      "gic": 5762,
      "gur": 5763,
      "gover": 5764,
      "gion": 5765,
      "gated": 5766,
      "glan": 5767,
      "hed": 5768,
      "hung": 5769,
      "ik": 5770,
      "iac": 5771,
      "ipants": 5772,
      "jar": 5773,
      "kit": 5774,
      "kilts": 5775,
      "kites": 5776,
      "lat": 5777,
      "lor": 5778,
      "loud": 5779,
      "mow": 5780,
      "mad": 5781,
      "mble": 5782,
      "mbling": 5783,
      "nin": 5784,
      "nine": 5785,
      "national": 5786,
      "oy": 5787,
      "ock": 5788,
      "poun": 5789,
      "prun": 5790,
      "pong": 5791,
      "pite": 5792,
      "rou": 5793,
      "sat": 5794,
      "satch": 5795,
      "sons": 5796,
      "slot": 5797,
      "tish": 5798,
      "uten": 5799,
      "ums": 5800,
      "uku": 5801,
      "vidu": 5802,
      "vast": 5803,
      "winning": 5804,
      "yed": 5805,
      "your": 5806,
      "yond": 5807,
      "york": 5808,
      "zoom": 5809,
      "inas": 5810,
      "inline": 5811,
      "incoming": 5812,
      "angu": 5813,
      "ington": 5814,
      "thre": 5815,
      "thor": 5816,
      "think": 5817,
      "rear": 5818,
      "rero": 5819,
      "respe": 5820,
      "retail": 5821,
      "removing": 5822,
      "returning": 5823,
      "ero": 5824,
      "once": 5825,
      "lei": 5826,
      "lele": 5827,
      "lege": 5828,
      "arth": 5829,
      "arid": 5830,
      "archi": 5831,
      "hikes": 5832,
      "hidd": 5833,
      "hitch": 5834,
      "hips": 5835,
      "these": 5836,
      "ould": 5837,
      "andex": 5838,
      "stry": 5839,
      "wool": 5840,
      "alth": 5841,
      "aler": 5842,
      "alike": 5843,
      "isk": 5844,
      "ises": 5845,
      "laho": 5846,
      "lakes": 5847,
      "ental": 5848,
      "engage": 5849,
      "itating": 5850,
      "wigs": 5851,
      "wipes": 5852,
      "wicker": 5853,
      "topu": 5854,
      "toast": 5855,
      "orders": 5856,
      "chore": 5857,
      "oppy": 5858,
      "arel": 5859,
      "arer": 5860,
      "areas": 5861,
      "boss": 5862,
      "edos": 5863,
      "grins": 5864,
      "earmu": 5865,
      "allic": 5866,
      "testing": 5867,
      "dolly": 5868,
      "peeling": 5869,
      "playpen": 5870,
      "roses": 5871,
      "una": 5872,
      "unseen": 5873,
      "unpaved": 5874,
      "unpacking": 5875,
      "gee": 5876,
      "geo": 5877,
      "shit": 5878,
      "shields": 5879,
      "blown": 5880,
      "bloom": 5881,
      "reds": 5882,
      "reddish": 5883,
      "siting": 5884,
      "add": 5885,
      "ader": 5886,
      "ades": 5887,
      "advan": 5888,
      "owner": 5889,
      "owners": 5890,
      "megap": 5891,
      "begging": 5892,
      "beyond": 5893,
      "bearer": 5894,
      "hispanic": 5895,
      "cemet": 5896,
      "blade": 5897,
      "ries": 5898,
      "coal": 5899,
      "como": 5900,
      "comic": 5901,
      "cotch": 5902,
      "forces": 5903,
      "forcement": 5904,
      "fortun": 5905,
      "shu": 5906,
      "taste": 5907,
      "tasting": 5908,
      "tagged": 5909,
      "verty": 5910,
      "seam": 5911,
      "seeds": 5912,
      "selecting": 5913,
      "aircraft": 5914,
      "loose": 5915,
      "soil": 5916,
      "frustr": 5917,
      "buggy": 5918,
      "buoy": 5919,
      "loop": 5920,
      "logy": 5921,
      "locomo": 5922,
      "streetlight": 5923,
      "amic": 5924,
      "walkers": 5925,
      "tible": 5926,
      "tiles": 5927,
      "tific": 5928,
      "bringing": 5929,
      "keeping": 5930,
      "cara": 5931,
      "mage": 5932,
      "magic": 5933,
      "pokes": 5934,
      "poised": 5935,
      "poverty": 5936,
      "file": 5937,
      "fives": 5938,
      "runway": 5939,
      "word": 5940,
      "someones": 5941,
      "hate": 5942,
      "sket": 5943,
      "indi": 5944,
      "formally": 5945,
      "sight": 5946,
      "sions": 5947,
      "ridding": 5948,
      "kswa": 5949,
      "pastri": 5950,
      "paws": 5951,
      "crop": 5952,
      "bathers": 5953,
      "snowing": 5954,
      "dia": 5955,
      "dilapidated": 5956,
      "overcoat": 5957,
      "overhang": 5958,
      "overturned": 5959,
      "mbone": 5960,
      "terrace": 5961,
      "terrier": 5962,
      "conso": 5963,
      "consid": 5964,
      "constructing": 5965,
      "persons": 5966,
      "actively": 5967,
      "tram": 5968,
      "trave": 5969,
      "moting": 5970,
      "mosa": 5971,
      "puffy": 5972,
      "scri": 5973,
      "scout": 5974,
      "scared": 5975,
      "piled": 5976,
      "piggy": 5977,
      "clip": 5978,
      "eatery": 5979,
      "pering": 5980,
      "kettle": 5981,
      "topic": 5982,
      "workbench": 5983,
      "closer": 5984,
      "readying": 5985,
      "headscarves": 5986,
      "orescent": 5987,
      "sunhat": 5988,
      "sunrise": 5989,
      "sunbathers": 5990,
      "spin": 5991,
      "spear": 5992,
      "spandex": 5993,
      "goers": 5994,
      "pical": 5995,
      "pictured": 5996,
      "gued": 5997,
      "decid": 5998,
      "marks": 5999,
      "markings": 6000,
      "rocking": 6001,
      "cityscape": 6002,
      "bicle": 6003,
      "floppy": 6004,
      "surgeons": 6005,
      "metro": 6006,
      "metrop": 6007,
      "metallic": 6008,
      "roping": 6009,
      "guitarists": 6010,
      "helped": 6011,
      "torn": 6012,
      "else": 6013,
      "ffs": 6014,
      "ffle": 6015,
      "ffles": 6016,
      "pancake": 6017,
      "came": 6018,
      "casts": 6019,
      "cables": 6020,
      "cafet": 6021,
      "studies": 6022,
      "roadwork": 6023,
      "buses": 6024,
      "brimmed": 6025,
      "cubicle": 6026,
      "gnant": 6027,
      "horns": 6028,
      "enders": 6029,
      "strip": 6030,
      "strikes": 6031,
      "mermaid": 6032,
      "pretending": 6033,
      "chews": 6034,
      "footbridge": 6035,
      "sandal": 6036,
      "sales": 6037,
      "Sea": 6038,
      "collec": 6039,
      "kiddie": 6040,
      "pursu": 6041,
      "purchasing": 6042,
      "umber": 6043,
      "plowing": 6044,
      "speci": 6045,
      "tribe": 6046,
      "trims": 6047,
      "triangle": 6048,
      "basement": 6049,
      "swimwear": 6050,
      "mountainside": 6051,
      "proof": 6052,
      "promoting": 6053,
      "cords": 6054,
      "typical": 6055,
      "exits": 6056,
      "exposed": 6057,
      "except": 6058,
      "whole": 6059,
      "sloping": 6060,
      "via": 6061,
      "helmeted": 6062,
      "sumo": 6063,
      "sucking": 6064,
      "nique": 6065,
      "weed": 6066,
      "weird": 6067,
      "weeds": 6068,
      "sweaty": 6069,
      "motorboat": 6070,
      "created": 6071,
      "slender": 6072,
      "apparel": 6073,
      "trained": 6074,
      "despite": 6075,
      "driven": 6076,
      "dribbling": 6077,
      "bowler": 6078,
      "basketballs": 6079,
      "rounds": 6080,
      "nology": 6081,
      "smith": 6082,
      "skimpy": 6083,
      "verse": 6084,
      "dug": 6085,
      "instructor": 6086,
      "bookstore": 6087,
      "bookbag": 6088,
      "disk": 6089,
      "stairwell": 6090,
      "civil": 6091,
      "competes": 6092,
      "Somebody": 6093,
      "beards": 6094,
      "kickboxing": 6095,
      "shave": 6096,
      "mascara": 6097,
      "graphic": 6098,
      "mesh": 6099,
      "ddling": 6100,
      "paintings": 6101,
      "substance": 6102,
      "bridal": 6103,
      "viewer": 6104,
      "likely": 6105,
      "snowboarders": 6106,
      "fami": 6107,
      "preparation": 6108,
      "phy": 6109,
      "cupcake": 6110,
      "cupcakes": 6111,
      "fourth": 6112,
      "bats": 6113,
      "breaking": 6114,
      "taller": 6115,
      "steer": 6116,
      "steers": 6117,
      "steaks": 6118,
      "statues": 6119,
      "potted": 6120,
      "landed": 6121,
      "tches": 6122,
      "wetsuits": 6123,
      "ramps": 6124,
      "fetching": 6125,
      "media": 6126,
      "squat": 6127,
      "crab": 6128,
      "photography": 6129,
      "photographers": 6130,
      "patron": 6131,
      "padding": 6132,
      "Boston": 6133,
      "write": 6134,
      "inist": 6135,
      "tattered": 6136,
      "kie": 6137,
      "spectate": 6138,
      "waitress": 6139,
      "leton": 6140,
      "letters": 6141,
      "stationary": 6142,
      "fighter": 6143,
      "paintbrush": 6144,
      "structures": 6145,
      "Individu": 6146,
      "seeming": 6147,
      "porting": 6148,
      "resid": 6149,
      "washed": 6150,
      "avy": 6151,
      "avoid": 6152,
      "available": 6153,
      "pitchers": 6154,
      "artific": 6155,
      "layers": 6156,
      "enger": 6157,
      "shoots": 6158,
      "observers": 6159,
      "circus": 6160,
      "circuit": 6161,
      "sculpting": 6162,
      "sculptor": 6163,
      "tuning": 6164,
      "wrapping": 6165,
      "partly": 6166,
      "coveralls": 6167,
      "seaweed": 6168,
      "chested": 6169,
      "camper": 6170,
      "campers": 6171,
      "celebrates": 6172,
      "content": 6173,
      "pensive": 6174,
      "tackles": 6175,
      "notice": 6176,
      "participates": 6177,
      "daughters": 6178,
      "guarding": 6179,
      "know": 6180,
      "minivan": 6181,
      "minisk": 6182,
      "scale": 6183,
      "frames": 6184,
      "strawberry": 6185,
      "cleaned": 6186,
      "fluorescent": 6187,
      "projected": 6188,
      "dunk": 6189,
      "dunes": 6190,
      "pulley": 6191,
      "storage": 6192,
      "pillars": 6193,
      "caution": 6194,
      "berty": 6195,
      "lonely": 6196,
      "postal": 6197,
      "festive": 6198,
      "flatbed": 6199,
      "Station": 6200,
      "crib": 6201,
      "waring": 6202,
      "warning": 6203,
      "stacking": 6204,
      "weave": 6205,
      "weathered": 6206,
      "balconies": 6207,
      "squares": 6208,
      "bungee": 6209,
      "bathrobe": 6210,
      "kayakers": 6211,
      "nicely": 6212,
      "receive": 6213,
      "professionals": 6214,
      "drops": 6215,
      "dropped": 6216,
      "pressure": 6217,
      "halter": 6218,
      "stools": 6219,
      "picker": 6220,
      "pickup": 6221,
      "designer": 6222,
      "freshly": 6223,
      "boulders": 6224,
      "scoop": 6225,
      "grooms": 6226,
      "shapes": 6227,
      "possession": 6228,
      "fashionable": 6229,
      "troops": 6230,
      "trombone": 6231,
      "charcoal": 6232,
      "firing": 6233,
      "welve": 6234,
      "tosses": 6235,
      "carpeted": 6236,
      "sailboats": 6237,
      "entertainer": 6238,
      "rollerskaters": 6239,
      "bounce": 6240,
      "emerging": 6241,
      "octopu": 6242,
      "collection": 6243,
      "descend": 6244,
      "siding": 6245,
      "Motor": 6246,
      "youths": 6247,
      "thinking": 6248,
      "controls": 6249,
      "receives": 6250,
      "Hotel": 6251,
      "Market": 6252,
      "extended": 6253,
      "jewelery": 6254,
      "muzzles": 6255,
      "surroundings": 6256,
      "spikes": 6257,
      "spiked": 6258,
      "wades": 6259,
      "peeks": 6260,
      "screw": 6261,
      "headbands": 6262,
      "leafless": 6263,
      "electronics": 6264,
      "Crowds": 6265,
      "straps": 6266,
      "seashore": 6267,
      "tightly": 6268,
      "tightrope": 6269,
      "cruise": 6270,
      "crutches": 6271,
      "galloping": 6272,
      "texts": 6273,
      "parasol": 6274,
      "Bull": 6275,
      "Speedo": 6276,
      "prizes": 6277,
      "seniors": 6278,
      "organizing": 6279,
      "demonstrating": 6280,
      "plucking": 6281,
      "chickens": 6282,
      "slam": 6283,
      "interested": 6284,
      "sorts": 6285,
      "technique": 6286,
      "technology": 6287,
      "adorable": 6288,
      "impressive": 6289,
      "pirates": 6290,
      "sniffs": 6291,
      "messenger": 6292,
      "waterskier": 6293,
      "calling": 6294,
      "henna": 6295,
      "maintain": 6296,
      "defenders": 6297,
      "defensive": 6298,
      "crayon": 6299,
      "College": 6300,
      "Eng": 6301,
      "Teenag": 6302,
      "Teenage": 6303,
      "maneuver": 6304,
      "stirs": 6305,
      "slices": 6306,
      "Deere": 6307,
      "floored": 6308,
      "oversized": 6309,
      "decide": 6310,
      "sausages": 6311,
      "twirling": 6312,
      "retrieving": 6313,
      "Bicyclists": 6314,
      "With": 6315,
      "dominoes": 6316,
      "mechanic": 6317,
      "mechanical": 6318,
      "smoothing": 6319,
      "cookie": 6320,
      "seagull": 6321,
      "graduation": 6322,
      "Life": 6323,
      "Looking": 6324,
      "Parade": 6325,
      "Russ": 6326,
      "chiseling": 6327,
      "oxen": 6328,
      "powder": 6329,
      "skeleton": 6330,
      "lemons": 6331,
      "rabbit": 6332,
      "rabbits": 6333,
      "stockings": 6334,
      "communicating": 6335,
      "Arabic": 6336,
      "Latin": 6337,
      "Oriental": 6338,
      "Race": 6339,
      "Vegas": 6340,
      "View": 6341,
      "bracelet": 6342,
      "noodles": 6343,
      "stalks": 6344,
      "mailbox": 6345,
      "snorkel": 6346,
      "sprinting": 6347,
      "weighing": 6348,
      "videotaping": 6349,
      "greeting": 6350,
      "Starbucks": 6351,
      "extremely": 6352,
      "enthusiastically": 6353,
      "Elementary": 6354,
      "Greyhound": 6355,
      "drainage": 6356,
      "ffel": 6357,
      "hopscotch": 6358,
      "swampy": 6359,
      "sashes": 6360,
      "inflated": 6361,
      "chubby": 6362,
      "whispering": 6363,
      "memorial": 6364,
      "coconuts": 6365,
      "accepting": 6366,
      "puzzle": 6367,
      "hauling": 6368,
      "spanish": 6369,
      "curious": 6370,
      "automobile": 6371,
      "submerged": 6372,
      "directly": 6373,
      "question": 6374,
      "occurring": 6375,
      "Shoppers": 6376,
      "scratching": 6377,
      "alcohol": 6378,
      "Disney": 6379,
      "adole": 6380,
      "foundation": 6381,
      "powered": 6382,
      "ladders": 6383,
      "dolphin": 6384,
      "unidentified": 6385,
      "solitary": 6386,
      "sombrero": 6387,
      "soldering": 6388,
      "cartoon": 6389,
      "snake": 6390,
      "convertible": 6391,
      "quaint": 6392,
      "currently": 6393,
      "blosso": 6394,
      "passionately": 6395,
      "dramatically": 6396,
      "delicious": 6397,
      "Photographers": 6398,
      "Gentleman": 6399,
      "contemplating": 6400,
      "Emergency": 6401,
      "Friends": 6402,
      "Hispanic": 6403,
      "Island": 6404,
      "KitchenAid": 6405,
      "Mickey": 6406,
      "Oklaho": 6407,
      "Welcome": 6408,
      "Washington": 6409,
      "Yamaha": 6410,
      "govern": 6411,
      "utensil": 6412,
      "ukulele": 6413,
      "respective": 6414,
      "archite": 6415,
      "hidden": 6416,
      "earmuffs": 6417,
      "megaphone": 6418,
      "cemetery": 6419,
      "frustrated": 6420,
      "kswagen": 6421,
      "pastries": 6422,
      "piggyback": 6423,
      "cafeteria": 6424,
      "artificial": 6425,
      "octopus": 6426,
      "Oklahoma": 6427,
      "08": 6428,
      "14": 6429,
      "24": 6430,
      "30": 6431,
      "3r": 6432,
      "?\"": 6433,
      "Air": 6434,
      "Ber": 6435,
      "Bar": 6436,
      "Bat": 6437,
      "Ball": 6438,
      "Bron": 6439,
      "Bus": 6440,
      "CK": 6441,
      "Chi": 6442,
      "Cir": 6443,
      "Coun": 6444,
      "Care": 6445,
      "Coo": 6446,
      "Cap": 6447,
      "Coffee": 6448,
      "Cast": 6449,
      "Camp": 6450,
      "Coney": 6451,
      "DI": 6452,
      "Dr": 6453,
      "Dad": 6454,
      "Down": 6455,
      "Deli": 6456,
      "Eth": 6457,
      "Emp": 6458,
      "Elder": 6459,
      "Easter": 6460,
      "FC": 6461,
      "Far": 6462,
      "Fla": 6463,
      "Fro": 6464,
      "Fac": 6465,
      "Fore": 6466,
      "Few": 6467,
      "Fast": 6468,
      "French": 6469,
      "Fisherman": 6470,
      "Fishermen": 6471,
      "GA": 6472,
      "Gri": 6473,
      "Gap": 6474,
      "Good": 6475,
      "Hor": 6476,
      "Hun": 6477,
      "Hard": 6478,
      "Hikers": 6479,
      "Is": 6480,
      "Ja": 6481,
      "Jim": 6482,
      "Ko": 6483,
      "Kore": 6484,
      "LA": 6485,
      "Lone": 6486,
      "Lakers": 6487,
      "MA": 6488,
      "ME": 6489,
      "Med": 6490,
      "Mad": 6491,
      "Mac": 6492,
      "Mets": 6493,
      "Nine": 6494,
      "Ninten": 6495,
      "OI": 6496,
      "Po": 6497,
      "Pan": 6498,
      "Pre": 6499,
      "Pitch": 6500,
      "Piz": 6501,
      "Pants": 6502,
      "RO": 6503,
      "Ren": 6504,
      "Rac": 6505,
      "SW": 6506,
      "Sit": 6507,
      "Sam": 6508,
      "Spain": 6509,
      "Scot": 6510,
      "Tur": 6511,
      "Tye": 6512,
      "Twelve": 6513,
      "Un": 6514,
      "Up": 6515,
      "Well": 6516,
      "abi": 6517,
      "avi": 6518,
      "awe": 6519,
      "aign": 6520,
      "awaits": 6521,
      "aerial": 6522,
      "ault": 6523,
      "bans": 6524,
      "bins": 6525,
      "cs": 6526,
      "cac": 6527,
      "claw": 6528,
      "cited": 6529,
      "dand": 6530,
      "dal": 6531,
      "did": 6532,
      "das": 6533,
      "due": 6534,
      "dren": 6535,
      "ditch": 6536,
      "dash": 6537,
      "dreads": 6538,
      "darts": 6539,
      "dwell": 6540,
      "dorm": 6541,
      "dreds": 6542,
      "eep": 6543,
      "europe": 6544,
      "emotion": 6545,
      "fal": 6546,
      "fol": 6547,
      "gby": 6548,
      "gam": 6549,
      "gay": 6550,
      "hedge": 6551,
      "halloween": 6552,
      "ier": 6553,
      "ile": 6554,
      "ifor": 6555,
      "iod": 6556,
      "ives": 6557,
      "iant": 6558,
      "ials": 6559,
      "jour": 6560,
      "jab": 6561,
      "jars": 6562,
      "junk": 6563,
      "knight": 6564,
      "kart": 6565,
      "mboy": 6566,
      "mna": 6567,
      "might": 6568,
      "mmage": 6569,
      "num": 6570,
      "ov": 6571,
      "oll": 6572,
      "oam": 6573,
      "olit": 6574,
      "olymp": 6575,
      "pand": 6576,
      "pear": 6577,
      "pant": 6578,
      "ral": 6579,
      "swo": 6580,
      "sme": 6581,
      "sam": 6582,
      "sari": 6583,
      "tv": 6584,
      "tit": 6585,
      "tear": 6586,
      "tation": 6587,
      "tling": 6588,
      "turing": 6589,
      "ust": 6590,
      "ura": 6591,
      "ution": 6592,
      "uct": 6593,
      "uish": 6594,
      "vat": 6595,
      "vation": 6596,
      "vening": 6597,
      "wn": 6598,
      "wit": 6599,
      "wade": 6600,
      "welds": 6601,
      "xis": 6602,
      "yet": 6603,
      "years": 6604,
      "yawning": 6605,
      "int": 6606,
      "inting": 6607,
      "inse": 6608,
      "instruction": 6609,
      "invest": 6610,
      "infan": 6611,
      "informal": 6612,
      "intimate": 6613,
      "ances": 6614,
      "anitor": 6615,
      "ingly": 6616,
      "thread": 6617,
      "rees": 6618,
      "reco": 6619,
      "refu": 6620,
      "report": 6621,
      "remove": 6622,
      "removes": 6623,
      "reviewing": 6624,
      "representing": 6625,
      "region": 6626,
      "lee": 6627,
      "leis": 6628,
      "lete": 6629,
      "arma": 6630,
      "argu": 6631,
      "hijab": 6632,
      "manic": 6633,
      "mantle": 6634,
      "manhole": 6635,
      "manual": 6636,
      "anding": 6637,
      "andom": 6638,
      "atic": 6639,
      "atown": 6640,
      "attired": 6641,
      "state": 6642,
      "states": 6643,
      "strobe": 6644,
      "straining": 6645,
      "align": 6646,
      "alumin": 6647,
      "ism": 6648,
      "isha": 6649,
      "ision": 6650,
      "ladle": 6651,
      "laces": 6652,
      "label": 6653,
      "enclo": 6654,
      "enclosed": 6655,
      "enail": 6656,
      "enforcement": 6657,
      "iter": 6658,
      "itation": 6659,
      "itself": 6660,
      "owling": 6661,
      "ckled": 6662,
      "tote": 6663,
      "tori": 6664,
      "toba": 6665,
      "toenail": 6666,
      "orna": 6667,
      "orously": 6668,
      "ornament": 6669,
      "irking": 6670,
      "ete": 6671,
      "chet": 6672,
      "change": 6673,
      "chart": 6674,
      "opin": 6675,
      "opport": 6676,
      "iding": 6677,
      "iderman": 6678,
      "boa": 6679,
      "grid": 6680,
      "growing": 6681,
      "earch": 6682,
      "earbu": 6683,
      "earring": 6684,
      "ashore": 6685,
      "ook": 6686,
      "plains": 6687,
      "allowing": 6688,
      "telling": 6689,
      "tethered": 6690,
      "tells": 6691,
      "ico": 6692,
      "icap": 6693,
      "menus": 6694,
      "dod": 6695,
      "docu": 6696,
      "dojo": 6697,
      "dozen": 6698,
      "pep": 6699,
      "playhouse": 6700,
      "rored": 6701,
      "rose": 6702,
      "robed": 6703,
      "rods": 6704,
      "holing": 6705,
      "hoses": 6706,
      "hell": 6707,
      "heeled": 6708,
      "health": 6709,
      "union": 6710,
      "unity": 6711,
      "unice": 6712,
      "unload": 6713,
      "uncompleted": 6714,
      "unison": 6715,
      "geous": 6716,
      "geese": 6717,
      "geisha": 6718,
      "shion": 6719,
      "shielding": 6720,
      "wallet": 6721,
      "situ": 6722,
      "adding": 6723,
      "adven": 6724,
      "addresses": 6725,
      "advent": 6726,
      "addressing": 6727,
      "llip": 6728,
      "llister": 6729,
      "rakes": 6730,
      "rags": 6731,
      "rainst": 6732,
      "ragged": 6733,
      "meless": 6734,
      "meals": 6735,
      "best": 6736,
      "bered": 6737,
      "beans": 6738,
      "beag": 6739,
      "beauti": 6740,
      "beats": 6741,
      "beater": 6742,
      "irline": 6743,
      "youngsters": 6744,
      "rig": 6745,
      "rimp": 6746,
      "riotic": 6747,
      "blacktop": 6748,
      "blacksmith": 6749,
      "coin": 6750,
      "codi": 6751,
      "force": 6752,
      "forrest": 6753,
      "mping": 6754,
      "mpoo": 6755,
      "shun": 6756,
      "shroom": 6757,
      "shrimp": 6758,
      "tasty": 6759,
      "taxis": 6760,
      "urs": 6761,
      "urin": 6762,
      "secre": 6763,
      "sexy": 6764,
      "veil": 6765,
      "ounds": 6766,
      "lian": 6767,
      "lied": 6768,
      "limo": 6769,
      "lives": 6770,
      "livest": 6771,
      "licked": 6772,
      "lizard": 6773,
      "liberty": 6774,
      "stress": 6775,
      "streaks": 6776,
      "streached": 6777,
      "strewn": 6778,
      "soon": 6779,
      "sock": 6780,
      "solar": 6781,
      "somers": 6782,
      "fring": 6783,
      "fris": 6784,
      "bulls": 6785,
      "grouped": 6786,
      "loaf": 6787,
      "locked": 6788,
      "lollip": 6789,
      "streetlights": 6790,
      "outcrop": 6791,
      "outstreached": 6792,
      "neat": 6793,
      "needs": 6794,
      "amused": 6795,
      "hero": 6796,
      "walker": 6797,
      "walkie": 6798,
      "timber": 6799,
      "smirking": 6800,
      "uphill": 6801,
      "upcoming": 6802,
      "appla": 6803,
      "appre": 6804,
      "keeper": 6805,
      "mac": 6806,
      "math": 6807,
      "poker": 6808,
      "waterproof": 6809,
      "jug": 6810,
      "jugg": 6811,
      "dresser": 6812,
      "fist": 6813,
      "fists": 6814,
      "figur": 6815,
      "rung": 6816,
      "aches": 6817,
      "achshun": 6818,
      "para": 6819,
      "parks": 6820,
      "parlor": 6821,
      "backhand": 6822,
      "hatted": 6823,
      "rushing": 6824,
      "ruler": 6825,
      "liter": 6826,
      "littered": 6827,
      "index": 6828,
      "renaissance": 6829,
      "formers": 6830,
      "formations": 6831,
      "sips": 6832,
      "simul": 6833,
      "sipping": 6834,
      "sizes": 6835,
      "ridor": 6836,
      "elling": 6837,
      "cleats": 6838,
      "snar": 6839,
      "snoo": 6840,
      "grounds": 6841,
      "feed": 6842,
      "feeds": 6843,
      "paw": 6844,
      "page": 6845,
      "paving": 6846,
      "pastu": 6847,
      "pause": 6848,
      "pages": 6849,
      "assort": 6850,
      "snows": 6851,
      "snowfla": 6852,
      "snowshoe": 6853,
      "snowbank": 6854,
      "distor": 6855,
      "digger": 6856,
      "overall": 6857,
      "overlooks": 6858,
      "overpass": 6859,
      "tuba": 6860,
      "tulips": 6861,
      "boarders": 6862,
      "frog": 6863,
      "frosting": 6864,
      "terior": 6865,
      "condo": 6866,
      "consu": 6867,
      "handful": 6868,
      "handmade": 6869,
      "handkerchief": 6870,
      "acts": 6871,
      "achio": 6872,
      "trap": 6873,
      "ource": 6874,
      "moon": 6875,
      "moss": 6876,
      "moved": 6877,
      "mosque": 6878,
      "jackhammer": 6879,
      "waking": 6880,
      "scap": 6881,
      "scru": 6882,
      "hazard": 6883,
      "offers": 6884,
      "swer": 6885,
      "sweating": 6886,
      "stained": 6887,
      "trough": 6888,
      "trink": 6889,
      "trouble": 6890,
      "ceramic": 6891,
      "talkie": 6892,
      "topped": 6893,
      "headgear": 6894,
      "hairnet": 6895,
      "sunhats": 6896,
      "strumming": 6897,
      "spen": 6898,
      "spits": 6899,
      "spreading": 6900,
      "spreads": 6901,
      "spilled": 6902,
      "goof": 6903,
      "parka": 6904,
      "camcor": 6905,
      "dered": 6906,
      "demo": 6907,
      "devil": 6908,
      "dealer": 6909,
      "marina": 6910,
      "suite": 6911,
      "suited": 6912,
      "muters": 6913,
      "mushroom": 6914,
      "meter": 6915,
      "metric": 6916,
      "cameramen": 6917,
      "woodworking": 6918,
      "ctic": 6919,
      "antic": 6920,
      "shots": 6921,
      "elbow": 6922,
      "panel": 6923,
      "paneled": 6924,
      "cages": 6925,
      "study": 6926,
      "bushel": 6927,
      "cushion": 6928,
      "blonds": 6929,
      "jogger": 6930,
      "merized": 6931,
      "presu": 6932,
      "prevent": 6933,
      "pretends": 6934,
      "pregnant": 6935,
      "quilt": 6936,
      "chew": 6937,
      "cheers": 6938,
      "footprints": 6939,
      "sandpit": 6940,
      "olate": 6941,
      "save": 6942,
      "sauna": 6943,
      "colon": 6944,
      "underway": 6945,
      "entre": 6946,
      "enters": 6947,
      "boating": 6948,
      "session": 6949,
      "specta": 6950,
      "trio": 6951,
      "trips": 6952,
      "tane": 6953,
      "tanned": 6954,
      "mical": 6955,
      "signal": 6956,
      "provide": 6957,
      "program": 6958,
      "procession": 6959,
      "towed": 6960,
      "towering": 6961,
      "aut": 6962,
      "darkly": 6963,
      "darkness": 6964,
      "cord": 6965,
      "corral": 6966,
      "corridor": 6967,
      "barbie": 6968,
      "exe": 6969,
      "exit": 6970,
      "exca": 6971,
      "exposing": 6972,
      "expensive": 6973,
      "whose": 6974,
      "vivid": 6975,
      "flotation": 6976,
      "winded": 6977,
      "such": 6978,
      "suds": 6979,
      "suspen": 6980,
      "nia": 6981,
      "nibbling": 6982,
      "creative": 6983,
      "wheat": 6984,
      "related": 6985,
      "reluct": 6986,
      "sleigh": 6987,
      "aging": 6988,
      "agility": 6989,
      "applied": 6990,
      "huts": 6991,
      "huddling": 6992,
      "trek": 6993,
      "treats": 6994,
      "flamboy": 6995,
      "gig": 6996,
      "gifts": 6997,
      "Younger": 6998,
      "descri": 6999,
      "desolate": 7000,
      "canes": 7001,
      "canned": 7002,
      "canister": 7003,
      "dries": 7004,
      "dried": 7005,
      "drift": 7006,
      "sticker": 7007,
      "bowed": 7008,
      "pastor": 7009,
      "pastel": 7010,
      "ouching": 7011,
      "restaurants": 7012,
      "baggage": 7013,
      "bagpipe": 7014,
      "capes": 7015,
      "captain": 7016,
      "captured": 7017,
      "captures": 7018,
      "skim": 7019,
      "packages": 7020,
      "highly": 7021,
      "aki": 7022,
      "ducking": 7023,
      "duffel": 7024,
      "bears": 7025,
      "machete": 7026,
      "services": 7027,
      "kicker": 7028,
      "tural": 7029,
      "turbans": 7030,
      "shampoo": 7031,
      "faced": 7032,
      "facade": 7033,
      "banquet": 7034,
      "fliers": 7035,
      "flights": 7036,
      "county": 7037,
      "counters": 7038,
      "mesmerized": 7039,
      "interior": 7040,
      "views": 7041,
      "lottery": 7042,
      "gyps": 7043,
      "temporary": 7044,
      "wheeling": 7045,
      "stock": 7046,
      "pointy": 7047,
      "curling": 7048,
      "planes": 7049,
      "dentist": 7050,
      "monks": 7051,
      "monster": 7052,
      "rappelling": 7053,
      "pharma": 7054,
      "takeout": 7055,
      "kissed": 7056,
      "batons": 7057,
      "battling": 7058,
      "railway": 7059,
      "garment": 7060,
      "films": 7061,
      "vention": 7062,
      "took": 7063,
      "better": 7064,
      "stetho": 7065,
      "statute": 7066,
      "landmark": 7067,
      "landscap": 7068,
      "ronaut": 7069,
      "equipped": 7070,
      "bordering": 7071,
      "bordered": 7072,
      "rowers": 7073,
      "meditating": 7074,
      "squirt": 7075,
      "squinting": 7076,
      "cracks": 7077,
      "happening": 7078,
      "patrol": 7079,
      "patriotic": 7080,
      "wrong": 7081,
      "Grouch": 7082,
      "kier": 7083,
      "animated": 7084,
      "protester": 7085,
      "schoolgirl": 7086,
      "waited": 7087,
      "France": 7088,
      "breakfast": 7089,
      "multit": 7090,
      "cutout": 7091,
      "cutoff": 7092,
      "paintball": 7093,
      "pets": 7094,
      "lence": 7095,
      "electrical": 7096,
      "hamburgers": 7097,
      "hamburger": 7098,
      "pairs": 7099,
      "ported": 7100,
      "research": 7101,
      "mirrored": 7102,
      "director": 7103,
      "directed": 7104,
      "fences": 7105,
      "pitches": 7106,
      "pitched": 7107,
      "audio": 7108,
      "onlooker": 7109,
      "chaeo": 7110,
      "collide": 7111,
      "sweet": 7112,
      "sweep": 7113,
      "surfboards": 7114,
      "layered": 7115,
      "violins": 7116,
      "violinist": 7117,
      "observed": 7118,
      "countertop": 7119,
      "astronaut": 7120,
      "sleds": 7121,
      "sledge": 7122,
      "shading": 7123,
      "shaded": 7124,
      "partner": 7125,
      "burn": 7126,
      "participants": 7127,
      "golfer": 7128,
      "campaign": 7129,
      "electrician": 7130,
      "contin": 7131,
      "attend": 7132,
      "pierced": 7133,
      "final": 7134,
      "princess": 7135,
      "Dozens": 7136,
      "dishwasher": 7137,
      "knits": 7138,
      "ponders": 7139,
      "napkin": 7140,
      "dunks": 7141,
      "elementary": 7142,
      "housing": 7143,
      "hurdles": 7144,
      "streams": 7145,
      "contains": 7146,
      "decker": 7147,
      "coverings": 7148,
      "approxim": 7149,
      "mustachio": 7150,
      "kinds": 7151,
      "attaches": 7152,
      "professionally": 7153,
      "pressing": 7154,
      "presses": 7155,
      "mopping": 7156,
      "sprinkles": 7157,
      "sprinkled": 7158,
      "sprinkling": 7159,
      "donuts": 7160,
      "keyboards": 7161,
      "scoops": 7162,
      "braces": 7163,
      "engages": 7164,
      "sheepdog": 7165,
      "effort": 7166,
      "vacant": 7167,
      "yota": 7168,
      "records": 7169,
      "positions": 7170,
      "trots": 7171,
      "referees": 7172,
      "charging": 7173,
      "fingernail": 7174,
      "fingertips": 7175,
      "mixes": 7176,
      "mixed": 7177,
      "racquet": 7178,
      "transporting": 7179,
      "speakers": 7180,
      "entertains": 7181,
      "entertaining": 7182,
      "entertained": 7183,
      "entertainment": 7184,
      "peaceful": 7185,
      "mustached": 7186,
      "bouncer": 7187,
      "bounces": 7188,
      "bouncy": 7189,
      "ginger": 7190,
      "salmon": 7191,
      "rubbing": 7192,
      "collected": 7193,
      "descends": 7194,
      "Chef": 7195,
      "freeway": 7196,
      "nuts": 7197,
      "ironing": 7198,
      "cereal": 7199,
      "trumpets": 7200,
      "ponytails": 7201,
      "Joe": 7202,
      "Jockey": 7203,
      "Love": 7204,
      "Mom": 7205,
      "warmly": 7206,
      "dumps": 7207,
      "protesters": 7208,
      "heartbeat": 7209,
      "Hollister": 7210,
      "Homeless": 7211,
      "extra": 7212,
      "extends": 7213,
      "xiously": 7214,
      "crashes": 7215,
      "crashed": 7216,
      "focuses": 7217,
      "BMW": 7218,
      "aquatic": 7219,
      "propane": 7220,
      "spiking": 7221,
      "twigs": 7222,
      "twilight": 7223,
      "leafy": 7224,
      "supervis": 7225,
      "Firetrucks": 7226,
      "Student": 7227,
      "lounges": 7228,
      "nursing": 7229,
      "wildflowers": 7230,
      "cobbled": 7231,
      "ballerinas": 7232,
      "patiently": 7233,
      "villagers": 7234,
      "ferry": 7235,
      "popul": 7236,
      "popping": 7237,
      "patches": 7238,
      "grandmother": 7239,
      "granddaughter": 7240,
      "texas": 7241,
      "bulance": 7242,
      "bullet": 7243,
      "parasail": 7244,
      "pumpkins": 7245,
      "craftsman": 7246,
      "Budd": 7247,
      "Lead": 7248,
      "Road": 7249,
      "primit": 7250,
      "organized": 7251,
      "briskly": 7252,
      "demonstrates": 7253,
      "plugging": 7254,
      "vigorously": 7255,
      "dustpan": 7256,
      "similarly": 7257,
      "euro": 7258,
      "knives": 7259,
      "notebooks": 7260,
      "enthusiast": 7261,
      "enthusiasm": 7262,
      "technic": 7263,
      "poorly": 7264,
      "tricycles": 7265,
      "screams": 7266,
      "impro": 7267,
      "paying": 7268,
      "tasks": 7269,
      "eteran": 7270,
      "tickets": 7271,
      "featured": 7272,
      "handlebars": 7273,
      "portraits": 7274,
      "shadowed": 7275,
      "leotards": 7276,
      "fitness": 7277,
      "jazz": 7278,
      "shelf": 7279,
      "shelter": 7280,
      "recliner": 7281,
      "blurry": 7282,
      "fierce": 7283,
      "defends": 7284,
      "briefs": 7285,
      "horizont": 7286,
      "uniquely": 7287,
      "Mexico": 7288,
      "Player": 7289,
      "namese": 7290,
      "powerpoint": 7291,
      "rises": 7292,
      "removed": 7293,
      "maneuvers": 7294,
      "maneuvering": 7295,
      "assembly": 7296,
      "unusually": 7297,
      "measure": 7298,
      "amazing": 7299,
      "pockets": 7300,
      "tuxedos": 7301,
      "accompanies": 7302,
      "explores": 7303,
      "explosion": 7304,
      "explorer": 7305,
      "navigating": 7306,
      "potatoes": 7307,
      "elevator": 7308,
      "fati": 7309,
      "flood": 7310,
      "flooded": 7311,
      "latex": 7312,
      "overse": 7313,
      "sparkler": 7314,
      "sparklers": 7315,
      "vaulting": 7316,
      "arrival": 7317,
      "launching": 7318,
      "launches": 7319,
      "forklift": 7320,
      "butchering": 7321,
      "diverse": 7322,
      "tutus": 7323,
      "decals": 7324,
      "twirl": 7325,
      "twirls": 7326,
      "vacuums": 7327,
      "retriever": 7328,
      "SquarePants": 7329,
      "Skier": 7330,
      "Skiers": 7331,
      "Wii": 7332,
      "crotch": 7333,
      "crocodi": 7334,
      "everywhere": 7335,
      "stony": 7336,
      "issue": 7337,
      "scraper": 7338,
      "awnings": 7339,
      "graduate": 7340,
      "Looks": 7341,
      "Rugby": 7342,
      "Team": 7343,
      "clasp": 7344,
      "clams": 7345,
      "cycles": 7346,
      "honor": 7347,
      "ritual": 7348,
      "wonder": 7349,
      "staying": 7350,
      "toilets": 7351,
      "secure": 7352,
      "secured": 7353,
      "lassoing": 7354,
      "sponge": 7355,
      "cabinet": 7356,
      "flashlight": 7357,
      "turtleneck": 7358,
      "chipper": 7359,
      "congregating": 7360,
      "congregated": 7361,
      "mannequins": 7362,
      "Autumn": 7363,
      "Excited": 7364,
      "Latino": 7365,
      "noodle": 7366,
      "wristband": 7367,
      "ripp": 7368,
      "ripped": 7369,
      "sippy": 7370,
      "bathed": 7371,
      "spiral": 7372,
      "sprints": 7373,
      "safely": 7374,
      "clerk": 7375,
      "videotapes": 7376,
      "piercings": 7377,
      "released": 7378,
      "holidays": 7379,
      "Soldiers": 7380,
      "Snowboarder": 7381,
      "detail": 7382,
      "moose": 7383,
      "natural": 7384,
      "zombies": 7385,
      "zombie": 7386,
      "challenge": 7387,
      "gripping": 7388,
      "bumper": 7389,
      "needed": 7390,
      "crystal": 7391,
      "barricades": 7392,
      "skillfully": 7393,
      "affection": 7394,
      "proudly": 7395,
      "ponchos": 7396,
      "Workmen": 7397,
      "Athletes": 7398,
      "Califor": 7399,
      "Ford": 7400,
      "Italian": 7401,
      "Monopoly": 7402,
      "Overhead": 7403,
      "Picture": 7404,
      "Toyota": 7405,
      "drunk": 7406,
      "ecstat": 7407,
      "guest": 7408,
      "llama": 7409,
      "pouting": 7410,
      "rofoam": 7411,
      "rooster": 7412,
      "answers": 7413,
      "responding": 7414,
      "rectangu": 7415,
      "rehearsing": 7416,
      "arranged": 7417,
      "grimacing": 7418,
      "admires": 7419,
      "solider": 7420,
      "outfielder": 7421,
      "Angels": 7422,
      "pleasant": 7423,
      "slowly": 7424,
      "prayer": 7425,
      "penguin": 7426,
      "refreshing": 7427,
      "saxophones": 7428,
      "Company": 7429,
      "fleece": 7430,
      "Colorful": 7431,
      "recently": 7432,
      "depicting": 7433,
      "tambourine": 7434,
      "Africa": 7435,
      "Brazil": 7436,
      "Dressed": 7437,
      "Gymna": 7438,
      "SUV": 7439,
      "gorgeous": 7440,
      "pruning": 7441,
      "route": 7442,
      "satchel": 7443,
      "threw": 7444,
      "lakeside": 7445,
      "geometric": 7446,
      "advantage": 7447,
      "fortune": 7448,
      "seamstress": 7449,
      "mosaic": 7450,
      "metropolit": 7451,
      "pursued": 7452,
      "dugout": 7453,
      "families": 7454,
      "physic": 7455,
      "Individuals": 7456,
      "seemingly": 7457,
      "miniskirt": 7458,
      "screwdriver": 7459,
      "Teenagers": 7460,
      "blossoming": 7461,
      "government": 7462,
      "utensils": 7463,
      "3rd": 7464,
      "Berlin": 7465,
      "Batman": 7466,
      "Ethnic": 7467,
      "Employe": 7468,
      "Korean": 7469,
      "Nintendo": 7470,
      "Pitcher": 7471,
      "Pizza": 7472,
      "Renaissance": 7473,
      "Sitting": 7474,
      "Scottish": 7475,
      "dandeli": 7476,
      "drenched": 7477,
      "dwelling": 7478,
      "journal": 7479,
      "numbered": 7480,
      "ollie": 7481,
      "panda": 7482,
      "samura": 7483,
      "infants": 7484,
      "refuge": 7485,
      "arguing": 7486,
      "aluminum": 7487,
      "enclosure": 7488,
      "tobacco": 7489,
      "opportunity": 7490,
      "earbuds": 7491,
      "icapped": 7492,
      "healthcare": 7493,
      "unicef": 7494,
      "adventure": 7495,
      "rainstorm": 7496,
      "beagle": 7497,
      "beautifully": 7498,
      "livestock": 7499,
      "somersault": 7500,
      "lollipop": 7501,
      "outcropping": 7502,
      "simultane": 7503,
      "assortment": 7504,
      "distorted": 7505,
      "camcorder": 7506,
      "spectacular": 7507,
      "gypsy": 7508,
      "stethoscope": 7509,
      "approximately": 7510,
      "mustachioed": 7511,
      "primitive": 7512,
      "crocodile": 7513,
      "California": 7514,
      "rectangular": 7515,
      "Gymnast": 7516,
      "metropolitan": 7517,
      "samurai": 7518,
      "13": 7519,
      "18": 7520,
      "100": 7521,
      "195": 7522,
      "25": 7523,
      "28": 7524,
      "38": 7525,
      "50": 7526,
      "63": 7527,
      "80": 7528,
      "96": 7529,
      "AA": 7530,
      "AH": 7531,
      "AL": 7532,
      "AM": 7533,
      "AN": 7534,
      "AR": 7535,
      "Ac": 7536,
      "Av": 7537,
      "Ala": 7538,
      "Ado": 7539,
      "Astro": 7540,
      "After": 7541,
      "ACE": 7542,
      "AGA": 7543,
      "Airline": 7544,
      "BA": 7545,
      "Bes": 7546,
      "Bare": 7547,
      "Beach": 7548,
      "Brides": 7549,
      "Bird": 7550,
      "Bright": 7551,
      "Birthday": 7552,
      "Brick": 7553,
      "Bank": 7554,
      "Block": 7555,
      "CU": 7556,
      "Cor": 7557,
      "Cro": 7558,
      "Cri": 7559,
      "Centr": 7560,
      "Da": 7561,
      "Di": 7562,
      "Din": 7563,
      "Doo": 7564,
      "Dep": 7565,
      "Dob": 7566,
      "Dav": 7567,
      "Dane": 7568,
      "Dame": 7569,
      "Darth": 7570,
      "EN": 7571,
      "EP": 7572,
      "ER": 7573,
      "Eu": 7574,
      "Every": 7575,
      "Egy": 7576,
      "EGO": 7577,
      "Earth": 7578,
      "Evening": 7579,
      "Fin": 7580,
      "Fat": 7581,
      "Fair": 7582,
      "Free": 7583,
      "Fans": 7584,
      "Farm": 7585,
      "Ge": 7586,
      "Go": 7587,
      "Gra": 7588,
      "Gold": 7589,
      "Glass": 7590,
      "Giant": 7591,
      "HO": 7592,
      "HS": 7593,
      "Hou": 7594,
      "Hop": 7595,
      "House": 7596,
      "Holding": 7597,
      "Hero": 7598,
      "Iow": 7599,
      "Isla": 7600,
      "ICE": 7601,
      "Jes": 7602,
      "Jump": 7603,
      "James": 7604,
      "Just": 7605,
      "KE": 7606,
      "Ka": 7607,
      "King": 7608,
      "Kle": 7609,
      "Kar": 7610,
      "Kit": 7611,
      "Kill": 7612,
      "Keep": 7613,
      "Lu": 7614,
      "Las": 7615,
      "Lab": 7616,
      "Live": 7617,
      "Law": 7618,
      "My": 7619,
      "Mor": 7620,
      "Mic": 7621,
      "May": 7622,
      "Mike": 7623,
      "MMA": 7624,
      "Nan": 7625,
      "Nor": 7626,
      "Nes": 7627,
      "Near": 7628,
      "Nur": 7629,
      "Navy": 7630,
      "OR": 7631,
      "OU": 7632,
      "Oh": 7633,
      "Op": 7634,
      "Ox": 7635,
      "Ore": 7636,
      "Ohio": 7637,
      "OME": 7638,
      "Pa": 7639,
      "Pu": 7640,
      "Pen": 7641,
      "Pet": 7642,
      "Pass": 7643,
      "Pab": 7644,
      "Power": 7645,
      "Prin": 7646,
      "Pain": 7647,
      "Poke": 7648,
      "Prof": 7649,
      "RV": 7650,
      "Rep": 7651,
      "Rican": 7652,
      "Rail": 7653,
      "Rider": 7654,
      "Ser": 7655,
      "Sou": 7656,
      "Sand": 7657,
      "Sal": 7658,
      "Ses": 7659,
      "Smo": 7660,
      "Stop": 7661,
      "Sveral": 7662,
      "Scu": 7663,
      "Shor": 7664,
      "Sled": 7665,
      "Sty": 7666,
      "Sum": 7667,
      "Scoo": 7668,
      "Story": 7669,
      "Space": 7670,
      "SCU": 7671,
      "Ta": 7672,
      "Tan": 7673,
      "Tar": 7674,
      "Twi": 7675,
      "Tor": 7676,
      "Top": 7677,
      "Tall": 7678,
      "Tho": 7679,
      "Tri": 7680,
      "Tree": 7681,
      "Teach": 7682,
      "Tank": 7683,
      "Ur": 7684,
      "UFC": 7685,
      "VW": 7686,
      "Vir": 7687,
      "Vic": 7688,
      "Very": 7689,
      "Viet": 7690,
      "Veteran": 7691,
      "Won": 7692,
      "Watch": 7693,
      "Wood": 7694,
      "Water": 7695,
      "Walk": 7696,
      "Waters": 7697,
      "XX": 7698,
      "Yan": 7699,
      "Year": 7700,
      "YMC": 7701,
      "Zun": 7702,
      "ace": 7703,
      "afr": 7704,
      "asts": 7705,
      "aired": 7706,
      "awaiting": 7707,
      "awing": 7708,
      "ably": 7709,
      "awk": 7710,
      "aoke": 7711,
      "bone": 7712,
      "bree": 7713,
      "bits": 7714,
      "bowing": 7715,
      "bors": 7716,
      "binder": 7717,
      "bonding": 7718,
      "cis": 7719,
      "cad": 7720,
      "cass": 7721,
      "cture": 7722,
      "chim": 7723,
      "cent": 7724,
      "curing": 7725,
      "cramp": 7726,
      "ccess": 7727,
      "could": 7728,
      "dj": 7729,
      "dou": 7730,
      "dir": 7731,
      "doo": 7732,
      "dic": 7733,
      "dumb": 7734,
      "dapp": 7735,
      "drais": 7736,
      "dachshun": 7737,
      "eer": 7738,
      "ever": 7739,
      "ecle": 7740,
      "eleg": 7741,
      "egre": 7742,
      "fid": 7743,
      "fare": 7744,
      "fear": 7745,
      "fles": 7746,
      "fres": 7747,
      "fishermen": 7748,
      "gir": 7749,
      "glit": 7750,
      "gway": 7751,
      "gles": 7752,
      "gling": 7753,
      "gons": 7754,
      "gates": 7755,
      "glow": 7756,
      "hs": 7757,
      "hack": 7758,
      "hoping": 7759,
      "ith": 7760,
      "iard": 7761,
      "iled": 7762,
      "ivi": 7763,
      "iments": 7764,
      "ights": 7765,
      "iker": 7766,
      "ique": 7767,
      "jou": 7768,
      "jac": 7769,
      "japan": 7770,
      "janitor": 7771,
      "kabo": 7772,
      "kill": 7773,
      "knot": 7774,
      "lp": 7775,
      "lons": 7776,
      "ltry": 7777,
      "later": 7778,
      "lics": 7779,
      "london": 7780,
      "mal": 7781,
      "mong": 7782,
      "mold": 7783,
      "mover": 7784,
      "mine": 7785,
      "mits": 7786,
      "mort": 7787,
      "mood": 7788,
      "mined": 7789,
      "mmers": 7790,
      "ng": 7791,
      "nan": 7792,
      "noun": 7793,
      "nical": 7794,
      "nches": 7795,
      "names": 7796,
      "norm": 7797,
      "obl": 7798,
      "ored": 7799,
      "ota": 7800,
      "oles": 7801,
      "oms": 7802,
      "oak": 7803,
      "ograp": 7804,
      "osed": 7805,
      "oars": 7806,
      "oxy": 7807,
      "oopy": 7808,
      "pf": 7809,
      "pid": 7810,
      "pun": 7811,
      "pard": 7812,
      "pout": 7813,
      "ply": 7814,
      "piling": 7815,
      "penter": 7816,
      "quit": 7817,
      "rl": 7818,
      "rat": 7819,
      "rup": 7820,
      "rying": 7821,
      "rine": 7822,
      "rates": 7823,
      "rors": 7824,
      "rising": 7825,
      "rics": 7826,
      "san": 7827,
      "sou": 7828,
      "sac": 7829,
      "sous": 7830,
      "smel": 7831,
      "sends": 7832,
      "sending": 7833,
      "slips": 7834,
      "slim": 7835,
      "source": 7836,
      "tis": 7837,
      "tren": 7838,
      "tter": 7839,
      "troll": 7840,
      "tons": 7841,
      "treads": 7842,
      "tears": 7843,
      "tilts": 7844,
      "twin": 7845,
      "tilla": 7846,
      "tilted": 7847,
      "ux": 7848,
      "uth": 7849,
      "uting": 7850,
      "ugh": 7851,
      "ush": 7852,
      "uve": 7853,
      "uding": 7854,
      "uggling": 7855,
      "vre": 7856,
      "vul": 7857,
      "vate": 7858,
      "vise": 7859,
      "voc": 7860,
      "vase": 7861,
      "wre": 7862,
      "weld": 7863,
      "wha": 7864,
      "wits": 7865,
      "wise": 7866,
      "wrists": 7867,
      "wrench": 7868,
      "wants": 7869,
      "welder": 7870,
      "would": 7871,
      "wounds": 7872,
      "xican": 7873,
      "yl": 7874,
      "yan": 7875,
      "ythe": 7876,
      "yor": 7877,
      "zag": 7878,
      "zels": 7879,
      "zig": 7880,
      "infield": 7881,
      "intr": 7882,
      "intri": 7883,
      "inno": 7884,
      "inless": 7885,
      "inary": 7886,
      "inches": 7887,
      "incen": 7888,
      "incred": 7889,
      "informally": 7890,
      "anor": 7891,
      "anian": 7892,
      "anxiously": 7893,
      "ancis": 7894,
      "announ": 7895,
      "thro": 7896,
      "thong": 7897,
      "thouse": 7898,
      "reas": 7899,
      "rene": 7900,
      "rema": 7901,
      "resc": 7902,
      "reci": 7903,
      "refri": 7904,
      "referen": 7905,
      "repor": 7906,
      "regard": 7907,
      "reaction": 7908,
      "reacting": 7909,
      "remember": 7910,
      "resem": 7911,
      "recycling": 7912,
      "repelling": 7913,
      "ongh": 7914,
      "onry": 7915,
      "oncoming": 7916,
      "lev": 7917,
      "lego": 7918,
      "letting": 7919,
      "lechase": 7920,
      "lease": 7921,
      "aran": 7922,
      "aring": 7923,
      "arly": 7924,
      "armo": 7925,
      "array": 7926,
      "archaeo": 7927,
      "hid": 7928,
      "hier": 7929,
      "hist": 7930,
      "hide": 7931,
      "hides": 7932,
      "higan": 7933,
      "hitching": 7934,
      "mane": 7935,
      "manu": 7936,
      "manner": 7937,
      "manage": 7938,
      "manip": 7939,
      "manure": 7940,
      "then": 7941,
      "theast": 7942,
      "oupe": 7943,
      "ands": 7944,
      "atm": 7945,
      "att": 7946,
      "atv": 7947,
      "atyl": 7948,
      "stout": 7949,
      "stap": 7950,
      "strung": 7951,
      "wok": 7952,
      "alo": 7953,
      "alof": 7954,
      "albu": 7955,
      "alter": 7956,
      "alled": 7957,
      "alie": 7958,
      "alpine": 7959,
      "always": 7960,
      "alom": 7961,
      "aloud": 7962,
      "iser": 7963,
      "isle": 7964,
      "lack": 7965,
      "lace": 7966,
      "labr": 7967,
      "laven": 7968,
      "lava": 7969,
      "eners": 7970,
      "envel": 7971,
      "entry": 7972,
      "ential": 7973,
      "ensem": 7974,
      "ensure": 7975,
      "itti": 7976,
      "itate": 7977,
      "itage": 7978,
      "itude": 7979,
      "wielding": 7980,
      "owl": 7981,
      "ckle": 7982,
      "cken": 7983,
      "ckles": 7984,
      "toes": 7985,
      "toting": 7986,
      "toll": 7987,
      "toil": 7988,
      "orted": 7989,
      "ordin": 7990,
      "orig": 7991,
      "irrel": 7992,
      "irons": 7993,
      "irrit": 7994,
      "espress": 7995,
      "etti": 7996,
      "chor": 7997,
      "chun": 7998,
      "chard": 7999,
      "changing": 8000,
      "idle": 8001,
      "idoo": 8002,
      "bored": 8003,
      "bomb": 8004,
      "bodies": 8005,
      "edle": 8006,
      "grin": 8007,
      "grate": 8008,
      "gration": 8009,
      "grinning": 8010,
      "grilled": 8011,
      "growling": 8012,
      "asy": 8013,
      "aside": 8014,
      "assign": 8015,
      "asians": 8016,
      "ooth": 8017,
      "oody": 8018,
      "oodle": 8019,
      "plaster": 8020,
      "placard": 8021,
      "plaque": 8022,
      "placid": 8023,
      "teas": 8024,
      "tell": 8025,
      "tests": 8026,
      "teeter": 8027,
      "ict": 8028,
      "icing": 8029,
      "ices": 8030,
      "iced": 8031,
      "icic": 8032,
      "icul": 8033,
      "icate": 8034,
      "mental": 8035,
      "dos": 8036,
      "pean": 8037,
      "peas": 8038,
      "pered": 8039,
      "peep": 8040,
      "pect": 8041,
      "pebbles": 8042,
      "pecta": 8043,
      "ros": 8044,
      "roy": 8045,
      "role": 8046,
      "hog": 8047,
      "host": 8048,
      "hoes": 8049,
      "holl": 8050,
      "homes": 8051,
      "hokey": 8052,
      "hoist": 8053,
      "hovering": 8054,
      "heel": 8055,
      "height": 8056,
      "unt": 8057,
      "unke": 8058,
      "unny": 8059,
      "unders": 8060,
      "unwraps": 8061,
      "unfriendly": 8062,
      "tingent": 8063,
      "tinguish": 8064,
      "shish": 8065,
      "shield": 8066,
      "shift": 8067,
      "ssing": 8068,
      "blues": 8069,
      "bloody": 8070,
      "sites": 8071,
      "ada": 8072,
      "ading": 8073,
      "addle": 8074,
      "adds": 8075,
      "adjac": 8076,
      "adoodle": 8077,
      "llution": 8078,
      "owned": 8079,
      "rather": 8080,
      "racks": 8081,
      "raging": 8082,
      "ghthouse": 8083,
      "ghetti": 8084,
      "meats": 8085,
      "mexican": 8086,
      "bemu": 8087,
      "beau": 8088,
      "become": 8089,
      "beaker": 8090,
      "celer": 8091,
      "blasts": 8092,
      "blading": 8093,
      "rior": 8094,
      "rible": 8095,
      "ribs": 8096,
      "riously": 8097,
      "rifles": 8098,
      "blackboard": 8099,
      "cob": 8100,
      "cola": 8101,
      "coke": 8102,
      "coworker": 8103,
      "watered": 8104,
      "mph": 8105,
      "mpt": 8106,
      "mper": 8107,
      "mply": 8108,
      "mples": 8109,
      "mphon": 8110,
      "mpoms": 8111,
      "oneer": 8112,
      "shouts": 8113,
      "shab": 8114,
      "shments": 8115,
      "shined": 8116,
      "shrubb": 8117,
      "shut": 8118,
      "shrine": 8119,
      "tact": 8120,
      "taped": 8121,
      "taping": 8122,
      "tailed": 8123,
      "urn": 8124,
      "ury": 8125,
      "urous": 8126,
      "urry": 8127,
      "vern": 8128,
      "seal": 8129,
      "sequ": 8130,
      "selec": 8131,
      "semin": 8132,
      "sews": 8133,
      "securing": 8134,
      "serene": 8135,
      "veyor": 8136,
      "balling": 8137,
      "lia": 8138,
      "lians": 8139,
      "likes": 8140,
      "lizing": 8141,
      "lifier": 8142,
      "lighthouse": 8143,
      "soak": 8144,
      "soaking": 8145,
      "sodas": 8146,
      "frond": 8147,
      "frant": 8148,
      "bug": 8149,
      "bust": 8150,
      "buck": 8151,
      "busk": 8152,
      "bular": 8153,
      "buys": 8154,
      "bucked": 8155,
      "bulent": 8156,
      "loves": 8157,
      "loses": 8158,
      "logi": 8159,
      "lovers": 8160,
      "locking": 8161,
      "loved": 8162,
      "lodge": 8163,
      "downing": 8164,
      "downward": 8165,
      "downwards": 8166,
      "outboard": 8167,
      "necks": 8168,
      "amond": 8169,
      "amber": 8170,
      "ambulance": 8171,
      "amaran": 8172,
      "heron": 8173,
      "herbs": 8174,
      "hernal": 8175,
      "heritage": 8176,
      "ils": 8177,
      "ays": 8178,
      "tim": 8179,
      "tian": 8180,
      "tives": 8181,
      "times": 8182,
      "timore": 8183,
      "tipping": 8184,
      "tilizing": 8185,
      "smear": 8186,
      "smart": 8187,
      "upraised": 8188,
      "upturned": 8189,
      "bring": 8190,
      "brand": 8191,
      "brook": 8192,
      "aphernal": 8193,
      "Their": 8194,
      "kelp": 8195,
      "carol": 8196,
      "carav": 8197,
      "carpenter": 8198,
      "maje": 8199,
      "maker": 8200,
      "maids": 8201,
      "mably": 8202,
      "mauve": 8203,
      "pomer": 8204,
      "pollution": 8205,
      "pompoms": 8206,
      "watery": 8207,
      "juggle": 8208,
      "filed": 8209,
      "sideline": 8210,
      "worn": 8211,
      "worried": 8212,
      "parrot": 8213,
      "paraphernal": 8214,
      "somebody": 8215,
      "backing": 8216,
      "backed": 8217,
      "backflip": 8218,
      "reenact": 8219,
      "hatchet": 8220,
      "rust": 8221,
      "rugged": 8222,
      "rusted": 8223,
      "ska": 8224,
      "skit": 8225,
      "greens": 8226,
      "greenhouse": 8227,
      "inding": 8228,
      "indeer": 8229,
      "bians": 8230,
      "bibs": 8231,
      "bistro": 8232,
      "rent": 8233,
      "renov": 8234,
      "former": 8235,
      "Thai": 8236,
      "Thurs": 8237,
      "sill": 8238,
      "size": 8239,
      "sibling": 8240,
      "sisters": 8241,
      "simple": 8242,
      "simply": 8243,
      "ridge": 8244,
      "blem": 8245,
      "ello": 8246,
      "eller": 8247,
      "cled": 8248,
      "clever": 8249,
      "clenches": 8250,
      "snail": 8251,
      "snoopy": 8252,
      "snuggling": 8253,
      "feels": 8254,
      "paired": 8255,
      "pamph": 8256,
      "throughout": 8257,
      "cris": 8258,
      "crow": 8259,
      "crank": 8260,
      "assorted": 8261,
      "bale": 8262,
      "baking": 8263,
      "bake": 8264,
      "bales": 8265,
      "baker": 8266,
      "baza": 8267,
      "snowsuits": 8268,
      "snowmobile": 8269,
      "snowstorm": 8270,
      "snowmob": 8271,
      "snowdrift": 8272,
      "dip": 8273,
      "dist": 8274,
      "diaper": 8275,
      "diffic": 8276,
      "distr": 8277,
      "distra": 8278,
      "diplo": 8279,
      "divid": 8280,
      "diamond": 8281,
      "brownish": 8282,
      "overcast": 8283,
      "tuce": 8284,
      "tugs": 8285,
      "tucked": 8286,
      "ulk": 8287,
      "ulic": 8288,
      "frolic": 8289,
      "frothy": 8290,
      "frolics": 8291,
      "terror": 8292,
      "conf": 8293,
      "conce": 8294,
      "condi": 8295,
      "contor": 8296,
      "conif": 8297,
      "concession": 8298,
      "contingent": 8299,
      "conveyor": 8300,
      "handhold": 8301,
      "handled": 8302,
      "handler": 8303,
      "handbags": 8304,
      "handgun": 8305,
      "handshake": 8306,
      "handicapped": 8307,
      "acy": 8308,
      "acas": 8309,
      "active": 8310,
      "builder": 8311,
      "tractive": 8312,
      "traverse": 8313,
      "inky": 8314,
      "ourful": 8315,
      "mode": 8316,
      "nears": 8317,
      "jackhammers": 8318,
      "glassy": 8319,
      "wavy": 8320,
      "waffle": 8321,
      "wagons": 8322,
      "pud": 8323,
      "puff": 8324,
      "scan": 8325,
      "scoring": 8326,
      "scrubbing": 8327,
      "scythe": 8328,
      "Pee": 8329,
      "angels": 8330,
      "pired": 8331,
      "pigs": 8332,
      "pipers": 8333,
      "hamper": 8334,
      "based": 8335,
      "offer": 8336,
      "swung": 8337,
      "swallowing": 8338,
      "swaddle": 8339,
      "clicking": 8340,
      "clips": 8341,
      "stake": 8342,
      "stainless": 8343,
      "true": 8344,
      "trade": 8345,
      "certific": 8346,
      "perfu": 8347,
      "peruses": 8348,
      "percuss": 8349,
      "period": 8350,
      "sidewalks": 8351,
      "topping": 8352,
      "worked": 8353,
      "workmen": 8354,
      "clog": 8355,
      "closing": 8356,
      "header": 8357,
      "headlight": 8358,
      "headdresses": 8359,
      "headfirst": 8360,
      "ores": 8361,
      "ineken": 8362,
      "hairy": 8363,
      "hairdo": 8364,
      "hairdresser": 8365,
      "sung": 8366,
      "sunflower": 8367,
      "sunbathe": 8368,
      "strums": 8369,
      "struggle": 8370,
      "spare": 8371,
      "spout": 8372,
      "spinner": 8373,
      "spattered": 8374,
      "doorstep": 8375,
      "guage": 8376,
      "gulls": 8377,
      "guides": 8378,
      "guiding": 8379,
      "camo": 8380,
      "onders": 8381,
      "faith": 8382,
      "faux": 8383,
      "defl": 8384,
      "delight": 8385,
      "mariac": 8386,
      "maracas": 8387,
      "rocker": 8388,
      "rocket": 8389,
      "flinging": 8390,
      "mugs": 8391,
      "surpr": 8392,
      "vessel": 8393,
      "ropri": 8394,
      "thatched": 8395,
      "ctural": 8396,
      "pedals": 8397,
      "helper": 8398,
      "tortilla": 8399,
      "eliner": 8400,
      "icking": 8401,
      "pane": 8402,
      "pancakes": 8403,
      "calen": 8404,
      "caged": 8405,
      "cavern": 8406,
      "stum": 8407,
      "stumbling": 8408,
      "busking": 8409,
      "busily": 8410,
      "cucu": 8411,
      "ggressive": 8412,
      "graying": 8413,
      "eyed": 8414,
      "eyeliner": 8415,
      "joking": 8416,
      "jostle": 8417,
      "joggers": 8418,
      "strips": 8419,
      "stricken": 8420,
      "compart": 8421,
      "completes": 8422,
      "prene": 8423,
      "previ": 8424,
      "preschool": 8425,
      "prepping": 8426,
      "pretend": 8427,
      "ques": 8428,
      "quart": 8429,
      "quilted": 8430,
      "cheered": 8431,
      "chemi": 8432,
      "chemical": 8433,
      "olis": 8434,
      "saving": 8435,
      "samples": 8436,
      "Segway": 8437,
      "climbed": 8438,
      "collea": 8439,
      "collap": 8440,
      "colourful": 8441,
      "enty": 8442,
      "boaters": 8443,
      "mingle": 8444,
      "mingling": 8445,
      "plow": 8446,
      "setup": 8447,
      "speckled": 8448,
      "trim": 8449,
      "treeless": 8450,
      "bandage": 8451,
      "lookers": 8452,
      "coated": 8453,
      "shopper": 8454,
      "signif": 8455,
      "procla": 8456,
      "provid": 8457,
      "author": 8458,
      "cork": 8459,
      "corsage": 8460,
      "correct": 8461,
      "barn": 8462,
      "barbed": 8463,
      "exha": 8464,
      "exotic": 8465,
      "explains": 8466,
      "exterior": 8467,
      "expect": 8468,
      "extinguish": 8469,
      "slop": 8470,
      "slung": 8471,
      "slump": 8472,
      "slalom": 8473,
      "vigate": 8474,
      "vilians": 8475,
      "forehand": 8476,
      "forearm": 8477,
      "sicle": 8478,
      "horsemen": 8479,
      "winds": 8480,
      "windsurfer": 8481,
      "sues": 8482,
      "sushi": 8483,
      "sucks": 8484,
      "suspect": 8485,
      "sucker": 8486,
      "success": 8487,
      "nips": 8488,
      "nibbles": 8489,
      "wee": 8490,
      "west": 8491,
      "western": 8492,
      "weights": 8493,
      "weiser": 8494,
      "sweatpants": 8495,
      "creation": 8496,
      "creature": 8497,
      "clone": 8498,
      "dingy": 8499,
      "abs": 8500,
      "ager": 8501,
      "appropri": 8502,
      "hugged": 8503,
      "humor": 8504,
      "humping": 8505,
      "treed": 8506,
      "obs": 8507,
      "obsc": 8508,
      "flap": 8509,
      "flame": 8510,
      "flaps": 8511,
      "windowsill": 8512,
      "furiously": 8513,
      "navigate": 8514,
      "shell": 8515,
      "desig": 8516,
      "drifts": 8517,
      "dribble": 8518,
      "bowled": 8519,
      "bowties": 8520,
      "pastry": 8521,
      "install": 8522,
      "fires": 8523,
      "ouched": 8524,
      "bagpipers": 8525,
      "again": 8526,
      "rounded": 8527,
      "capri": 8528,
      "capture": 8529,
      "capital": 8530,
      "captiv": 8531,
      "packs": 8532,
      "versal": 8533,
      "version": 8534,
      "anger": 8535,
      "angled": 8536,
      "cells": 8537,
      "cellane": 8538,
      "cellular": 8539,
      "instructors": 8540,
      "costumed": 8541,
      "leave": 8542,
      "cartons": 8543,
      "cessing": 8544,
      "restara": 8545,
      "disco": 8546,
      "discovering": 8547,
      "ciate": 8548,
      "cious": 8549,
      "civilians": 8550,
      "passage": 8551,
      "serious": 8552,
      "laught": 8553,
      "paperback": 8554,
      "kickboxer": 8555,
      "immi": 8556,
      "imitation": 8557,
      "artic": 8558,
      "riverbed": 8559,
      "ortant": 8560,
      "turf": 8561,
      "turkeys": 8562,
      "turbulent": 8563,
      "masonry": 8564,
      "graphy": 8565,
      "metalworking": 8566,
      "flier": 8567,
      "count": 8568,
      "messages": 8569,
      "laps": 8570,
      "lapse": 8571,
      "casing": 8572,
      "casion": 8573,
      "cashier": 8574,
      "hardware": 8575,
      "internet": 8576,
      "intertw": 8577,
      "international": 8578,
      "household": 8579,
      "itioning": 8580,
      "subject": 8581,
      "volcano": 8582,
      "volkswagen": 8583,
      "frilly": 8584,
      "classical": 8585,
      "gyro": 8586,
      "focal": 8587,
      "gener": 8588,
      "genous": 8589,
      "illustr": 8590,
      "stoops": 8591,
      "converses": 8592,
      "famous": 8593,
      "dental": 8594,
      "scary": 8595,
      "starfish": 8596,
      "started": 8597,
      "leaped": 8598,
      "graffited": 8599,
      "rapped": 8600,
      "smock": 8601,
      "matador": 8602,
      "officials": 8603,
      "trails": 8604,
      "price": 8605,
      "skyscraper": 8606,
      "cupping": 8607,
      "fours": 8608,
      "batting": 8609,
      "battery": 8610,
      "beds": 8611,
      "garter": 8612,
      "garish": 8613,
      "garments": 8614,
      "Challen": 8615,
      "filmed": 8616,
      "steal": 8617,
      "stead": 8618,
      "steals": 8619,
      "steering": 8620,
      "should": 8621,
      "matches": 8622,
      "matched": 8623,
      "wetland": 8624,
      "clustered": 8625,
      "flipped": 8626,
      "border": 8627,
      "fetches": 8628,
      "sedan": 8629,
      "couches": 8630,
      "stopping": 8631,
      "medal": 8632,
      "medic": 8633,
      "median": 8634,
      "medals": 8635,
      "showers": 8636,
      "showgirl": 8637,
      "showcasing": 8638,
      "squash": 8639,
      "squirts": 8640,
      "squirrel": 8641,
      "homework": 8642,
      "crag": 8643,
      "crack": 8644,
      "crabs": 8645,
      "crayo": 8646,
      "cracked": 8647,
      "crammed": 8648,
      "bottled": 8649,
      "patrolling": 8650,
      "patties": 8651,
      "patriot": 8652,
      "urely": 8653,
      "lowering": 8654,
      "silk": 8655,
      "wrangle": 8656,
      "writer": 8657,
      "empanad": 8658,
      "emptying": 8659,
      "diners": 8660,
      "protectors": 8661,
      "schools": 8662,
      "inspired": 8663,
      "blank": 8664,
      "blankly": 8665,
      "drawer": 8666,
      "drawers": 8667,
      "cliffs": 8668,
      "lettuce": 8669,
      "bares": 8670,
      "wrestles": 8671,
      "cheerful": 8672,
      "breakdances": 8673,
      "mulch": 8674,
      "cutes": 8675,
      "cutouts": 8676,
      "cutter": 8677,
      "offered": 8678,
      "Indians": 8679,
      "hamming": 8680,
      "pork": 8681,
      "varied": 8682,
      "styled": 8683,
      "styling": 8684,
      "stylist": 8685,
      "izes": 8686,
      "mirrors": 8687,
      "washers": 8688,
      "hitter": 8689,
      "visit": 8690,
      "drumming": 8691,
      "drummers": 8692,
      "function": 8693,
      "funky": 8694,
      "fundrais": 8695,
      "fencers": 8696,
      "chael": 8697,
      "collision": 8698,
      "necktie": 8699,
      "sweets": 8700,
      "platter": 8701,
      "surfboarder": 8702,
      "zzled": 8703,
      "silverware": 8704,
      "platforms": 8705,
      "bbon": 8706,
      "screens": 8707,
      "screened": 8708,
      "trading": 8709,
      "aston": 8710,
      "mime": 8711,
      "milling": 8712,
      "misty": 8713,
      "operate": 8714,
      "World": 8715,
      "examined": 8716,
      "burying": 8717,
      "burrit": 8718,
      "chili": 8719,
      "chiev": 8720,
      "chipping": 8721,
      "hoodies": 8722,
      "hooked": 8723,
      "supports": 8724,
      "supported": 8725,
      "lifeguards": 8726,
      "particular": 8727,
      "golfers": 8728,
      "lanta": 8729,
      "language": 8730,
      "leashed": 8731,
      "common": 8732,
      "camps": 8733,
      "campus": 8734,
      "enjoyed": 8735,
      "catamaran": 8736,
      "harnes": 8737,
      "attentive": 8738,
      "attended": 8739,
      "stunning": 8740,
      "custody": 8741,
      "pens": 8742,
      "tackler": 8743,
      "discusses": 8744,
      "loader": 8745,
      "canoeing": 8746,
      "participant": 8747,
      "Domin": 8748,
      "drape": 8749,
      "draulic": 8750,
      "syrup": 8751,
      "symphon": 8752,
      "repairman": 8753,
      "churning": 8754,
      "melon": 8755,
      "melons": 8756,
      "drawings": 8757,
      "Heavy": 8758,
      "Heineken": 8759,
      "miners": 8760,
      "spending": 8761,
      "shoelaces": 8762,
      "finishes": 8763,
      "fanny": 8764,
      "fluid": 8765,
      "flutes": 8766,
      "eyeing": 8767,
      "presented": 8768,
      "teaches": 8769,
      "teachers": 8770,
      "softly": 8771,
      "brothers": 8772,
      "brocco": 8773,
      "karaoke": 8774,
      "stories": 8775,
      "berries": 8776,
      "hurt": 8777,
      "hurry": 8778,
      "streaming": 8779,
      "streamers": 8780,
      "postcards": 8781,
      "circles": 8782,
      "States": 8783,
      "Stones": 8784,
      "Standing": 8785,
      "warrior": 8786,
      "rackets": 8787,
      "contained": 8788,
      "containers": 8789,
      "decked": 8790,
      "freight": 8791,
      "geridoo": 8792,
      "mustang": 8793,
      "paddlers": 8794,
      "Coke": 8795,
      "bunk": 8796,
      "bundles": 8797,
      "tongues": 8798,
      "wineglass": 8799,
      "attaching": 8800,
      "openings": 8801,
      "kayaker": 8802,
      "spotlights": 8803,
      "grain": 8804,
      "grave": 8805,
      "grains": 8806,
      "graze": 8807,
      "Blurry": 8808,
      "approached": 8809,
      "palace": 8810,
      "waterfalls": 8811,
      "putt": 8812,
      "steeplechase": 8813,
      "Maintenance": 8814,
      "donations": 8815,
      "podiums": 8816,
      "Newly": 8817,
      "mounds": 8818,
      "scores": 8819,
      "grinder": 8820,
      "curbside": 8821,
      "amplifier": 8822,
      "braids": 8823,
      "careful": 8824,
      "caressing": 8825,
      "engaging": 8826,
      "embraces": 8827,
      "farming": 8828,
      "wasaki": 8829,
      "recorder": 8830,
      "fixture": 8831,
      "pajama": 8832,
      "bagel": 8833,
      "bandannas": 8834,
      "troop": 8835,
      "trooper": 8836,
      "escalators": 8837,
      "fingernails": 8838,
      "folders": 8839,
      "maple": 8840,
      "mixture": 8841,
      "spoons": 8842,
      "targets": 8843,
      "actions": 8844,
      "transformer": 8845,
      "relaxed": 8846,
      "Attractive": 8847,
      "Atlanta": 8848,
      "occasion": 8849,
      "saluting": 8850,
      "involves": 8851,
      "chopped": 8852,
      "choppy": 8853,
      "coached": 8854,
      "parachutist": 8855,
      "oddly": 8856,
      "Artist": 8857,
      "Crouching": 8858,
      "Chev": 8859,
      "freestyle": 8860,
      "nual": 8861,
      "victim": 8862,
      "shawls": 8863,
      "rollerblader": 8864,
      "halfway": 8865,
      "Joggers": 8866,
      "Los": 8867,
      "Most": 8868,
      "flexing": 8869,
      "flexi": 8870,
      "hydraulic": 8871,
      "pineapple": 8872,
      "pineapples": 8873,
      "routines": 8874,
      "spaghetti": 8875,
      "warmers": 8876,
      "sandwiches": 8877,
      "dumping": 8878,
      "controlled": 8879,
      "reflecting": 8880,
      "reflects": 8881,
      "knitted": 8882,
      "received": 8883,
      "possible": 8884,
      "exercises": 8885,
      "Marx": 8886,
      "Olympians": 8887,
      "igloo": 8888,
      "igator": 8889,
      "neighbors": 8890,
      "Onlookers": 8891,
      "mount": 8892,
      "props": 8893,
      "proper": 8894,
      "propeller": 8895,
      "spiky": 8896,
      "twister": 8897,
      "assists": 8898,
      "assistance": 8899,
      "peek": 8900,
      "cottage": 8901,
      "supervision": 8902,
      "superior": 8903,
      "Firemen": 8904,
      "wildfire": 8905,
      "billiard": 8906,
      "Must": 8907,
      "Muzzled": 8908,
      "aims": 8909,
      "crush": 8910,
      "crushed": 8911,
      "crumbling": 8912,
      "ferns": 8913,
      "gallon": 8914,
      "patchy": 8915,
      "punches": 8916,
      "sparks": 8917,
      "grandparents": 8918,
      "textile": 8919,
      "ethnicities": 8920,
      "comforts": 8921,
      "comforter": 8922,
      "LeBron": 8923,
      "Rocks": 8924,
      "private": 8925,
      "learn": 8926,
      "learns": 8927,
      "plume": 8928,
      "experien": 8929,
      "experiments": 8930,
      "calmly": 8931,
      "2008": 8932,
      "copy": 8933,
      "copies": 8934,
      "jets": 8935,
      "slamming": 8936,
      "motions": 8937,
      "pretzels": 8938,
      "paddled": 8939,
      "Fest": 8940,
      "creepy": 8941,
      "missed": 8942,
      "miscellane": 8943,
      "mischiev": 8944,
      "winks": 8945,
      "technical": 8946,
      "bystander": 8947,
      "auditioning": 8948,
      "Adult": 8949,
      "Walking": 8950,
      "Walkers": 8951,
      "glides": 8952,
      "important": 8953,
      "inclined": 8954,
      "combs": 8955,
      "contested": 8956,
      "contestant": 8957,
      "contestants": 8958,
      "shadowy": 8959,
      "Skater": 8960,
      "fitting": 8961,
      "jagged": 8962,
      "rinsing": 8963,
      "reclining": 8964,
      "orah": 8965,
      "mainly": 8966,
      "acrobatics": 8967,
      "defending": 8968,
      "martini": 8969,
      "briefcases": 8970,
      "scaffolds": 8971,
      "Johns": 8972,
      "Camel": 8973,
      "Enrolling": 8974,
      "Wee": 8975,
      "Western": 8976,
      "murals": 8977,
      "risk": 8978,
      "ankle": 8979,
      "remode": 8980,
      "blinds": 8981,
      "separated": 8982,
      "separates": 8983,
      "sections": 8984,
      "soapy": 8985,
      "judge": 8986,
      "accompaniment": 8987,
      "wakeboards": 8988,
      "wakeboarding": 8989,
      "bicycler": 8990,
      "sliced": 8991,
      "treatment": 8992,
      "evenly": 8993,
      "reflections": 8994,
      "000": 8995,
      "culture": 8996,
      "cultural": 8997,
      "culinary": 8998,
      "vault": 8999,
      "hipsters": 9000,
      "grasps": 9001,
      "coastline": 9002,
      "buffalo": 9003,
      "locker": 9004,
      "lockers": 9005,
      "delivering": 9006,
      "sauce": 9007,
      "saucer": 9008,
      "sausage": 9009,
      "specialized": 9010,
      "projection": 9011,
      "humans": 9012,
      "interviews": 9013,
      "candlelight": 9014,
      "harvested": 9015,
      "retrieve": 9016,
      "Skiiers": 9017,
      "everyone": 9018,
      "release": 9019,
      "chinatown": 9020,
      "ongolian": 9021,
      "concentrating": 9022,
      "scrabble": 9023,
      "scramble": 9024,
      "scientific": 9025,
      "guidebook": 9026,
      "quietly": 9027,
      "illuminating": 9028,
      "assisted": 9029,
      "bulldog": 9030,
      "Jackson": 9031,
      "Michael": 9032,
      "Notre": 9033,
      "Paris": 9034,
      "Rodgers": 9035,
      "Seated": 9036,
      "Tea": 9037,
      "boutique": 9038,
      "chisel": 9039,
      "chisels": 9040,
      "eagle": 9041,
      "elaborately": 9042,
      "hunter": 9043,
      "hundreds": 9044,
      "powdered": 9045,
      "skew": 9046,
      "wondering": 9047,
      "yells": 9048,
      "innertube": 9049,
      "thousands": 9050,
      "registered": 9051,
      "historical": 9052,
      "ascends": 9053,
      "secures": 9054,
      "skulls": 9055,
      "splits": 9056,
      "sleepy": 9057,
      "flashy": 9058,
      "bridesmaid": 9059,
      "congregation": 9060,
      "Arab": 9061,
      "Carol": 9062,
      "Foods": 9063,
      "Human": 9064,
      "Orioles": 9065,
      "Vehicle": 9066,
      "Viol": 9067,
      "citizen": 9068,
      "masses": 9069,
      "massage": 9070,
      "slipper": 9071,
      "twins": 9072,
      "twenty": 9073,
      "altitude": 9074,
      "shacking": 9075,
      "snorkeling": 9076,
      "terminals": 9077,
      "consults": 9078,
      "consulting": 9079,
      "scrapping": 9080,
      "spirit": 9081,
      "marshal": 9082,
      "competitively": 9083,
      "mattresses": 9084,
      "Rollerblader": 9085,
      "releasing": 9086,
      "releases": 9087,
      "kimono": 9088,
      "Eleven": 9089,
      "Great": 9090,
      "Spring": 9091,
      "Spider": 9092,
      "Spiderman": 9093,
      "Swimmer": 9094,
      "Swimmers": 9095,
      "Sunglasses": 9096,
      "Sunday": 9097,
      "Soldier": 9098,
      "Volley": 9099,
      "Volkswagen": 9100,
      "erected": 9101,
      "gently": 9102,
      "knock": 9103,
      "linens": 9104,
      "moored": 9105,
      "natives": 9106,
      "nesota": 9107,
      "tinted": 9108,
      "tinsel": 9109,
      "wands": 9110,
      "inflating": 9111,
      "lemonade": 9112,
      "attacking": 9113,
      "attacked": 9114,
      "challenging": 9115,
      "whisking": 9116,
      "grips": 9117,
      "memorabi": 9118,
      "coconut": 9119,
      "frowns": 9120,
      "frowning": 9121,
      "illac": 9122,
      "tipped": 9123,
      "builds": 9124,
      "puzzled": 9125,
      "curiously": 9126,
      "barricade": 9127,
      "submerges": 9128,
      "questions": 9129,
      "Workman": 9130,
      "dragster": 9131,
      "brochures": 9132,
      "occurred": 9133,
      "saddled": 9134,
      "alcoholic": 9135,
      "Athlete": 9136,
      "Bald": 9137,
      "Baltimore": 9138,
      "Cyclone": 9139,
      "Calvin": 9140,
      "Italy": 9141,
      "Minnesota": 9142,
      "Pipe": 9143,
      "Pilot": 9144,
      "Performers": 9145,
      "Patrick": 9146,
      "bonfire": 9147,
      "bonnet": 9148,
      "drunken": 9149,
      "detergent": 9150,
      "determined": 9151,
      "eccentr": 9152,
      "glue": 9153,
      "glowing": 9154,
      "moutain": 9155,
      "poultry": 9156,
      "roots": 9157,
      "slingshot": 9158,
      "wanting": 9159,
      "answer": 9160,
      "pelican": 9161,
      "admire": 9162,
      "sewer": 9163,
      "selections": 9164,
      "limbs": 9165,
      "masterpiece": 9166,
      "Angeles": 9167,
      "peddling": 9168,
      "violet": 9169,
      "violence": 9170,
      "volunteer": 9171,
      "volunteers": 9172,
      "breaststroke": 9173,
      "lettering": 9174,
      "buttons": 9175,
      "penguins": 9176,
      "refreshments": 9177,
      "saxophon": 9178,
      "Commuters": 9179,
      "sparsely": 9180,
      "depicted": 9181,
      "tambourines": 9182,
      "Gardens": 9183,
      "Harlem": 9184,
      "Kayaker": 9185,
      "Louvre": 9186,
      "Mrs": 9187,
      "Needle": 9188,
      "Outdoors": 9189,
      "Popsicle": 9190,
      "Ribbon": 9191,
      "Scouts": 9192,
      "Sidewalk": 9193,
      "Time": 9194,
      "Terrier": 9195,
      "Waiting": 9196,
      "average": 9197,
      "daring": 9198,
      "glancing": 9199,
      "glances": 9200,
      "hedges": 9201,
      "latin": 9202,
      "loudspeaker": 9203,
      "mowed": 9204,
      "ninja": 9205,
      "pouncing": 9206,
      "pounces": 9207,
      "zooms": 9208,
      "thorugh": 9209,
      "hitchhiking": 9210,
      "chores": 9211,
      "choreograp": 9212,
      "blooming": 9213,
      "shuffles": 9214,
      "locomotive": 9215,
      "locomotives": 9216,
      "magician": 9217,
      "sketch": 9218,
      "indigenous": 9219,
      "diagram": 9220,
      "consoles": 9221,
      "travelling": 9222,
      "scrimmage": 9223,
      "clipboard": 9224,
      "deciding": 9225,
      "decides": 9226,
      "salesman": 9227,
      "specific": 9228,
      "residence": 9229,
      "residential": 9230,
      "circuits": 9231,
      "Motorcyclist": 9232,
      "Motorcycle": 9233,
      "maintained": 9234,
      "Engine": 9235,
      "Lifeguards": 9236,
      "Russian": 9237,
      "adolescent": 9238,
      "respectively": 9239,
      "architecture": 9240,
      "architectural": 9241,
      "Airways": 9242,
      "Baller": 9243,
      "Business": 9244,
      "CKS": 9245,
      "Circus": 9246,
      "Cooks": 9247,
      "Capris": 9248,
      "Castro": 9249,
      "Farmer": 9250,
      "Flag": 9251,
      "From": 9252,
      "Factory": 9253,
      "Forever": 9254,
      "Horses": 9255,
      "Isra": 9256,
      "Medical": 9257,
      "Racing": 9258,
      "SWAT": 9259,
      "Samsung": 9260,
      "United": 9261,
      "aviator": 9262,
      "dalmat": 9263,
      "didgeridoo": 9264,
      "dueling": 9265,
      "european": 9266,
      "falcon": 9267,
      "gambling": 9268,
      "olympics": 9269,
      "pearls": 9270,
      "swoops": 9271,
      "smelling": 9272,
[...]
