{
  "version": "1.0",
  "truncation": null,
  "padding": null,
  "added_tokens": [
    {
      "id": 0,
      "content": "[UNK]",
      "single_word": false,
      "lstrip": false,
      "rstrip": false,
      "normalized": false,
      "special": true
    },
    {
      "id": 1,
      "content": "[PAD]",
      "single_word": false,
      "lstrip": false,
      "rstrip": false,
      "normalized": false,
      "special": true
    },
    {
      "id": 2,
      "content": "[SOS]",
      "single_word": false,
      "lstrip": false,
      "rstrip": false,
      "normalized": false,
      "special": true
    },
    {
      "id": 3,
      "content": "[EOS]",
      "single_word": false,
      "lstrip": false,
      "rstrip": false,
      "normalized": false,
      "special": true
    }
  ],
  "normalizer": null,
  "pre_tokenizer": {
    "type": "Whitespace"
  },
  "post_processor": null,
  "decoder": null,
  "model": {
    "type": "BPE",
    "dropout": null,
    "unk_token": "[UNK]",
    "continuing_subword_prefix": null,
    "end_of_word_suffix": null,
    "fuse_unk": false,
    "byte_fallback": false,
    "ignore_merges": false,
    "vocab": {
      "[UNK]": 0,
      "[PAD]": 1,
      "[SOS]": 2,
      "[EOS]": 3,
      "!": 4,
      "\"": 5,
      "#": 6,
      "%": 7,
      "&": 8,
      "'": 9,
      "(": 10,
      ")": 11,
      ",": 12,
      "-": 13,
      ".": 14,
      "/": 15,
      "0": 16,
      "1": 17,
      "2": 18,
      "3": 19,
      "4": 20,
      "5": 21,
      "6": 22,
      "7": 23,
      "8": 24,
      "9": 25,
      ":": 26,
      ";": 27,
      "?": 28,
      "@": 29,
      "A": 30,
      "B": 31,
      "C": 32,
      "D": 33,
      "E": 34,
      "F": 35,
      "G": 36,
      "H": 37,
      "I": 38,
      "J": 39,
      "K": 40,
      "L": 41,
      "M": 42,
      "N": 43,
      "O": 44,
      "P": 45,
      "Q": 46,
      "R": 47,
      "S": 48,
      "T": 49,
      "U": 50,
      "V": 51,
      "W": 52,
      "X": 53,
      "Y": 54,
      "Z": 55,
      "_": 56,
      "a": 57,
      "b": 58,
      "c": 59,
      "d": 60,
      "e": 61,
      "f": 62,
      "g": 63,
      "h": 64,
      "i": 65,
      "j": 66,
      "k": 67,
      "l": 68,
      "m": 69,
      "n": 70,
      "o": 71,
      "p": 72,
      "q": 73,
      "r": 74,
      "s": 75,
      "t": 76,
      "u": 77,
      "v": 78,
      "w": 79,
      "x": 80,
      "y": 81,
      "z": 82,
      "Ä": 83,
      "Ö": 84,
      "Ü": 85,
      "ß": 86,
      "à": 87,
      "ä": 88,
      "è": 89,
      "é": 90,
      "ñ": 91,
      "ö": 92,
      "ü": 93,
      "–": 94,
      "‘": 95,
      "’": 96,
      "“": 97,
      "”": 98,
      "„": 99,
      "in": 100,
      "en": 101,
      "er": 102,
      "ein": 103,
      "ch": 104,
      "au": 105,
      "an": 106,
      "eine": 107,
      "un": 108,
      "Ein": 109,
      "ei": 110,
      "einem": 111,
      "it": 112,
      "el": 113,
      "und": 114,
      "sch": 115,
      "st": 116,
      "auf": 117,
      "ge": 118,
      "mit": 119,
      "ar": 120,
      "der": 121,
      "ann": 122,
      "ie": 123,
      "Mann": 124,
      "einer": 125,
      "on": 126,
      "rau": 127,
      "hr": 128,
      "de": 129,
      "wei": 130,
      "Eine": 131,
      "ter": 132,
      "ten": 133,
      "as": 134,
      "or": 135,
      "al": 136,
      "te": 137,
      "Frau": 138,
      "ck": 139,
      "tr": 140,
      "sp": 141,
      "gen": 142,
      "ich": 143,
      "einen": 144,
      "eh": 145,
      "ro": 146,
      "iel": 147,
      "im": 148,
      "Mä": 149,
      "den": 150,
      "kl": 151,
      "die": 152,
      "zu": 153,
      "am": 154,
      "ben": 155,
      "em": 156,
      "gt": 157,
      "Sch": 158,
      "bei": 159,
      "Zwei": 160,
      "chen": 161,
      "ber": 162,
      "and": 163,
      "bl": 164,
      "spiel": 165,
      "itz": 166,
      "steh": 167,
      "ne": 168,
      "rei": 169,
      "be": 170,
      "ung": 171,
      "ers": 172,
      "ach": 173,
      "ier": 174,
      "sitz": 175,
      "vor": 176,
      "sich": 177,
      "all": 178,
      "et": 179,
      "ner": 180,
      "ft": 181,
      "ßen": 182,
      "Str": 183,
      "von": 184,
      "um": 185,
      "nen": 186,
      "at": 187,
      "unge": 188,
      "dem": 189,
      "war": 190,
      "ähr": 191,
      "ur": 192,
      "schen": 193,
      "äl": 194,
      "dchen": 195,
      "Mädchen": 196,
      "ße": 197,
      "pp": 198,
      "il": 199,
      "Hund": 200,
      "Gr": 201,
      "ut": 202,
      "sen": 203,
      "Kin": 204,
      "gr": 205,
      "ol": 206,
      "erson": 207,
      "warz": 208,
      "Person": 209,
      "ad": 210,
      "eu": 211,
      "eines": 212,
      "nner": 213,
      "schwarz": 214,
      "ot": 215,
      "St": 216,
      "Männer": 217,
      "blau": 218,
      "ahr": 219,
      "steht": 220,
      "ir": 221,
      "Stra": 222,
      "ppe": 223,
      "geh": 224,
      "aus": 225,
      "lä": 226,
      "Ge": 227,
      "le": 228,
      "gel": 229,
      "sitzt": 230,
      "ger": 231,
      "ander": 232,
      "über": 233,
      "isch": 234,
      "Junge": 235,
      "ass": 236,
      "men": 237,
      "end": 238,
      "es": 239,
      "Men": 240,
      "uppe": 241,
      "ält": 242,
      "ik": 243,
      "hält": 244,
      "Straße": 245,
      "Sp": 246,
      "än": 247,
      "ährend": 248,
      "spr": 249,
      "während": 250,
      "Menschen": 251,
      "Gruppe": 252,
      "ball": 253,
      "ist": 254,
      "spielt": 255,
      "re": 256,
      "Hem": 257,
      "Kl": 258,
      "ihr": 259,
      "unter": 260,
      "pf": 261,
      "ver": 262,
      "lan": 263,
      "tet": 264,
      "Hemd": 265,
      "ent": 266,
      "cke": 267,
      "Personen": 268,
      "se": 269,
      "schau": 270,
      "acht": 271,
      "inter": 272,
      "das": 273,
      "eid": 274,
      "ür": 275,
      "blauen": 276,
      "uft": 277,
      "asser": 278,
      "aar": 279,
      "eil": 280,
      "weißen": 281,
      "is": 282,
      "stehen": 283,
      "neben": 284,
      "ingt": 285,
      "Wasser": 286,
      "urch": 287,
      "Kinder": 288,
      "he": 289,
      "Frauen": 290,
      "af": 291,
      "durch": 292,
      "gro": 293,
      "roten": 294,
      "sitzen": 295,
      "ell": 296,
      "rad": 297,
      "we": 298,
      "Kind": 299,
      "brau": 300,
      "ho": 301,
      "spielen": 302,
      "geht": 303,
      "grü": 304,
      "Drei": 305,
      "fer": 306,
      "trä": 307,
      "la": 308,
      "arben": 309,
      "us": 310,
      "fähr": 311,
      "fahr": 312,
      "fährt": 313,
      "Hand": 314,
      "bo": 315,
      "Fahr": 316,
      "ab": 317,
      "lie": 318,
      "trägt": 319,
      "iert": 320,
      "äu": 321,
      "weiß": 322,
      "lich": 323,
      "kt": 324,
      "ehr": 325,
      "ren": 326,
      "teil": 327,
      "ick": 328,
      "lang": 329,
      "Leu": 330,
      "ah": 331,
      "elt": 332,
      "Kleid": 333,
      "Bo": 334,
      "Spiel": 335,
      "her": 336,
      "Ober": 337,
      "Ho": 338,
      "macht": 339,
      "kleines": 340,
      "imm": 341,
      "eide": 342,
      "springt": 343,
      "ind": 344,
      "zwei": 345,
      "sie": 346,
      "entlang": 347,
      "schwarzen": 348,
      "Ko": 349,
      "igen": 350,
      "junge": 351,
      "eln": 352,
      "arbei": 353,
      "kleiner": 354,
      "des": 355,
      "agen": 356,
      "os": 357,
      "ungen": 358,
      "gehen": 359,
      "zen": 360,
      "cht": 361,
      "Sh": 362,
      "ange": 363,
      "cken": 364,
      "ehrer": 365,
      "fen": 366,
      "Leute": 367,
      "ige": 368,
      "est": 369,
      "farben": 370,
      "nt": 371,
      "Fel": 372,
      "ler": 373,
      "uß": 374,
      "was": 375,
      "Ar": 376,
      "ischen": 377,
      "hal": 378,
      "kleide": 379,
      "wir": 380,
      "bäu": 381,
      "älter": 382,
      "br": 383,
      "hin": 384,
      "Fahrrad": 385,
      "om": 386,
      "Sk": 387,
      "uh": 388,
      "Oberteil": 389,
      "Br": 390,
      "läch": 391,
      "Fuß": 392,
      "Bl": 393,
      "eit": 394,
      "etwas": 395,
      "Ball": 396,
      "ig": 397,
      "ehrere": 398,
      "seinem": 399,
      "irt": 400,
      "großen": 401,
      "icht": 402,
      "amer": 403,
      "da": 404,
      "acke": 405,
      "fü": 406,
      "grünen": 407,
      "ul": 408,
      "weg": 409,
      "ieren": 410,
      "ille": 411,
      "Gebäu": 412,
      "schaut": 413,
      "ht": 414,
      "grund": 415,
      "gekleide": 416,
      "Hinter": 417,
      "ark": 418,
      "nee": 419,
      "zeu": 420,
      "tel": 421,
      "Frei": 422,
      "vers": 423,
      "bt": 424,
      "Bau": 425,
      "ehen": 426,
      "sam": 427,
      "ort": 428,
      "Luft": 429,
      "ern": 430,
      "boar": 431,
      "ih": 432,
      "läuft": 433,
      "Tr": 434,
      "aufen": 435,
      "Der": 436,
      "Mehrere": 437,
      "ild": 438,
      "Shirt": 439,
      "Strand": 440,
      "hat": 441,
      "ze": 442,
      "Bas": 443,
      "sind": 444,
      "üh": 445,
      "ate": 446,
      "nach": 447,
      "Hintergrund": 448,
      "für": 449,
      "sehen": 450,
      "Jungen": 451,
      "spieler": 452,
      "hinter": 453,
      "Jacke": 454,
      "gest": 455,
      "Kleidung": 456,
      "Freien": 457,
      "Die": 458,
      "ack": 459,
      "ros": 460,
      "anderen": 461,
      "oto": 462,
      "unger": 463,
      "ster": 464,
      "Kopf": 465,
      "gelben": 466,
      "zeug": 467,
      "ör": 468,
      "vorbei": 469,
      "junger": 470,
      "halten": 471,
      "hoch": 472,
      "wer": 473,
      "Tisch": 474,
      "zt": 475,
      "ück": 476,
      "zug": 477,
      "Haar": 478,
      "ag": 479,
      "tem": 480,
      "lat": 481,
      "An": 482,
      "Schnee": 483,
      "Son": 484,
      "len": 485,
      "stei": 486,
      "andere": 487,
      "menge": 488,
      "Nä": 489,
      "orange": 490,
      "ett": 491,
      "Hut": 492,
      "Gebäude": 493,
      "zei": 494,
      "itar": 495,
      "fon": 496,
      "str": 497,
      "ank": 498,
      "Fl": 499,
      "sche": 500,
      "bef": 501,
      "Fußball": 502,
      "schwarzer": 503,
      "Kamer": 504,
      "board": 505,
      "umen": 506,
      "schn": 507,
      "ap": 508,
      "wird": 509,
      "fahrer": 510,
      "Gras": 511,
      "blick": 512,
      "Nähe": 513,
      "Au": 514,
      "ade": 515,
      "ing": 516,
      "iat": 517,
      "iger": 518,
      "beim": 519,
      "wimm": 520,
      "ün": 521,
      "kleine": 522,
      "Hunde": 523,
      "üt": 524,
      "kleinen": 525,
      "Kamera": 526,
      "Gitar": 527,
      "einander": 528,
      "Stad": 529,
      "op": 530,
      "ans": 531,
      "weißer": 532,
      "ff": 533,
      "Menschenmenge": 534,
      "Park": 535,
      "blon": 536,
      "Geh": 537,
      "ahn": 538,
      "uck": 539,
      "art": 540,
      "ische": 541,
      "ock": 542,
      "enn": 543,
      "farbenen": 544,
      "otor": 545,
      "fahren": 546,
      "Boden": 547,
      "ow": 548,
      "etter": 549,
      "amm": 550,
      "Es": 551,
      "Skate": 552,
      "grau": 553,
      "Ber": 554,
      "deck": 555,
      "uch": 556,
      "liegt": 557,
      "det": 558,
      "führ": 559,
      "als": 560,
      "rennt": 561,
      "Feld": 562,
      "ink": 563,
      "ion": 564,
      "schä": 565,
      "Sonnen": 566,
      "Straßen": 567,
      "ihre": 568,
      "sieht": 569,
      "Stadt": 570,
      "ucht": 571,
      "schie": 572,
      "Vier": 573,
      "Foto": 574,
      "zusam": 575,
      "latz": 576,
      "Gitarre": 577,
      "ma": 578,
      "schauen": 579,
      "dern": 580,
      "ob": 581,
      "pos": 582,
      "alt": 583,
      "är": 584,
      "ihren": 585,
      "In": 586,
      "Zu": 587,
      "Aut": 588,
      "dun": 589,
      "kel": 590,
      "herum": 591,
      "zusammen": 592,
      "eans": 593,
      "dr": 594,
      "gl": 595,
      "braunen": 596,
      "steig": 597,
      "Pfer": 598,
      "asiat": 599,
      "tes": 600,
      "große": 601,
      "brauner": 602,
      "Sand": 603,
      "ingen": 604,
      "Büh": 605,
      "Motor": 606,
      "schäft": 607,
      "kleid": 608,
      "Dam": 609,
      "wach": 610,
      "rot": 611,
      "ang": 612,
      "sein": 613,
      "Er": 614,
      "vol": 615,
      "berei": 616,
      "älterer": 617,
      "Jeans": 618,
      "kauf": 619,
      "ert": 620,
      "raußen": 621,
      "sicht": 622,
      "bedeck": 623,
      "elle": 624,
      "Bühne": 625,
      "oh": 626,
      "draußen": 627,
      "befin": 628,
      "ischer": 629,
      "Base": 630,
      "elm": 631,
      "Brille": 632,
      "Gehweg": 633,
      "Skateboard": 634,
      "hell": 635,
      "seine": 636,
      "laufen": 637,
      "Arbei": 638,
      "blickt": 639,
      "kleidung": 640,
      "Te": 641,
      "aby": 642,
      "wachsen": 643,
      "ss": 644,
      "Gel": 645,
      "hinunter": 646,
      "Mik": 647,
      "wie": 648,
      "weiße": 649,
      "achtet": 650,
      "schlä": 651,
      "arbeitet": 652,
      "wagen": 653,
      "dabei": 654,
      "Essen": 655,
      "Baby": 656,
      "for": 657,
      "Re": 658,
      "seinen": 659,
      "olz": 660,
      "Schwimm": 661,
      "tan": 662,
      "tragen": 663,
      "brille": 664,
      "Hän": 665,
      "Ver": 666,
      "bel": 667,
      "angen": 668,
      "gegen": 669,
      "arkt": 670,
      "aft": 671,
      "versucht": 672,
      "Be": 673,
      "haar": 674,
      "kur": 675,
      "lächeln": 676,
      "Paar": 677,
      "Bank": 678,
      "arbeiten": 679,
      "Wand": 680,
      "dar": 681,
      "üst": 682,
      "zeigt": 683,
      "Se": 684,
      "kletter": 685,
      "Auf": 686,
      "Un": 687,
      "reif": 688,
      "Baseball": 689,
      "Holz": 690,
      "per": 691,
      "stü": 692,
      "lag": 693,
      "Baum": 694,
      "utz": 695,
      "Dame": 696,
      "ant": 697,
      "machen": 698,
      "Bür": 699,
      "Rei": 700,
      "betr": 701,
      "gestreif": 702,
      "Me": 703,
      "ll": 704,
      "itt": 705,
      "uss": 706,
      "lichen": 707,
      "lächelt": 708,
      "lo": 709,
      "irm": 710,
      "Mau": 711,
      "orangefarbenen": 712,
      "ket": 713,
      "Bürger": 714,
      "iz": 715,
      "uhl": 716,
      "ke": 717,
      "che": 718,
      "ikot": 719,
      "ihrem": 720,
      "usik": 721,
      "rennen": 722,
      "Mikro": 723,
      "Hü": 724,
      "Wal": 725,
      "hen": 726,
      "geb": 727,
      "ihm": 728,
      "Rad": 729,
      "Schl": 730,
      "Gesicht": 731,
      "of": 732,
      "unst": 733,
      "assen": 734,
      "Bürgersteig": 735,
      "liest": 736,
      "Motorrad": 737,
      "kom": 738,
      "aum": 739,
      "junges": 740,
      "Hose": 741,
      "ältere": 742,
      "rä": 743,
      "antel": 744,
      "spricht": 745,
      "hän": 746,
      "anderer": 747,
      "aff": 748,
      "Trikot": 749,
      "Boot": 750,
      "führt": 751,
      "eg": 752,
      "ikan": 753,
      "unterhalten": 754,
      "Kr": 755,
      "ast": 756,
      "schaft": 757,
      "Pf": 758,
      "zie": 759,
      "braun": 760,
      "efon": 761,
      "platz": 762,
      "afarben": 763,
      "Tenn": 764,
      "ßer": 765,
      "Bild": 766,
      "Fr": 767,
      "drei": 768,
      "zer": 769,
      "ütze": 770,
      "aur": 771,
      "eich": 772,
      "Hosen": 773,
      "ine": 774,
      "weißem": 775,
      "Haaren": 776,
      "Wald": 777,
      "Musik": 778,
      "Sei": 779,
      "qu": 780,
      "rosa": 781,
      "Band": 782,
      "Bahn": 783,
      "schl": 784,
      "Spieler": 785,
      "Auto": 786,
      "mer": 787,
      "viel": 788,
      "schw": 789,
      "Meer": 790,
      "ßt": 791,
      "zum": 792,
      "Pferd": 793,
      "Tennis": 794,
      "Helm": 795,
      "Kunst": 796,
      "amp": 797,
      "grauen": 798,
      "aben": 799,
      "fr": 800,
      "Sonnenbrille": 801,
      "Fo": 802,
      "aurant": 803,
      "Rest": 804,
      "sst": 805,
      "Basket": 806,
      "orts": 807,
      "blauem": 808,
      "gekleidete": 809,
      "seiner": 810,
      "Restaurant": 811,
      "Basketball": 812,
      "Tag": 813,
      "beob": 814,
      "euer": 815,
      "Felsen": 816,
      "Arm": 817,
      "ien": 818,
      "Zuschau": 819,
      "Pul": 820,
      "Ta": 821,
      "wä": 822,
      "Gelän": 823,
      "anz": 824,
      "unten": 825,
      "Spr": 826,
      "form": 827,
      "arbeiter": 828,
      "singt": 829,
      "ät": 830,
      "otball": 831,
      "klettert": 832,
      "Football": 833,
      "gend": 834,
      "grün": 835,
      "ill": 836,
      "ihnen": 837,
      "Erwachsen": 838,
      "dunkel": 839,
      "Mantel": 840,
      "ak": 841,
      "tern": 842,
      "Eis": 843,
      "Fen": 844,
      "uhen": 845,
      "Berg": 846,
      "Mikrofon": 847,
      "anzug": 848,
      "pfen": 849,
      "ug": 850,
      "Shorts": 851,
      "posiert": 852,
      "Pol": 853,
      "uchen": 854,
      "asen": 855,
      "darauf": 856,
      "Feuer": 857,
      "use": 858,
      "öff": 859,
      "Spielzeug": 860,
      "ko": 861,
      "sten": 862,
      "Rol": 863,
      "stell": 864,
      "lover": 865,
      "mt": 866,
      "blauer": 867,
      "wirft": 868,
      "befindet": 869,
      "Bä": 870,
      "Vor": 871,
      "kar": 872,
      "zur": 873,
      "asse": 874,
      "Le": 875,
      "essen": 876,
      "oder": 877,
      "örper": 878,
      "fel": 879,
      "ennen": 880,
      "ins": 881,
      "denen": 882,
      "ppen": 883,
      "gelb": 884,
      "Sport": 885,
      "Fenster": 886,
      "Her": 887,
      "ecke": 888,
      "iet": 889,
      "alter": 890,
      "Blumen": 891,
      "bereitet": 892,
      "Po": 893,
      "bar": 894,
      "oben": 895,
      "inkt": 896,
      "scht": 897,
      "Geschäft": 898,
      "Bade": 899,
      "ken": 900,
      "aun": 901,
      "gem": 902,
      "tre": 903,
      "schwarzem": 904,
      "isst": 905,
      "Schild": 906,
      "gekleideter": 907,
      "versamm": 908,
      "Das": 909,
      "Tre": 910,
      "alten": 911,
      "ckt": 912,
      "springen": 913,
      "Klein": 914,
      "sehr": 915,
      "Regen": 916,
      "eb": 917,
      "ampf": 918,
      "Pullover": 919,
      "Raum": 920,
      "rotem": 921,
      "achten": 922,
      "langen": 923,
      "Weg": 924,
      "hü": 925,
      "cher": 926,
      "roter": 927,
      "net": 928,
      "ahl": 929,
      "Arbeiter": 930,
      "rosafarben": 931,
      "Zeit": 932,
      "schm": 933,
      "stand": 934,
      "ucks": 935,
      "Wie": 936,
      "äm": 937,
      "eren": 938,
      "liche": 939,
      "licher": 940,
      "Anzug": 941,
      "ain": 942,
      "wand": 943,
      "Männern": 944,
      "Wei": 945,
      "leh": 946,
      "zw": 947,
      "unden": 948,
      "schwarze": 949,
      "Kindern": 950,
      "gestreiften": 951,
      "Wiese": 952,
      "Mit": 953,
      "iv": 954,
      "äut": 955,
      "mitten": 956,
      "becken": 957,
      "wartet": 958,
      "telefon": 959,
      "hon": 960,
      "körper": 961,
      "schirm": 962,
      "Kar": 963,
      "La": 964,
      "az": 965,
      "Schutz": 966,
      "werden": 967,
      "haarige": 968,
      "Maul": 969,
      "Met": 970,
      "ünf": 971,
      "Kü": 972,
      "Rucks": 973,
      "gang": 974,
      "posieren": 975,
      "voller": 976,
      "Bluse": 977,
      "Fluss": 978,
      "Buch": 979,
      "Viel": 980,
      "zeit": 981,
      "geben": 982,
      "Stuhl": 983,
      "ckey": 984,
      "As": 985,
      "Sn": 986,
      "West": 987,
      "hn": 988,
      "immer": 989,
      "ges": 990,
      "reitet": 991,
      "änger": 992,
      "kauft": 993,
      "beleb": 994,
      "To": 995,
      "fe": 996,
      "kn": 997,
      "ste": 998,
      "Stein": 999,
      "achts": 1000,
      "Handy": 1001,
      "Oberkörper": 1002,
      "Hügel": 1003,
      "Fünf": 1004,
      "Haus": 1005,
      "bst": 1006,
      "liegen": 1007,
      "dunkl": 1008,
      "zieht": 1009,
      "Metall": 1010,
      "Aus": 1011,
      "Sur": 1012,
      "Um": 1013,
      "je": 1014,
      "ücken": 1015,
      "graf": 1016,
      "ess": 1017,
      "isten": 1018,
      "tanzen": 1019,
      "Viele": 1020,
      "Ka": 1021,
      "Rennen": 1022,
      "ierten": 1023,
      "warten": 1024,
      "euch": 1025,
      "überqu": 1026,
      "fest": 1027,
      "Kleink": 1028,
      "aut": 1029,
      "att": 1030,
      "Kostü": 1031,
      "betrachtet": 1032,
      "gew": 1033,
      "ungs": 1034,
      "Al": 1035,
      "genie": 1036,
      "zwischen": 1037,
      "Bus": 1038,
      "rote": 1039,
      "äufer": 1040,
      "Bauarbeiter": 1041,
      "blonde": 1042,
      "Uni": 1043,
      "asch": 1044,
      "ater": 1045,
      "ift": 1046,
      "kor": 1047,
      "ücke": 1048,
      "ette": 1049,
      "Leuten": 1050,
      "schläft": 1051,
      "Pu": 1052,
      "fl": 1053,
      "utzt": 1054,
      "Stock": 1055,
      "amerikan": 1056,
      "Gl": 1057,
      "Mütze": 1058,
      "Seil": 1059,
      "paar": 1060,
      "Kon": 1061,
      "Pap": 1062,
      "lil": 1063,
      "Schn": 1064,
      "Schul": 1065,
      "olle": 1066,
      "lehnt": 1067,
      "haben": 1068,
      "häut": 1069,
      "Stu": 1070,
      "Snow": 1071,
      "Markt": 1072,
      "ue": 1073,
      "iegel": 1074,
      "ation": 1075,
      "immt": 1076,
      "Händen": 1077,
      "Ro": 1078,
      "schr": 1079,
      "bedeckten": 1080,
      "miteinander": 1081,
      "herunter": 1082,
      "beobachtet": 1083,
      "Kleinkind": 1084,
      "män": 1085,
      "tritt": 1086,
      "Ski": 1087,
      "Bäumen": 1088,
      "Rucksack": 1089,
      "Tur": 1090,
      "di": 1091,
      "stre": 1092,
      "geschäft": 1093,
      "ichtung": 1094,
      "tanzt": 1095,
      "Out": 1096,
      "Renn": 1097,
      "fangen": 1098,
      "hör": 1099,
      "schö": 1100,
      "schnee": 1101,
      "ihrer": 1102,
      "Radfahrer": 1103,
      "Fre": 1104,
      "Zaun": 1105,
      "kü": 1106,
      "son": 1107,
      "Gewä": 1108,
      "bahn": 1109,
      "frei": 1110,
      "mann": 1111,
      "og": 1112,
      "eiten": 1113,
      "stein": 1114,
      "amil": 1115,
      "schiebt": 1116,
      "ohn": 1117,
      "inken": 1118,
      "Zug": 1119,
      "Schwimmbecken": 1120,
      "männ": 1121,
      "Bet": 1122,
      "vom": 1123,
      "stück": 1124,
      "wehr": 1125,
      "befinden": 1126,
      "Poliz": 1127,
      "Famil": 1128,
      "Gegen": 1129,
      "ärt": 1130,
      "Gewäss": 1131,
      "fall": 1132,
      "rich": 1133,
      "Einkauf": 1134,
      "schrei": 1135,
      "orangefarben": 1136,
      "Beton": 1137,
      "Land": 1138,
      "Rücken": 1139,
      "pu": 1140,
      "offen": 1141,
      "Zuschauer": 1142,
      "Küche": 1143,
      "me": 1144,
      "See": 1145,
      "Seite": 1146,
      "feld": 1147,
      "anst": 1148,
      "mitt": 1149,
      "trän": 1150,
      "spaz": 1151,
      "Schlag": 1152,
      "verschie": 1153,
      "läche": 1154,
      "Arbeit": 1155,
      "Fris": 1156,
      "Pro": 1157,
      "Welle": 1158,
      "nimmt": 1159,
      "ub": 1160,
      "ies": 1161,
      "Schau": 1162,
      "umgeben": 1163,
      "gelbe": 1164,
      "afen": 1165,
      "altung": 1166,
      "Instr": 1167,
      "kurzen": 1168,
      "pink": 1169,
      "vier": 1170,
      "auch": 1171,
      "wo": 1172,
      "Graff": 1173,
      "eidet": 1174,
      "boarder": 1175,
      "ampe": 1176,
      "Sprung": 1177,
      "Treppe": 1178,
      "Gem": 1179,
      "aten": 1180,
      "kr": 1181,
      "kon": 1182,
      "innen": 1183,
      "ena": 1184,
      "schwimm": 1185,
      "schuhen": 1186,
      "Schü": 1187,
      "braune": 1188,
      "lachen": 1189,
      "schneidet": 1190,
      "Graffit": 1191,
      "Flag": 1192,
      "Or": 1193,
      "Wer": 1194,
      "fit": 1195,
      "foto": 1196,
      "igt": 1197,
      "kaufen": 1198,
      "käm": 1199,
      "schein": 1200,
      "alte": 1201,
      "sport": 1202,
      "alle": 1203,
      "utter": 1204,
      "verkauft": 1205,
      "Familie": 1206,
      "Bü": 1207,
      "Com": 1208,
      "Wagen": 1209,
      "band": 1210,
      "ser": 1211,
      "Cow": 1212,
      "En": 1213,
      "Tor": 1214,
      "trinkt": 1215,
      "emand": 1216,
      "Geträn": 1217,
      "gerade": 1218,
      "hängt": 1219,
      "versammelt": 1220,
      "rosafarbenen": 1221,
      "Pla": 1222,
      "bunten": 1223,
      "dt": 1224,
      "malt": 1225,
      "Papier": 1226,
      "Mo": 1227,
      "ds": 1228,
      "iol": 1229,
      "par": 1230,
      "Schwarz": 1231,
      "aussehen": 1232,
      "hem": 1233,
      "rut": 1234,
      "öpf": 1235,
      "chs": 1236,
      "ief": 1237,
      "isches": 1238,
      "ellen": 1239,
      "boy": 1240,
      "ihn": 1241,
      "Bik": 1242,
      "zimmer": 1243,
      "einige": 1244,
      "ust": 1245,
      "yp": 1246,
      "üll": 1247,
      "unnen": 1248,
      "arb": 1249,
      "gruppe": 1250,
      "Fels": 1251,
      "telefoniert": 1252,
      "spazieren": 1253,
      "hebt": 1254,
      "asiatische": 1255,
      "belebten": 1256,
      "anstaltung": 1257,
      "Ne": 1258,
      "lt": 1259,
      "itten": 1260,
      "alen": 1261,
      "bee": 1262,
      "großer": 1263,
      "grüne": 1264,
      "Teena": 1265,
      "schlägt": 1266,
      "Roll": 1267,
      "Outfit": 1268,
      "schwimmt": 1269,
      "Compu": 1270,
      "Cowboy": 1271,
      "Teenager": 1272,
      "Ger": 1273,
      "Sa": 1274,
      "fro": 1275,
      "neh": 1276,
      "halb": 1277,
      "Fußballspieler": 1278,
      "ünst": 1279,
      "üstung": 1280,
      "Reihe": 1281,
      "aße": 1282,
      "ügen": 1283,
      "deo": 1284,
      "etz": 1285,
      "immel": 1286,
      "blicken": 1287,
      "Autos": 1288,
      "weißes": 1289,
      "sonn": 1290,
      "Gewässer": 1291,
      "Frisbee": 1292,
      "Gar": 1293,
      "Rock": 1294,
      "Rasen": 1295,
      "fliegt": 1296,
      "kehr": 1297,
      "nä": 1298,
      "pft": 1299,
      "wen": 1300,
      "yball": 1301,
      "mittel": 1302,
      "hohen": 1303,
      "gekleidet": 1304,
      "Kopfbedeck": 1305,
      "kommt": 1306,
      "schneebedeckten": 1307,
      "freiem": 1308,
      "Mutter": 1309,
      "ogen": 1310,
      "einigen": 1311,
      "ikum": 1312,
      "bereiten": 1313,
      "vielen": 1314,
      "Tasche": 1315,
      "grünem": 1316,
      "Bart": 1317,
      "sh": 1318,
      "stelle": 1319,
      "blikum": 1320,
      "lässt": 1321,
      "hinauf": 1322,
      "Brücke": 1323,
      "Gebäudes": 1324,
      "straße": 1325,
      "Team": 1326,
      "Hände": 1327,
      "sonnigen": 1328,
      "Himmel": 1329,
      "Sie": 1330,
      "Typ": 1331,
      "War": 1332,
      "fol": 1333,
      "jacke": 1334,
      "zogen": 1335,
      "atte": 1336,
      "befest": 1337,
      "Geländer": 1338,
      "Publikum": 1339,
      "fotograf": 1340,
      "Ab": 1341,
      "Kampf": 1342,
      "Platz": 1343,
      "Richtung": 1344,
      "Tel": 1345,
      "hil": 1346,
      "markt": 1347,
      "rüstung": 1348,
      "Hemden": 1349,
      "jekt": 1350,
      "Alter": 1351,
      "kämpfen": 1352,
      "ünstler": 1353,
      "Tür": 1354,
      "haus": 1355,
      "inger": 1356,
      "bereit": 1357,
      "eller": 1358,
      "ühlen": 1359,
      "Zeitung": 1360,
      "ee": 1361,
      "gi": 1362,
      "ling": 1363,
      "man": 1364,
      "eiter": 1365,
      "stä": 1366,
      "raut": 1367,
      "zuschauen": 1368,
      "Hoch": 1369,
      "füll": 1370,
      "werk": 1371,
      "Schutzh": 1372,
      "Weste": 1373,
      "dunklen": 1374,
      "Ju": 1375,
      "park": 1376,
      "blaue": 1377,
      "Graffiti": 1378,
      "Bier": 1379,
      "Mar": 1380,
      "Müll": 1381,
      "acken": 1382,
      "stuhl": 1383,
      "Spielplatz": 1384,
      "voll": 1385,
      "Unter": 1386,
      "Kopfbedeckung": 1387,
      "Hals": 1388,
      "na": 1389,
      "nack": 1390,
      "teten": 1391,
      "ummer": 1392,
      "ängt": 1393,
      "igar": 1394,
      "Flug": 1395,
      "Augen": 1396,
      "asiatischer": 1397,
      "Erwachsene": 1398,
      "Computer": 1399,
      "Dr": 1400,
      "So": 1401,
      "Zigar": 1402,
      "asche": 1403,
      "hut": 1404,
      "mel": 1405,
      "aub": 1406,
      "Mannes": 1407,
      "Pool": 1408,
      "mittler": 1409,
      "Kan": 1410,
      "Sol": 1411,
      "kop": 1412,
      "anc": 1413,
      "schüt": 1414,
      "bens": 1415,
      "Schirm": 1416,
      "umar": 1417,
      "ument": 1418,
      "Hof": 1419,
      "blondes": 1420,
      "führen": 1421,
      "haariger": 1422,
      "Winter": 1423,
      "bank": 1424,
      "atue": 1425,
      "verschn": 1426,
      "lagen": 1427,
      "davon": 1428,
      "karierten": 1429,
      "Bar": 1430,
      "Lo": 1431,
      "fläche": 1432,
      "grei": 1433,
      "lin": 1434,
      "leuch": 1435,
      "mehrere": 1436,
      "zusehen": 1437,
      "Kunststück": 1438,
      "dunkelhäut": 1439,
      "überqueren": 1440,
      "genießt": 1441,
      "Glas": 1442,
      "Freund": 1443,
      "Schaukel": 1444,
      "Dach": 1445,
      "Decke": 1446,
      "Jemand": 1447,
      "Tro": 1448,
      "etten": 1449,
      "Stück": 1450,
      "repar": 1451,
      "hose": 1452,
      "Blick": 1453,
      "uckt": 1454,
      "Feuerwehr": 1455,
      "Jugend": 1456,
      "lacht": 1457,
      "off": 1458,
      "pr": 1459,
      "Klei": 1460,
      "laster": 1461,
      "brett": 1462,
      "Mauer": 1463,
      "Zuschauern": 1464,
      "Lebens": 1465,
      "treten": 1466,
      "schrift": 1467,
      "gibt": 1468,
      "städt": 1469,
      "mittleren": 1470,
      "Fot": 1471,
      "Volle": 1472,
      "gner": 1473,
      "set": 1474,
      "benutzt": 1475,
      "gelber": 1476,
      "rädern": 1477,
      "öffent": 1478,
      "Gemü": 1479,
      "Sof": 1480,
      "hö": 1481,
      "pro": 1482,
      "orangen": 1483,
      "Menge": 1484,
      "Baseballspieler": 1485,
      "Einkaufs": 1486,
      "nehmen": 1487,
      "Alters": 1488,
      "Volleyball": 1489,
      "Obst": 1490,
      "Par": 1491,
      "bem": 1492,
      "gänger": 1493,
      "hei": 1494,
      "ries": 1495,
      "tur": 1496,
      "viol": 1497,
      "anten": 1498,
      "unt": 1499,
      "Einige": 1500,
      "elmen": 1501,
      "eman": 1502,
      "Schür": 1503,
      "Mensch": 1504,
      "unterhält": 1505,
      "Ak": 1506,
      "Mund": 1507,
      "sur": 1508,
      "strei": 1509,
      "zusieht": 1510,
      "Schal": 1511,
      "großes": 1512,
      "stellt": 1513,
      "Uniform": 1514,
      "nahe": 1515,
      "Fotos": 1516,
      "Kor": 1517,
      "del": 1518,
      "außer": 1519,
      "star": 1520,
      "gebäu": 1521,
      "immen": 1522,
      "zuschaut": 1523,
      "spre": 1524,
      "nebeneinander": 1525,
      "Fußgänger": 1526,
      "Reifen": 1527,
      "Mitte": 1528,
      "scheint": 1529,
      "Sofa": 1530,
      "Gol": 1531,
      "Ufer": 1532,
      "kampf": 1533,
      "mp": 1534,
      "mehrer": 1535,
      "nicht": 1536,
      "ini": 1537,
      "err": 1538,
      "einsam": 1539,
      "ons": 1540,
      "spann": 1541,
      "glei": 1542,
      "lila": 1543,
      "verschieden": 1544,
      "Nacht": 1545,
      "Ziegel": 1546,
      "bis": 1547,
      "jeman": 1548,
      "nachts": 1549,
      "ruh": 1550,
      "auer": 1551,
      "itzen": 1552,
      "bew": 1553,
      "utsche": 1554,
      "Hockey": 1555,
      "iges": 1556,
      "igk": 1557,
      "Sonne": 1558,
      "kniet": 1559,
      "Surfer": 1560,
      "Gegenstand": 1561,
      "Gemüse": 1562,
      "Masch": 1563,
      "Wett": 1564,
      "bal": 1565,
      "jungen": 1566,
      "oß": 1567,
      "uhe": 1568,
      "äh": 1569,
      "ition": 1570,
      "under": 1571,
      "schlagen": 1572,
      "geln": 1573,
      "hinten": 1574,
      "versuchen": 1575,
      "Herr": 1576,
      "Asiat": 1577,
      "Zigarette": 1578,
      "Braut": 1579,
      "Cl": 1580,
      "Fer": 1581,
      "Fisch": 1582,
      "Nummer": 1583,
      "bärt": 1584,
      "farb": 1585,
      "gut": 1586,
      "nah": 1587,
      "erle": 1588,
      "trinken": 1589,
      "legt": 1590,
      "Trick": 1591,
      "gleich": 1592,
      "kurz": 1593,
      "üste": 1594,
      "beobachten": 1595,
      "Roller": 1596,
      "mehreren": 1597,
      "Bett": 1598,
      "Zelt": 1599,
      "aw": 1600,
      "agt": 1601,
      "fängt": 1602,
      "itzt": 1603,
      "gestell": 1604,
      "Pfad": 1605,
      "Kn": 1606,
      "Läufer": 1607,
      "ühr": 1608,
      "gef": 1609,
      "Mannschaft": 1610,
      "raucht": 1611,
      "ickt": 1612,
      "farbenfro": 1613,
      "Armen": 1614,
      "werfen": 1615,
      "Trikots": 1616,
      "Weihn": 1617,
      "Flagge": 1618,
      "Garten": 1619,
      "öffentlichen": 1620,
      "De": 1621,
      "Eim": 1622,
      "Part": 1623,
      "zert": 1624,
      "gep": 1625,
      "rotes": 1626,
      "beide": 1627,
      "Stange": 1628,
      "issen": 1629,
      "hof": 1630,
      "lasche": 1631,
      "Handt": 1632,
      "Art": 1633,
      "betrachten": 1634,
      "Laden": 1635,
      "Stufen": 1636,
      "rutscht": 1637,
      "verschneiten": 1638,
      "Schürze": 1639,
      "Ferne": 1640,
      "Weihnachts": 1641,
      "Co": 1642,
      "Rampe": 1643,
      "Wanderer": 1644,
      "bild": 1645,
      "dass": 1646,
      "heit": 1647,
      "blich": 1648,
      "Grill": 1649,
      "grüner": 1650,
      "Gehsteig": 1651,
      "Veranstaltung": 1652,
      "kommen": 1653,
      "Musiker": 1654,
      "Vorder": 1655,
      "hemd": 1656,
      "Back": 1657,
      "Ob": 1658,
      "gol": 1659,
      "hund": 1660,
      "ugt": 1661,
      "eite": 1662,
      "änzer": 1663,
      "Bow": 1664,
      "gebung": 1665,
      "viele": 1666,
      "folgt": 1667,
      "Kap": 1668,
      "Tanz": 1669,
      "iff": 1670,
      "mütze": 1671,
      "reden": 1672,
      "heraus": 1673,
      "blonden": 1674,
      "masch": 1675,
      "Geld": 1676,
      "ziehen": 1677,
      "Tennisball": 1678,
      "Surf": 1679,
      "Kostüm": 1680,
      "Snowboarder": 1681,
      "befestig": 1682,
      "leuchten": 1683,
      "außerhalb": 1684,
      "Che": 1685,
      "Tau": 1686,
      "Vo": 1687,
      "köpf": 1688,
      "mo": 1689,
      "rt": 1690,
      "ru": 1691,
      "weiter": 1692,
      "atten": 1693,
      "untergang": 1694,
      "fern": 1695,
      "formen": 1696,
      "Basketballspieler": 1697,
      "Kostümen": 1698,
      "Snowboard": 1699,
      "Turn": 1700,
      "Plast": 1701,
      "Telefon": 1702,
      "bärtiger": 1703,
      "Swe": 1704,
      "akt": 1705,
      "do": 1706,
      "käufer": 1707,
      "phon": 1708,
      "sk": 1709,
      "sucht": 1710,
      "schir": 1711,
      "illen": 1712,
      "Statue": 1713,
      "blaues": 1714,
      "Geb": 1715,
      "lange": 1716,
      "Fahrzeug": 1717,
      "dessen": 1718,
      "Sonnenuntergang": 1719,
      "dreh": 1720,
      "zurück": 1721,
      "Skifahrer": 1722,
      "Instrumen": 1723,
      "Bikini": 1724,
      "greift": 1725,
      "Lebensmittel": 1726,
      "surft": 1727,
      "Bowling": 1728,
      "Plastik": 1729,
      "Tan": 1730,
      "Vater": 1731,
      "app": 1732,
      "mauer": 1733,
      "oten": 1734,
      "uster": 1735,
      "chter": 1736,
      "ume": 1737,
      "oll": 1738,
      "Klassen": 1739,
      "pflaster": 1740,
      "Brunnen": 1741,
      "klettern": 1742,
      "Aufschrift": 1743,
      "hängen": 1744,
      "gelbem": 1745,
      "Asi": 1746,
      "schreibt": 1747,
      "Schüler": 1748,
      "shirt": 1749,
      "fotografiert": 1750,
      "hilft": 1751,
      "Kleidern": 1752,
      "Kapu": 1753,
      "Bei": 1754,
      "stän": 1755,
      "ont": 1756,
      "Schie": 1757,
      "beiden": 1758,
      "beugt": 1759,
      "atshirt": 1760,
      "ausrüstung": 1761,
      "reck": 1762,
      "boot": 1763,
      "liches": 1764,
      "own": 1765,
      "obil": 1766,
      "Damen": 1767,
      "Hüten": 1768,
      "männliche": 1769,
      "Polizist": 1770,
      "Kampfsport": 1771,
      "städtischen": 1772,
      "Vogel": 1773,
      "Sweatshirt": 1774,
      "Bal": 1775,
      "Ke": 1776,
      "Leiter": 1777,
      "Pass": 1778,
      "fei": 1779,
      "jak": 1780,
      "sil": 1781,
      "skleidung": 1782,
      "wa": 1783,
      "unbefestig": 1784,
      "lesen": 1785,
      "Kletter": 1786,
      "Haare": 1787,
      "Sechs": 1788,
      "überquert": 1789,
      "schönen": 1790,
      "Polizisten": 1791,
      "Hochzeit": 1792,
      "gebäude": 1793,
      "Maschine": 1794,
      "Krei": 1795,
      "fäl": 1796,
      "guckt": 1797,
      "lei": 1798,
      "wander": 1799,
      "chten": 1800,
      "unk": 1801,
      "Schrei": 1802,
      "zentr": 1803,
      "ückt": 1804,
      "ings": 1805,
      "ünger": 1806,
      "schwimmen": 1807,
      "versammeln": 1808,
      "Kajak": 1809,
      "streckt": 1810,
      "hört": 1811,
      "nacktem": 1812,
      "sprechen": 1813,
      "Ker": 1814,
      "du": 1815,
      "hol": 1816,
      "blasen": 1817,
      "daten": 1818,
      "gestreiftem": 1819,
      "gemeinsam": 1820,
      "Konzert": 1821,
      "Leine": 1822,
      "Rutsche": 1823,
      "if": 1824,
      "ip": 1825,
      "ippe": 1826,
      "jünger": 1827,
      "rand": 1828,
      "trad": 1829,
      "Schm": 1830,
      "Schuhen": 1831,
      "leeren": 1832,
      "gele": 1833,
      "asiatischen": 1834,
      "schlafen": 1835,
      "Regenschirm": 1836,
      "Getränk": 1837,
      "maschine": 1838,
      "Bul": 1839,
      "Caf": 1840,
      "Kat": 1841,
      "Wohn": 1842,
      "lassen": 1843,
      "mar": 1844,
      "sel": 1845,
      "Schlä": 1846,
      "athon": 1847,
      "ilit": 1848,
      "ilder": 1849,
      "boden": 1850,
      "Kopfhör": 1851,
      "zeich": 1852,
      "blonder": 1853,
      "Pferde": 1854,
      "kostü": 1855,
      "Weiß": 1856,
      "Westen": 1857,
      "genießen": 1858,
      "lilafarben": 1859,
      "iefeln": 1860,
      "Waren": 1861,
      "Soldaten": 1862,
      "Eimer": 1863,
      "tradition": 1864,
      "Aben": 1865,
      "Lie": 1866,
      "Rot": 1867,
      "Tänzer": 1868,
      "Wellen": 1869,
      "jagt": 1870,
      "mä": 1871,
      "sä": 1872,
      "top": 1873,
      "öcken": 1874,
      "eibe": 1875,
      "stu": 1876,
      "weiblich": 1877,
      "bewachsen": 1878,
      "Stühlen": 1879,
      "lät": 1880,
      "recht": 1881,
      "afr": 1882,
      "ossen": 1883,
      "Diese": 1884,
      "otorrad": 1885,
      "Mikrophon": 1886,
      "Seifen": 1887,
      "Badeanzug": 1888,
      "Umgebung": 1889,
      "Schlagzeug": 1890,
      "Schutzhelm": 1891,
      "silber": 1892,
      "Kaff": 1893,
      "Lap": 1894,
      "Ma": 1895,
      "achen": 1896,
      "bung": 1897,
      "halle": 1898,
      "öpfen": 1899,
      "aske": 1900,
      "gras": 1901,
      "län": 1902,
      "entspann": 1903,
      "gekleideten": 1904,
      "ohne": 1905,
      "beleuch": 1906,
      "Motorradfahrer": 1907,
      "Geländem": 1908,
      "Leder": 1909,
      "Rodeo": 1910,
      "gelbes": 1911,
      "wobei": 1912,
      "Ende": 1913,
      "Korb": 1914,
      "afrikan": 1915,
      "Laptop": 1916,
      "Fah": 1917,
      "Finger": 1918,
      "Gei": 1919,
      "Künstler": 1920,
      "Ohr": 1921,
      "bau": 1922,
      "pul": 1923,
      "singen": 1924,
      "üm": 1925,
      "inder": 1926,
      "instr": 1927,
      "inmitten": 1928,
      "schaf": 1929,
      "schuh": 1930,
      "dert": 1931,
      "ase": 1932,
      "reiten": 1933,
      "urf": 1934,
      "ause": 1935,
      "ischt": 1936,
      "lanzen": 1937,
      "ulp": 1938,
      "grauem": 1939,
      "ssel": 1940,
      "gegenüber": 1941,
      "Kraw": 1942,
      "braunem": 1943,
      "schwingt": 1944,
      "Erwachsenen": 1945,
      "Erwachsener": 1946,
      "Marathon": 1947,
      "riesigen": 1948,
      "starrt": 1949,
      "dreht": 1950,
      "ilitär": 1951,
      "Ch": 1952,
      "Hö": 1953,
      "Sohn": 1954,
      "Vi": 1955,
      "aden": 1956,
      "gn": 1957,
      "ka": 1958,
      "rein": 1959,
      "oren": 1960,
      "berühr": 1961,
      "Gegend": 1962,
      "gelt": 1963,
      "anderes": 1964,
      "Handschuhen": 1965,
      "Fahrer": 1966,
      "älteren": 1967,
      "Parkplatz": 1968,
      "Uniformen": 1969,
      "fallen": 1970,
      "Instrument": 1971,
      "pinkfarben": 1972,
      "Werk": 1973,
      "Parade": 1974,
      "Lauf": 1975,
      "ssen": 1976,
      "train": 1977,
      "add": 1978,
      "euz": 1979,
      "verkleide": 1980,
      "Kinderwagen": 1981,
      "füt": 1982,
      "Gebäuden": 1983,
      "Shirts": 1984,
      "Bergen": 1985,
      "Bereich": 1986,
      "Straßenecke": 1987,
      "Straßenrand": 1988,
      "ärm": 1989,
      "lächelnd": 1990,
      "räder": 1991,
      "Arme": 1992,
      "ätow": 1993,
      "Treppen": 1994,
      "korb": 1995,
      "richter": 1996,
      "offenen": 1997,
      "pinkfarbenen": 1998,
      "wendet": 1999,
      "balanc": 2000,
      "Schreibt": 2001,
      "Fern": 2002,
      "Kir": 2003,
      "Last": 2004,
      "Sänger": 2005,
      "The": 2006,
      "ader": 2007,
      "link": 2008,
      "“.": 2009,
      "eisch": 2010,
      "gepflaster": 2011,
      "ord": 2012,
      "Schoß": 2013,
      "schwarzes": 2014,
      "Stand": 2015,
      "spritzt": 2016,
      "verall": 2017,
      "ktion": 2018,
      "Baustelle": 2019,
      "Tour": 2020,
      "umarmt": 2021,
      "Party": 2022,
      "Cheerle": 2023,
      "Geländemotorrad": 2024,
      "El": 2025,
      "Gro": 2026,
      "Jacken": 2027,
      "Kuchen": 2028,
      "Overall": 2029,
      "Pause": 2030,
      "Wasch": 2031,
      "bik": 2032,
      "kann": 2033,
      "kten": 2034,
      "seite": 2035,
      "ucken": 2036,
      "einge": 2037,
      "gezogen": 2038,
      "ork": 2039,
      "Schw": 2040,
      "ierte": 2041,
      "ausgest": 2042,
      "samm": 2043,
      "steigen": 2044,
      "orangefarbener": 2045,
      "grünes": 2046,
      "dunkelhäutiger": 2047,
      "setzt": 2048,
      "Clown": 2049,
      "Backstein": 2050,
      "grasbewachsen": 2051,
      "ulptur": 2052,
      "Krawatte": 2053,
      "Netz": 2054,
      "Tier": 2055,
      "by": 2056,
      "co": 2057,
      "glie": 2058,
      "ober": 2059,
      "so": 2060,
      "gegner": 2061,
      "icher": 2062,
      "Schatten": 2063,
      "umm": 2064,
      "utzen": 2065,
      "Spiegel": 2066,
      "verkaufen": 2067,
      "schauk": 2068,
      "hockey": 2069,
      "roskop": 2070,
      "Tennisspieler": 2071,
      "Gelände": 2072,
      "ive": 2073,
      "repariert": 2074,
      "Jugendlicher": 2075,
      "Vordergrund": 2076,
      "Schreibtisch": 2077,
      "Fell": 2078,
      "Mobil": 2079,
      "Sicher": 2080,
      "ganz": 2081,
      "hand": 2082,
      "lung": 2083,
      "putzt": 2084,
      "tau": 2085,
      "äum": 2086,
      "ön": 2087,
      "grill": 2088,
      "iste": 2089,
      "lage": 2090,
      "Fahrradfahrer": 2091,
      "Blau": 2092,
      "gekleidetes": 2093,
      "Anz": 2094,
      "glück": 2095,
      "Sandalen": 2096,
      "vollen": 2097,
      "hellhäut": 2098,
      "gegeneinander": 2099,
      "kurzer": 2100,
      "Schlitten": 2101,
      "Taschen": 2102,
      "stellung": 2103,
      "gewor": 2104,
      "amerikanische": 2105,
      "Schnau": 2106,
      "Schulter": 2107,
      "füllten": 2108,
      "Flugzeug": 2109,
      "prü": 2110,
      "Einkaufswagen": 2111,
      "verschiedene": 2112,
      "gestellt": 2113,
      "Fü": 2114,
      "Hu": 2115,
      "Im": 2116,
      "Kunden": 2117,
      "eben": 2118,
      "ipp": 2119,
      "pl": 2120,
      "ufer": 2121,
      "unn": 2122,
      "eiden": 2123,
      "team": 2124,
      "dies": 2125,
      "atz": 2126,
      "atur": 2127,
      "westen": 2128,
      "Fahrrädern": 2129,
      "abge": 2130,
      "angezogen": 2131,
      "anken": 2132,
      "führung": 2133,
      "Fotograf": 2134,
      "asiatisches": 2135,
      "bedeckt": 2136,
      "Mikroskop": 2137,
      "Baumst": 2138,
      "schlossen": 2139,
      "Footballspieler": 2140,
      "strecke": 2141,
      "küsst": 2142,
      "dsrichter": 2143,
      "jemandem": 2144,
      "Schläger": 2145,
      "balanciert": 2146,
      "Bein": 2147,
      "Blät": 2148,
      "Lab": 2149,
      "Ste": 2150,
      "baum": 2151,
      "ient": 2152,
      "ktr": 2153,
      "uppen": 2154,
      "winkt": 2155,
      "wunder": 2156,
      "indern": 2157,
      "chte": 2158,
      "uni": 2159,
      "statt": 2160,
      "raum": 2161,
      "deon": 2162,
      "amen": 2163,
      "Schauf": 2164,
      "ppich": 2165,
      "Stiefeln": 2166,
      "heben": 2167,
      "weste": 2168,
      "halt": 2169,
      "Train": 2170,
      "Fleisch": 2171,
      "druck": 2172,
      "Pferden": 2173,
      "Erde": 2174,
      "schläger": 2175,
      "Verkehr": 2176,
      "gebiet": 2177,
      "Schlauch": 2178,
      "Badehose": 2179,
      "schmutz": 2180,
      "schöne": 2181,
      "Büro": 2182,
      "schütt": 2183,
      "Akkor": 2184,
      "Schiedsrichter": 2185,
      "fällt": 2186,
      "kostüm": 2187,
      "Video": 2188,
      "Mobiltelefon": 2189,
      "Fall": 2190,
      "Fischer": 2191,
      "Rand": 2192,
      "bur": 2193,
      "hak": 2194,
      "luft": 2195,
      "lock": 2196,
      "oo": 2197,
      "osen": 2198,
      "ve": 2199,
      "zel": 2200,
      "ines": 2201,
      "aufger": 2202,
      "anne": 2203,
      "aler": 2204,
      "cker": 2205,
      "irgend": 2206,
      "Spa": 2207,
      "durchs": 2208,
      "Koch": 2209,
      "igem": 2210,
      "Angel": 2211,
      "hellbrauner": 2212,
      "treppe": 2213,
      "orangefarbenem": 2214,
      "Felswand": 2215,
      "Halsband": 2216,
      "Golf": 2217,
      "Surfbrett": 2218,
      "Klassenzimmer": 2219,
      "Kapuzen": 2220,
      "geworfen": 2221,
      "Akkordeon": 2222,
      "Jahr": 2223,
      "Militär": 2224,
      "Teil": 2225,
      "Zimmer": 2226,
      "nf": 2227,
      "nie": 2228,
      "nung": 2229,
      "ras": 2230,
      "ähn": 2231,
      "chines": 2232,
      "bewe": 2233,
      "ktop": 2234,
      "Oberteilen": 2235,
      "davor": 2236,
      "fünf": 2237,
      "wegs": 2238,
      "zeigen": 2239,
      "stru": 2240,
      "rothaarige": 2241,
      "lächelnde": 2242,
      "Schlamm": 2243,
      "Gesichts": 2244,
      "anzügen": 2245,
      "stellen": 2246,
      "belebte": 2247,
      "küssen": 2248,
      "Gerüst": 2249,
      "Kanu": 2250,
      "Loch": 2251,
      "Tanktop": 2252,
      "unbefestigten": 2253,
      "Höhe": 2254,
      "Sicherheit": 2255,
      "unnel": 2256,
      "Pick": 2257,
      "beh": 2258,
      "fuß": 2259,
      "gie": 2260,
      "hang": 2261,
      "kw": 2262,
      "ok": 2263,
      "sau": 2264,
      "seines": 2265,
      "ugel": 2266,
      "zaun": 2267,
      "äch": 2268,
      "öh": 2269,
      "erin": 2270,
      "erwachsen": 2271,
      "eisen": 2272,
      "schild": 2273,
      "ongl": 2274,
      "Schuhe": 2275,
      "blä": 2276,
      "bewer": 2277,
      "irn": 2278,
      "aussieht": 2279,
      "redet": 2280,
      "how": 2281,
      "fahrzeug": 2282,
      "brunnen": 2283,
      "steigt": 2284,
      "Fußballspiel": 2285,
      "Skateboarder": 2286,
      "Innen": 2287,
      "Spring": 2288,
      "nahme": 2289,
      "leuchtend": 2290,
      "Kreis": 2291,
      "gelegt": 2292,
      "weibliche": 2293,
      "Seifenblasen": 2294,
      "schaften": 2295,
      "Lastwagen": 2296,
      "Cheerleader": 2297,
      "Ecke": 2298,
      "Fe": 2299,
      "Kur": 2300,
      "Tischen": 2301,
      "Wind": 2302,
      "Zei": 2303,
      "dler": 2304,
      "künstler": 2305,
      "plan": 2306,
      "padd": 2307,
      "ünet": 2308,
      "stad": 2309,
      "Schaufen": 2310,
      "Schlange": 2311,
      "beg": 2312,
      "bekleide": 2313,
      "iern": 2314,
      "urt": 2315,
      "afro": 2316,
      "fahrt": 2317,
      "Skater": 2318,
      "bereich": 2319,
      "Kranken": 2320,
      "Pflanzen": 2321,
      "frisch": 2322,
      "öffnet": 2323,
      "dient": 2324,
      "verschiedenen": 2325,
      "Mount": 2326,
      "gleitet": 2327,
      "Schnauze": 2328,
      "haki": 2329,
      "Spaß": 2330,
      "Mountain": 2331,
      "Ele": 2332,
      "Fest": 2333,
      "Nach": 2334,
      "Rück": 2335,
      "Säu": 2336,
      "Teich": 2337,
      "bun": 2338,
      "dach": 2339,
      "dien": 2340,
      "ekt": 2341,
      "äck": 2342,
      "geschm": 2343,
      "bet": 2344,
      "Stirn": 2345,
      "gerät": 2346,
      "stehende": 2347,
      "afel": 2348,
      "Spielfeld": 2349,
      "Kopft": 2350,
      "igur": 2351,
      "Luftball": 2352,
      "Tramp": 2353,
      "Stadion": 2354,
      "Teppich": 2355,
      "kompl": 2356,
      "Bäume": 2357,
      "Karate": 2358,
      "Tochter": 2359,
      "Schultern": 2360,
      "Rennstrecke": 2361,
      "Trom": 2362,
      "farbenfrohen": 2363,
      "Objekt": 2364,
      "köpfiger": 2365,
      "marsch": 2366,
      "lilafarbenen": 2367,
      "gepflasterten": 2368,
      "grasbewachsenen": 2369,
      "Mountainbik": 2370,
      "Far": 2371,
      "Flasche": 2372,
      "Haufen": 2373,
      "Mitt": 2374,
      "Tasse": 2375,
      "cros": 2376,
      "fliegen": 2377,
      "ib": 2378,
      "jog": 2379,
      "jongl": 2380,
      "pe": 2381,
      "pen": 2382,
      "suchen": 2383,
      "schauf": 2384,
      "one": 2385,
      "orient": 2386,
      "Schuh": 2387,
      "gehalten": 2388,
      "hosen": 2389,
      "fert": 2390,
      "laden": 2391,
      "bogen": 2392,
      "zene": 2393,
      "Dies": 2394,
      "Verkauf": 2395,
      "kocht": 2396,
      "fels": 2397,
      "Geschäfts": 2398,
      "Kai": 2399,
      "Kappe": 2400,
      "männlicher": 2401,
      "Sax": 2402,
      "violetten": 2403,
      "igkeit": 2404,
      "holt": 2405,
      "Café": 2406,
      "Kaffee": 2407,
      "Geige": 2408,
      "Kirche": 2409,
      "Hula": 2410,
      "Farben": 2411,
      "Helmen": 2412,
      "Hindern": 2413,
      "Küste": 2414,
      "Plat": 2415,
      "Ziel": 2416,
      "Zäh": 2417,
      "belt": 2418,
      "ffen": 2419,
      "kat": 2420,
      "kahl": 2421,
      "wärt": 2422,
      "öl": 2423,
      "geschlossen": 2424,
      "rol": 2425,
      "Strecke": 2426,
      "Hunden": 2427,
      "olin": 2428,
      "unterwegs": 2429,
      "eilen": 2430,
      "licht": 2431,
      "Hoop": 2432,
      "farbener": 2433,
      "schnell": 2434,
      "Parkbank": 2435,
      "ammer": 2436,
      "grauer": 2437,
      "alto": 2438,
      "asiatisch": 2439,
      "hellen": 2440,
      "Meeres": 2441,
      "gesäum": 2442,
      "Freunden": 2443,
      "Landschaft": 2444,
      "Flaggen": 2445,
      "aussehende": 2446,
      "füllt": 2447,
      "Soft": 2448,
      "umarmen": 2449,
      "Freunde": 2450,
      "bemalt": 2451,
      "igkeiten": 2452,
      "Balkon": 2453,
      "länd": 2454,
      "kappe": 2455,
      "gegnerischen": 2456,
      "schaukelt": 2457,
      "Schaufel": 2458,
      "oriental": 2459,
      "Gasse": 2460,
      "Hot": 2461,
      "Hang": 2462,
      "Lkw": 2463,
      "Mahl": 2464,
      "Maske": 2465,
      "Qu": 2466,
      "Sitzen": 2467,
      "Terr": 2468,
      "Wä": 2469,
      "Wein": 2470,
      "Wass": 2471,
      "age": 2472,
      "för": 2473,
      "wur": 2474,
      "üs": 2475,
      "üne": 2476,
      "indet": 2477,
      "eig": 2478,
      "stern": 2479,
      "bedient": 2480,
      "Stroh": 2481,
      "Steine": 2482,
      "sprung": 2483,
      "langem": 2484,
      "schaukel": 2485,
      "stehenden": 2486,
      "bringt": 2487,
      "brünet": 2488,
      "Blatt": 2489,
      "damit": 2490,
      "Dieser": 2491,
      "Flü": 2492,
      "schneiden": 2493,
      "Außen": 2494,
      "Schwimmbrille": 2495,
      "Schlaf": 2496,
      "flug": 2497,
      "Schnur": 2498,
      "Studen": 2499,
      "Gegenstän": 2500,
      "richtet": 2501,
      "Sachen": 2502,
      "Schutzhelmen": 2503,
      "linie": 2504,
      "farbigen": 2505,
      "Bullen": 2506,
      "Katze": 2507,
      "entspannt": 2508,
      "beleuchteten": 2509,
      "ärmell": 2510,
      "links": 2511,
      "Touristen": 2512,
      "Kapuzenpul": 2513,
      "stadt": 2514,
      "Trampolin": 2515,
      "Wassers": 2516,
      "Nah": 2517,
      "Tunnel": 2518,
      "bad": 2519,
      "ed": 2520,
      "hel": 2521,
      "kan": 2522,
      "land": 2523,
      "mö": 2524,
      "nur": 2525,
      "po": 2526,
      "seit": 2527,
      "wasser": 2528,
      "zä": 2529,
      "üte": 2530,
      "üben": 2531,
      "eins": 2532,
      "tert": 2533,
      "sperr": 2534,
      "Schä": 2535,
      "Schne": 2536,
      "anda": 2537,
      "ierter": 2538,
      "ildern": 2539,
      "Stoff": 2540,
      "Gew": 2541,
      "ändern": 2542,
      "veranstaltung": 2543,
      "verwendet": 2544,
      "entfer": 2545,
      "hinab": 2546,
      "Skiern": 2547,
      "zeugen": 2548,
      "Berge": 2549,
      "Kreuz": 2550,
      "Seiten": 2551,
      "Poli": 2552,
      "hügel": 2553,
      "hüpft": 2554,
      "auto": 2555,
      "Turner": 2556,
      "Schüssel": 2557,
      "New": 2558,
      "Wettkampf": 2559,
      "Kopfhörer": 2560,
      "Fahnen": 2561,
      "Sicherheits": 2562,
      "bewerb": 2563,
      "Springbrunnen": 2564,
      "Zeichen": 2565,
      "Schaufenster": 2566,
      "jongliert": 2567,
      "förm": 2568,
      "Bilder": 2569,
      "Laub": 2570,
      "Rett": 2571,
      "Wel": 2572,
      "bus": 2573,
      "helm": 2574,
      "jub": 2575,
      "nis": 2576,
      "inen": 2577,
      "eiß": 2578,
      "ele": 2579,
      "stö": 2580,
      "gebl": 2581,
      "ard": 2582,
      "weise": 2583,
      "alb": 2584,
      "ale": 2585,
      "trei": 2586,
      "Schr": 2587,
      "umpf": 2588,
      "Klippe": 2589,
      "omaten": 2590,
      "Brett": 2591,
      "ackt": 2592,
      "apel": 2593,
      "Feldweg": 2594,
      "schießt": 2595,
      "lächelnder": 2596,
      "Eishockey": 2597,
      "dunkler": 2598,
      "Umzug": 2599,
      "rotest": 2600,
      "dio": 2601,
      "Teams": 2602,
      "hören": 2603,
      "ruht": 2604,
      "Couch": 2605,
      "leicht": 2606,
      "Abend": 2607,
      "rechts": 2608,
      "bauen": 2609,
      "grillt": 2610,
      "Anzügen": 2611,
      "Fallschirm": 2612,
      "Pickn": 2613,
      "bläst": 2614,
      "Softball": 2615,
      "Polizei": 2616,
      "Jo": 2617,
      "Licht": 2618,
      "Teller": 2619,
      "Wander": 2620,
      "Wüste": 2621,
      "Wurf": 2622,
      "York": 2623,
      "ce": 2624,
      "dir": 2625,
      "ker": 2626,
      "ocken": 2627,
      "tag": 2628,
      "“-": 2629,
      "chern": 2630,
      "eister": 2631,
      "scher": 2632,
      "beige": 2633,
      "blas": 2634,
      "bekommt": 2635,
      "Grim": 2636,
      "Geschen": 2637,
      "verfolgt": 2638,
      "ürde": 2639,
      "box": 2640,
      "ophon": 2641,
      "hellblauen": 2642,
      "stücke": 2643,
      "Reiter": 2644,
      "sstand": 2645,
      "kopf": 2646,
      "Sportler": 2647,
      "baren": 2648,
      "barfuß": 2649,
      "Ausrüstung": 2650,
      "Projekt": 2651,
      "Bücher": 2652,
      "aussehender": 2653,
      "Cowboyhut": 2654,
      "näher": 2655,
      "fotografieren": 2656,
      "dunkelhäutige": 2657,
      "reparieren": 2658,
      "schirmen": 2659,
      "Instrumenten": 2660,
      "Asiate": 2661,
      "wandert": 2662,
      "berührt": 2663,
      "taucht": 2664,
      "schüttelt": 2665,
      "Kopftuch": 2666,
      "Beinen": 2667,
      "Da": 2668,
      "For": 2669,
      "Flie": 2670,
      "Kart": 2671,
      "Nase": 2672,
      "Ol": 2673,
      "Pr": 2674,
      "Som": 2675,
      "bie": 2676,
      "lauf": 2677,
      "los": 2678,
      "osten": 2679,
      "richt": 2680,
      "ringen": 2681,
      "richtung": 2682,
      "sal": 2683,
      "uder": 2684,
      "äus": 2685,
      "einzel": 2686,
      "schuhe": 2687,
      "scheibe": 2688,
      "stür": 2689,
      "aufnahme": 2690,
      "arn": 2691,
      "orn": 2692,
      "emon": 2693,
      "iertem": 2694,
      "vorüber": 2695,
      "Steinen": 2696,
      "überfüllten": 2697,
      "verkäufer": 2698,
      "Personengruppe": 2699,
      "hockt": 2700,
      "aht": 2701,
      "Box": 2702,
      "bringen": 2703,
      "Trä": 2704,
      "Gitarr": 2705,
      "glas": 2706,
      "Veranda": 2707,
      "braunhaarige": 2708,
      "kehrt": 2709,
      "Handtasche": 2710,
      "Instrumente": 2711,
      "reinigt": 2712,
      "uniform": 2713,
      "geschlossenen": 2714,
      "Mahlzeit": 2715,
      "Rettungs": 2716,
      "Bach": 2717,
      "Din": 2718,
      "Salto": 2719,
      "ften": 2720,
      "flasche": 2721,
      "gucken": 2722,
      "isp": 2723,
      "ki": 2724,
      "linken": 2725,
      "udel": 2726,
      "wein": 2727,
      "äten": 2728,
      "eier": 2729,
      "stark": 2730,
      "arm": 2731,
      "amüs": 2732,
      "block": 2733,
      "itze": 2734,
      "umher": 2735,
      "sent": 2736,
      "läufer": 2737,
      "Gep": 2738,
      "eskop": 2739,
      "Wasserfall": 2740,
      "teilen": 2741,
      "vorbeigehen": 2742,
      "apan": 2743,
      "ützen": 2744,
      "deckt": 2745,
      "Erd": 2746,
      "hüb": 2747,
      "Hauses": 2748,
      "Asiatin": 2749,
      "mod": 2750,
      "schirr": 2751,
      "Gebiet": 2752,
      "Asiaten": 2753,
      "zentrum": 2754,
      "zeichnet": 2755,
      "traditioneller": 2756,
      "Lederjacke": 2757,
      "instrumen": 2758,
      "pinkfarbenem": 2759,
      "Groß": 2760,
      "diesem": 2761,
      "gießt": 2762,
      "felsigen": 2763,
      "Zähne": 2764,
      "Ex": 2765,
      "He": 2766,
      "Kam": 2767,
      "Mon": 2768,
      "Tuch": 2769,
      "cr": 2770,
      "fte": 2771,
      "ia": 2772,
      "id": 2773,
      "li": 2774,
      "mehr": 2775,
      "muster": 2776,
      "nassen": 2777,
      "tür": 2778,
      "tief": 2779,
      "wett": 2780,
      "will": 2781,
      "yboard": 2782,
      "enden": 2783,
      "Eingang": 2784,
      "schwer": 2785,
      "schlag": 2786,
      "aufblas": 2787,
      "geschn": 2788,
      "onen": 2789,
      "ement": 2790,
      "Schwer": 2791,
      "Gruppen": 2792,
      "Gewehr": 2793,
      "geleh": 2794,
      "untersucht": 2795,
      "isk": 2796,
      "sitzende": 2797,
      "Fahrräder": 2798,
      "Spielen": 2799,
      "brillen": 2800,
      "füß": 2801,
      "opren": 2802,
      "Straßenkünstler": 2803,
      "hellbraunen": 2804,
      "räsent": 2805,
      "asten": 2806,
      "fröh": 2807,
      "wäscht": 2808,
      "Lager": 2809,
      "Küchen": 2810,
      "Werbung": 2811,
      "Getränke": 2812,
      "Neopren": 2813,
      "Winterkleidung": 2814,
      "höl": 2815,
      "Kerl": 2816,
      "ausgestreck": 2817,
      "prüft": 2818,
      "Blätter": 2819,
      "struktion": 2820,
      "wärts": 2821,
      "Wäsche": 2822,
      "Afro": 2823,
      "BM": 2824,
      "Beh": 2825,
      "Bäl": 2826,
      "Do": 2827,
      "Kuh": 2828,
      "Kissen": 2829,
      "Mö": 2830,
      "Pal": 2831,
      "Ring": 2832,
      "Tarn": 2833,
      "Zunge": 2834,
      "bart": 2835,
      "dan": 2836,
      "gitar": 2837,
      "ippen": 2838,
      "kickt": 2839,
      "mantel": 2840,
      "plat": 2841,
      "ton": 2842,
      "ud": 2843,
      "viert": 2844,
      "übt": 2845,
      "schwe": 2846,
      "stag": 2847,
      "stoff": 2848,
      "get": 2849,
      "gesch": 2850,
      "beieinander": 2851,
      "neu": 2852,
      "bes": 2853,
      "allein": 2854,
      "grä": 2855,
      "euert": 2856,
      "änden": 2857,
      "Kleine": 2858,
      "fahrern": 2859,
      "icker": 2860,
      "zeuge": 2861,
      "nachdem": 2862,
      "Skateboardfahrer": 2863,
      "darunter": 2864,
      "Sees": 2865,
      "dunkelhaarige": 2866,
      "braunes": 2867,
      "Rollstuhl": 2868,
      "Gerät": 2869,
      "Sieben": 2870,
      "Teleskop": 2871,
      "ance": 2872,
      "streich": 2873,
      "Fußgängerüber": 2874,
      "gold": 2875,
      "Taucher": 2876,
      "weitere": 2877,
      "Passanten": 2878,
      "Baumstamm": 2879,
      "burg": 2880,
      "Jahrmarkt": 2881,
      "Kurve": 2882,
      "Terrasse": 2883,
      "wurde": 2884,
      "hölzer": 2885,
      "Ban": 2886,
      "Bord": 2887,
      "Ei": 2888,
      "Fil": 2889,
      "Kab": 2890,
      "Per": 2891,
      "Rug": 2892,
      "aschen": 2893,
      "baut": 2894,
      "ffer": 2895,
      "hafen": 2896,
      "mert": 2897,
      "tlichen": 2898,
      "üten": 2899,
      "chest": 2900,
      "ansport": 2901,
      "angelt": 2902,
      "itter": 2903,
      "unde": 2904,
      "scheinen": 2905,
      "stet": 2906,
      "ond": 2907,
      "vorn": 2908,
      "allen": 2909,
      "ilden": 2910,
      "unterschie": 2911,
      "pfl": 2912,
      "pfel": 2913,
      "ickelt": 2914,
      "hinaus": 2915,
      "ommen": 2916,
      "Bräut": 2917,
      "Brust": 2918,
      "igam": 2919,
      "hinterher": 2920,
      "ütte": 2921,
      "volle": 2922,
      "Schwimmer": 2923,
      "Becher": 2924,
      "schwen": 2925,
      "barfüß": 2926,
      "Mitglie": 2927,
      "Karten": 2928,
      "steckt": 2929,
      "richten": 2930,
      "konzentr": 2931,
      "Ort": 2932,
      "vollführt": 2933,
      "Hockeyspieler": 2934,
      "Keyboard": 2935,
      "önnen": 2936,
      "ippt": 2937,
      "rasiert": 2938,
      "bewegt": 2939,
      "paddelt": 2940,
      "helfen": 2941,
      "Geschenk": 2942,
      "salon": 2943,
      "Gepäck": 2944,
      "gelehnt": 2945,
      "gräbt": 2946,
      "unterschied": 2947,
      "Bräutigam": 2948,
      "Moto": 2949,
      "Matte": 2950,
      "Namen": 2951,
      "Tätow": 2952,
      "ades": 2953,
      "ake": 2954,
      "ic": 2955,
      "ian": 2956,
      "jemand": 2957,
      "kunst": 2958,
      "passen": 2959,
      "selt": 2960,
      "xt": 2961,
      "ymp": 2962,
      "Über": 2963,
      "inn": 2964,
      "erkl": 2965,
      "anger": 2966,
      "gezeigt": 2967,
      "dekor": 2968,
      "weit": 2969,
      "Mänt": 2970,
      "benutzen": 2971,
      "iere": 2972,
      "grö": 2973,
      "graben": 2974,
      "eucht": 2975,
      "Geschirr": 2976,
      "ment": 2977,
      "Spaz": 2978,
      "pfer": 2979,
      "verl": 2980,
      "verlassen": 2981,
      "sitzender": 2982,
      "sitzenden": 2983,
      "laschen": 2984,
      "abzu": 2985,
      "schnitt": 2986,
      "schießen": 2987,
      "Besen": 2988,
      "Waldgebiet": 2989,
      "Karren": 2990,
      "gewicht": 2991,
      "amerikanischen": 2992,
      "schreit": 2993,
      "Arbeitskleidung": 2994,
      "Prof": 2995,
      "Produ": 2996,
      "Plakat": 2997,
      "hilfe": 2998,
      "Drachen": 2999,
      "goldenen": 3000,
      "aktor": 3001,
      "feiern": 3002,
      "stufen": 3003,
      "hellhäutiger": 3004,
      "bunte": 3005,
      "Hindernis": 3006,
      "Studenten": 3007,
      "Schäfer": 3008,
      "Träger": 3009,
      "crem": 3010,
      "Neoprenanzug": 3011,
      "Rugby": 3012,
      "Tätowier": 3013,
      "Figur": 3014,
      "Heu": 3015,
      "Jungs": 3016,
      "Ki": 3017,
      "US": 3018,
      "Vö": 3019,
      "Viol": 3020,
      "Wild": 3021,
      "Zie": 3022,
      "Zement": 3023,
      "dat": 3024,
      "ete": 3025,
      "jagen": 3026,
      "kte": 3027,
      "kate": 3028,
      "khaki": 3029,
      "mal": 3030,
      "seh": 3031,
      "satz": 3032,
      "tisch": 3033,
      "tform": 3034,
      "tätow": 3035,
      "ule": 3036,
      "wischt": 3037,
      "ziel": 3038,
      "öhn": 3039,
      "stühlen": 3040,
      "aufge": 3041,
      "asst": 3042,
      "roll": 3043,
      "emd": 3044,
      "Schot": 3045,
      "Schiff": 3046,
      "bern": 3047,
      "neten": 3048,
      "bekleidung": 3049,
      "begut": 3050,
      "alleine": 3051,
      "älde": 3052,
      "Staub": 3053,
      "Gewand": 3054,
      "gerüst": 3055,
      "änder": 3056,
      "rechten": 3057,
      "Spiels": 3058,
      "halte": 3059,
      "blond": 3060,
      "blondem": 3061,
      "Berges": 3062,
      "Auftritt": 3063,
      "Bahnsteig": 3064,
      "Tennisschläger": 3065,
      "lehnen": 3066,
      "Rucksä": 3067,
      "amerikanischer": 3068,
      "mannschaft": 3069,
      "Flughafen": 3070,
      "heir": 3071,
      "Handtuch": 3072,
      "Weihnachtsbaum": 3073,
      "Turnhalle": 3074,
      "gnü": 3075,
      "verkleidet": 3076,
      "Theke": 3077,
      "glücklich": 3078,
      "chinesischen": 3079,
      "Trommel": 3080,
      "cross": 3081,
      "gesäumten": 3082,
      "Schnurr": 3083,
      "ärmellosen": 3084,
      "Kapuzenpulli": 3085,
      "Nahaufnahme": 3086,
      "zäunten": 3087,
      "entfernt": 3088,
      "Jockey": 3089,
      "BMX": 3090,
      "chester": 3091,
      "konzentriert": 3092,
      "Motocross": 3093,
      "Mänteln": 3094,
      "Spazier": 3095,
      "Schäferhund": 3096,
      "Am": 3097,
      "Brot": 3098,
      "Dau": 3099,
      "Dor": 3100,
      "Fläche": 3101,
      "Jog": 3102,
      "Kä": 3103,
      "Ketten": 3104,
      "Lin": 3105,
      "Lehrer": 3106,
      "Pit": 3107,
      "Pier": 3108,
      "Pfüt": 3109,
      "Rä": 3110,
      "Su": 3111,
      "Sil": 3112,
      "Vers": 3113,
      "dell": 3114,
      "fast": 3115,
      "ise": 3116,
      "kau": 3117,
      "kap": 3118,
      "kalten": 3119,
      "kugel": 3120,
      "mus": 3121,
      "meln": 3122,
      "musik": 3123,
      "nass": 3124,
      "ote": 3125,
      "runden": 3126,
      "sern": 3127,
      "wel": 3128,
      "öte": 3129,
      "ittel": 3130,
      "getr": 3131,
      "weil": 3132,
      "klat": 3133,
      "reichen": 3134,
      "reifen": 3135,
      "Station": 3136,
      "Stapel": 3137,
      "läsern": 3138,
      "legest": 3139,
      "änken": 3140,
      "Kla": 3141,
      "entgegen": 3142,
      "sechs": 3143,
      "träger": 3144,
      "Handstand": 3145,
      "icket": 3146,
      "herab": 3147,
      "Koffer": 3148,
      "Skulptur": 3149,
      "Ballon": 3150,
      "Freizeit": 3151,
      "Bekleidung": 3152,
      "lächelndes": 3153,
      "Segel": 3154,
      "Bahnhof": 3155,
      "treffen": 3156,
      "geschäftigen": 3157,
      "schneebedeck": 3158,
      "offenem": 3159,
      "Arbeits": 3160,
      "Rolltreppe": 3161,
      "befestigt": 3162,
      "Soldat": 3163,
      "Tromp": 3164,
      "violet": 3165,
      "jemanden": 3166,
      "Wettbewerb": 3167,
      "Knie": 3168,
      "Weihnachtsmann": 3169,
      "Hochzeits": 3170,
      "iften": 3171,
      "Wohnzimmer": 3172,
      "trainiert": 3173,
      "Angelru": 3174,
      "Farbe": 3175,
      "Saxophon": 3176,
      "Gegenstände": 3177,
      "elektr": 3178,
      "geblüm": 3179,
      "legestelle": 3180,
      "Aren": 3181,
      "Dre": 3182,
      "Fans": 3183,
      "Feier": 3184,
      "Gass": 3185,
      "Gang": 3186,
      "Hal": 3187,
      "Hafen": 3188,
      "Häus": 3189,
      "Man": 3190,
      "Not": 3191,
      "Oze": 3192,
      "Pär": 3193,
      "Sü": 3194,
      "Sitz": 3195,
      "Tatt": 3196,
      "Zahn": 3197,
      "aal": 3198,
      "aber": 3199,
      "bör": 3200,
      "fle": 3201,
      "lö": 3202,
      "och": 3203,
      "usch": 3204,
      "woh": 3205,
      "ym": 3206,
      "inden": 3207,
      "ande": 3208,
      "eis": 3209,
      "eife": 3210,
      "itte": 3211,
      "steilen": 3212,
      "geöff": 3213,
      "deren": 3214,
      "Mannschaften": 3215,
      "trick": 3216,
      "ama": 3217,
      "Schaf": 3218,
      "Scheibe": 3219,
      "ble": 3220,
      "stehend": 3221,
      "Strom": 3222,
      "urs": 3223,
      "utel": 3224,
      "ole": 3225,
      "Gegner": 3226,
      "Spitze": 3227,
      "reg": 3228,
      "Kleiner": 3229,
      "ihres": 3230,
      "icken": 3231,
      "Hocke": 3232,
      "brücke": 3233,
      "hinein": 3234,
      "Blue": 3235,
      "Ballons": 3236,
      "wegung": 3237,
      "Traktor": 3238,
      "zeichen": 3239,
      "strand": 3240,
      "Sonnenbrillen": 3241,
      "Inlin": 3242,
      "Motorrädern": 3243,
      "Wandbild": 3244,
      "Baseballkappe": 3245,
      "geboren": 3246,
      "affel": 3247,
      "Pfosten": 3248,
      "Bildschirm": 3249,
      "Kunststücke": 3250,
      "Restaurants": 3251,
      "kochen": 3252,
      "hüter": 3253,
      "Topf": 3254,
      "gewickelt": 3255,
      "Bushalte": 3256,
      "Gemälde": 3257,
      "Orange": 3258,
      "Modell": 3259,
      "rutsche": 3260,
      "setzen": 3261,
      "bewöl": 3262,
      "männer": 3263,
      "silbernen": 3264,
      "Werkzeug": 3265,
      "Eltern": 3266,
      "Füßen": 3267,
      "Labor": 3268,
      "Videospiel": 3269,
      "komplett": 3270,
      "Mountainbike": 3271,
      "schaufelt": 3272,
      "kahlköpfiger": 3273,
      "brünette": 3274,
      "nähert": 3275,
      "weint": 3276,
      "geschnitten": 3277,
      "Afroamerikan": 3278,
      "Behälter": 3279,
      "daneben": 3280,
      "streichelt": 3281,
      "hölzernen": 3282,
      "größer": 3283,
      "Trägerhemd": 3284,
      "Daumen": 3285,
      "Pfütze": 3286,
      "Klavier": 3287,
      "Arena": 3288,
      "Gassi": 3289,
      "Pärchen": 3290,
      "Bushaltestelle": 3291,
      "Chin": 3292,
      "Hammer": 3293,
      "Hürde": 3294,
      "Jack": 3295,
      "Kisten": 3296,
      "Mop": 3297,
      "Mess": 3298,
      "dicht": 3299,
      "gan": 3300,
      "kamer": 3301,
      "kul": 3302,
      "ksam": 3303,
      "opf": 3304,
      "szene": 3305,
      "weh": 3306,
      "wol": 3307,
      "xi": 3308,
      "öcke": 3309,
      "enz": 3310,
      "angeh": 3311,
      "schle": 3312,
      "stange": 3313,
      "stock": 3314,
      "gefallen": 3315,
      "ieben": 3316,
      "ong": 3317,
      "rock": 3318,
      "klar": 3319,
      "spielzeug": 3320,
      "beschäft": 3321,
      "adlock": 3322,
      "othe": 3323,
      "Stier": 3324,
      "leger": 3325,
      "Speisen": 3326,
      "Menschengruppe": 3327,
      "teilt": 3328,
      "Balls": 3329,
      "Skatepark": 3330,
      "Stadtstraße": 3331,
      "haarigen": 3332,
      "händler": 3333,
      "merksam": 3334,
      "ampen": 3335,
      "netz": 3336,
      "Steinmauer": 3337,
      "Rennwagen": 3338,
      "Zuschauermenge": 3339,
      "Graffitis": 3340,
      "Orchester": 3341,
      "Getränken": 3342,
      "ustik": 3343,
      "Socken": 3344,
      "Jugendliche": 3345,
      "Einkaufszentrum": 3346,
      "heim": 3347,
      "heißen": 3348,
      "bewund": 3349,
      "Rollerbl": 3350,
      "Deck": 3351,
      "geparkt": 3352,
      "skulptur": 3353,
      "Passag": 3354,
      "Kletterer": 3355,
      "jüngeren": 3356,
      "Kopfhörern": 3357,
      "instrument": 3358,
      "wunderschönen": 3359,
      "schmutzigen": 3360,
      "Krankenhaus": 3361,
      "Luftballons": 3362,
      "joggt": 3363,
      "Dieses": 3364,
      "roller": 3365,
      "Picknickt": 3366,
      "ausgestreckten": 3367,
      "gitarre": 3368,
      "seltsam": 3369,
      "creme": 3370,
      "Schnurrbart": 3371,
      "Dreadlock": 3372,
      "Inlines": 3373,
      "Dreadlocks": 3374,
      "Bre": 3375,
      "Ent": 3376,
      "Fass": 3377,
      "Gür": 3378,
      "Gumm": 3379,
      "Körper": 3380,
      "Kies": 3381,
      "Min": 3382,
      "Nicker": 3383,
      "Pl": 3384,
      "Ton": 3385,
      "Zahl": 3386,
      "bä": 3387,
      "bür": 3388,
      "brennen": 3389,
      "disk": 3390,
      "eet": 3391,
      "hl": 3392,
      "hau": 3393,
      "haufen": 3394,
      "hmaschine": 3395,
      "keit": 3396,
      "leu": 3397,
      "pa": 3398,
      "sack": 3399,
      "seich": 3400,
      "tasche": 3401,
      "tüte": 3402,
      "up": 3403,
      "yl": 3404,
      "innt": 3405,
      "ausch": 3406,
      "eifen": 3407,
      "schlie": 3408,
      "schwach": 3409,
      "mitglie": 3410,
      "trakt": 3411,
      "klam": 3412,
      "ativ": 3413,
      "Mädchens": 3414,
      "Stab": 3415,
      "legen": 3416,
      "langhaariger": 3417,
      "ahmen": 3418,
      "arbeit": 3419,
      "älteres": 3420,
      "Brand": 3421,
      "Hinterhof": 3422,
      "Bauch": 3423,
      "vorbeifährt": 3424,
      "Anlegestelle": 3425,
      "Nähmaschine": 3426,
      "Sandd": 3427,
      "Motorroller": 3428,
      "Essens": 3429,
      "Rede": 3430,
      "Baseballspiel": 3431,
      "Baseballmütze": 3432,
      "affe": 3433,
      "Kunstwerk": 3434,
      "useum": 3435,
      "Herbst": 3436,
      "rosafarbenem": 3437,
      "Schutzbrille": 3438,
      "küm": 3439,
      "Outfits": 3440,
      "Typen": 3441,
      "Warn": 3442,
      "bildschirm": 3443,
      "Geldbör": 3444,
      "rudert": 3445,
      "Bowlingbahn": 3446,
      "füttert": 3447,
      "Füße": 3448,
      "Trainings": 3449,
      "bett": 3450,
      "Flüss": 3451,
      "Kreuzung": 3452,
      "direkt": 3453,
      "einzelner": 3454,
      "Gitarrist": 3455,
      "Kids": 3456,
      "Dorf": 3457,
      "Rädern": 3458,
      "iseur": 3459,
      "beschäftigt": 3460,
      "Nickerchen": 3461,
      "diskut": 3462,
      "Afr": 3463,
      "Bi": 3464,
      "Bänken": 3465,
      "Col": 3466,
      "Don": 3467,
      "Dreck": 3468,
      "Hil": 3469,
      "Heiß": 3470,
      "Hütte": 3471,
      "Kör": 3472,
      "Lö": 3473,
      "Leg": 3474,
      "Piz": 3475,
      "Röcken": 3476,
      "Ruder": 3477,
      "Show": 3478,
      "Tal": 3479,
      "Wänden": 3480,
      "ages": 3481,
      "ban": 3482,
      "bro": 3483,
      "dy": 3484,
      "dig": 3485,
      "findet": 3486,
      "kal": 3487,
      "krä": 3488,
      "kaut": 3489,
      "können": 3490,
      "lust": 3491,
      "min": 3492,
      "malen": 3493,
      "rik": 3494,
      "runter": 3495,
      "rast": 3496,
      "wanne": 3497,
      "Är": 3498,
      "enk": 3499,
      "anhat": 3500,
      "anlage": 3501,
      "eimer": 3502,
      "ity": 3503,
      "schü": 3504,
      "schlen": 3505,
      "schutz": 3506,
      "aufs": 3507,
      "mithilfe": 3508,
      "orgen": 3509,
      "trennen": 3510,
      "trocken": 3511,
      "rohr": 3512,
      "ammen": 3513,
      "Schacht": 3514,
      "Schule": 3515,
      "beißt": 3516,
      "reiche": 3517,
      "bearbeitet": 3518,
      "etzt": 3519,
      "Strick": 3520,
      "Start": 3521,
      "Stamm": 3522,
      "Gesich": 3523,
      "Geschä": 3524,
      "Kleines": 3525,
      "verheir": 3526,
      "weißt": 3527,
      "indische": 3528,
      "Blume": 3529,
      "zeuger": 3530,
      "Bauern": 3531,
      "ops": 3532,
      "zusammenge": 3533,
      "ärmel": 3534,
      "Gelb": 3535,
      "kette": 3536,
      "Kunststoff": 3537,
      "kariertem": 3538,
      "Herd": 3539,
      "Regenschirmen": 3540,
      "schmuck": 3541,
      "liegenden": 3542,
      "automaten": 3543,
      "flausch": 3544,
      "steinigen": 3545,
      "Gewässers": 3546,
      "Einkaufst": 3547,
      "Schlagzeuger": 3548,
      "konstruktion": 3549,
      "lachend": 3550,
      "öpfe": 3551,
      "etzten": 3552,
      "Feuerwehrmänner": 3553,
      "bemal": 3554,
      "Gold": 3555,
      "köpfige": 3556,
      "Bowlingkugel": 3557,
      "Balken": 3558,
      "Kegel": 3559,
      "Klettergerüst": 3560,
      "selbst": 3561,
      "afrikanischer": 3562,
      "Chor": 3563,
      "berühren": 3564,
      "cours": 3565,
      "Fotografen": 3566,
      "Windhund": 3567,
      "marschiert": 3568,
      "Mittag": 3569,
      "Strohhut": 3570,
      "Schlafanzug": 3571,
      "mög": 3572,
      "pool": 3573,
      "Dinge": 3574,
      "amüsieren": 3575,
      "Kamel": 3576,
      "aufblasbaren": 3577,
      "kates": 3578,
      "Rucksäcken": 3579,
      "Trompete": 3580,
      "violettem": 3581,
      "Angelrute": 3582,
      "geblümten": 3583,
      "Süß": 3584,
      "Tattoo": 3585,
      "Plü": 3586,
      "verheirate": 3587,
      "Ast": 3588,
      "Bel": 3589,
      "Bat": 3590,
      "Demon": 3591,
      "Dudel": 3592,
      "Kö": 3593,
      "LK": 3594,
      "Lippen": 3595,
      "Noten": 3596,
      "Oper": 3597,
      "Pe": 3598,
      "Sess": 3599,
      "Tafel": 3600,
      "Teig": 3601,
      "Wet": 3602,
      "dün": 3603,
      "fre": 3604,
      "flachen": 3605,
      "glatz": 3606,
      "jo": 3607,
      "jeans": 3608,
      "kun": 3609,
      "kinder": 3610,
      "mart": 3611,
      "maske": 3612,
      "rück": 3613,
      "rampe": 3614,
      "sow": 3615,
      "tor": 3616,
      "inten": 3617,
      "ere": 3618,
      "chn": 3619,
      "unkt": 3620,
      "eim": 3621,
      "iten": 3622,
      "ität": 3623,
      "schweißt": 3624,
      "steinen": 3625,
      "gepark": 3626,
      "trag": 3627,
      "Schub": 3628,
      "blät": 3629,
      "reicht": 3630,
      "bestehende": 3631,
      "ungew": 3632,
      "warm": 3633,
      "waren": 3634,
      "Stift": 3635,
      "Gespr": 3636,
      "ika": 3637,
      "spritzen": 3638,
      "Klapp": 3639,
      "verz": 3640,
      "hou": 3641,
      "ahlen": 3642,
      "Spielkleidung": 3643,
      "Blas": 3644,
      "ign": 3645,
      "Freiluft": 3646,
      "Fußballfeld": 3647,
      "Straßenhändler": 3648,
      "draht": 3649,
      "Sandstrand": 3650,
      "ohemd": 3651,
      "Schwimmbad": 3652,
      "gegenseit": 3653,
      "Becken": 3654,
      "üsten": 3655,
      "izieren": 3656,
      "Schlitt": 3657,
      "offt": 3658,
      "dunkelblauen": 3659,
      "Zeitschrift": 3660,
      "Mitarbeiter": 3661,
      "ival": 3662,
      "fegt": 3663,
      "Umhang": 3664,
      "Konfer": 3665,
      "dium": 3666,
      "Outdo": 3667,
      "Rennauto": 3668,
      "Torhüter": 3669,
      "näch": 3670,
      "Feuerwehrmann": 3671,
      "Kleider": 3672,
      "riesige": 3673,
      "Club": 3674,
      "issenschaft": 3675,
      "Lebensmittelgeschäft": 3676,
      "Kerzen": 3677,
      "Cafe": 3678,
      "Abendessen": 3679,
      "Lied": 3680,
      "säge": 3681,
      "afrikanische": 3682,
      "Geländemotorradfahrer": 3683,
      "sammelt": 3684,
      "sammlung": 3685,
      "Backsteingebäude": 3686,
      "luftball": 3687,
      "erwachsene": 3688,
      "Elef": 3689,
      "Elektr": 3690,
      "geschmink": 3691,
      "marschieren": 3692,
      "Plattform": 3693,
      "Wasserski": 3694,
      "jubeln": 3695,
      "beigefarbenen": 3696,
      "Sommer": 3697,
      "Bordstein": 3698,
      "Eisen": 3699,
      "schwenkt": 3700,
      "Schotter": 3701,
      "Super": 3702,
      "Silhou": 3703,
      "Bluejeans": 3704,
      "Moped": 3705,
      "othek": 3706,
      "Rollerblades": 3707,
      "Picknicktisch": 3708,
      "Flüssigkeit": 3709,
      "Heißluftball": 3710,
      "Demonstr": 3711,
      "Operation": 3712,
      "kunft": 3713,
      "Schubkar": 3714,
      "Gespräch": 3715,
      "gegenseitig": 3716,
      "Outdoor": 3717,
      "12": 3718,
      "Bad": 3719,
      "Hau": 3720,
      "Hol": 3721,
      "Hig": 3722,
      "Kür": 3723,
      "Kiste": 3724,
      "Kalb": 3725,
      "Lim": 3726,
      "Löff": 3727,
      "Läch": 3728,
      "Lond": 3729,
      "Puck": 3730,
      "Protest": 3731,
      "Rauch": 3732,
      "bre": 3733,
      "bunter": 3734,
      "bunt": 3735,
      "cl": 3736,
      "digen": 3737,
      "dog": 3738,
      "eck": 3739,
      "ga": 3740,
      "gar": 3741,
      "japan": 3742,
      "lau": 3743,
      "noch": 3744,
      "pt": 3745,
      "parkt": 3746,
      "sand": 3747,
      "säu": 3748,
      "wür": 3749,
      "zern": 3750,
      "Öff": 3751,
      "üht": 3752,
      "anien": 3753,
      "Einer": 3754,
      "elten": 3755,
      "sto": 3756,
      "aufzu": 3757,
      "gefüllt": 3758,
      "emp": 3759,
      "Schir": 3760,
      "Schwe": 3761,
      "blett": 3762,
      "befahren": 3763,
      "bekommen": 3764,
      "ache": 3765,
      "vorne": 3766,
      "Hundes": 3767,
      "Grün": 3768,
      "griff": 3769,
      "gehoben": 3770,
      "auszu": 3771,
      "leck": 3772,
      "gelassen": 3773,
      "äng": 3774,
      "rechte": 3775,
      "untersuchen": 3776,
      "Wasserflasche": 3777,
      "Fahrt": 3778,
      "Fahrgeschäft": 3779,
      "ktur": 3780,
      "wirbelt": 3781,
      "brä": 3782,
      "Ballett": 3783,
      "dazu": 3784,
      "Trib": 3785,
      "Grasfläche": 3786,
      "Gitarren": 3787,
      "artigen": 3788,
      "Esel": 3789,
      "graue": 3790,
      "altmod": 3791,
      "drückt": 3792,
      "Jeansjacke": 3793,
      "Red": 3794,
      "Verkäufer": 3795,
      "Beg": 3796,
      "gebunden": 3797,
      "Friseur": 3798,
      "Musikinstrumen": 3799,
      "quar": 3800,
      "ienen": 3801,
      "formation": 3802,
      "dunkelhaariger": 3803,
      "Sportwagen": 3804,
      "Sportveranstaltung": 3805,
      "Herren": 3806,
      "Geschäftskleidung": 3807,
      "Badewanne": 3808,
      "ämmer": 3809,
      "flü": 3810,
      "ollegen": 3811,
      "Robe": 3812,
      "offenbar": 3813,
      "Orangen": 3814,
      "Frisbeescheibe": 3815,
      "Absperr": 3816,
      "Feuerwehrleu": 3817,
      "prob": 3818,
      "farbige": 3819,
      "Tricks": 3820,
      "farbenfroher": 3821,
      "gepunk": 3822,
      "Surfboard": 3823,
      "Tauben": 3824,
      "Geburt": 3825,
      "way": 3826,
      "wandern": 3827,
      "jüngere": 3828,
      "studio": 3829,
      "entspannen": 3830,
      "Fahne": 3831,
      "Ohren": 3832,
      "trainieren": 3833,
      "Fernseh": 3834,
      "Sängerin": 3835,
      "Waschsalon": 3836,
      "planscht": 3837,
      "Turnerin": 3838,
      "treibt": 3839,
      "Grimasse": 3840,
      "boxen": 3841,
      "kopfüber": 3842,
      "Schwert": 3843,
      "Palmen": 3844,
      "volleyball": 3845,
      "euchtung": 3846,
      "rollt": 3847,
      "begutachtet": 3848,
      "bewölkten": 3849,
      "Brandung": 3850,
      "Sanddüne": 3851,
      "Geldbörse": 3852,
      "Hilfe": 3853,
      "Geschäften": 3854,
      "Süßigkeiten": 3855,
      "LKW": 3856,
      "Wettrennen": 3857,
      "ungewöhn": 3858,
      "High": 3859,
      "Lächeln": 3860,
      "London": 3861,
      "Geburtstag": 3862,
      "20": 3863,
      "At": 3864,
      "Achter": 3865,
      "Beine": 3866,
      "Bann": 3867,
      "Bass": 3868,
      "Dunk": 3869,
      "Fä": 3870,
      "Flaschen": 3871,
      "Iro": 3872,
      "Kugel": 3873,
      "Laufen": 3874,
      "Mark": 3875,
      "Na": 3876,
      "Natur": 3877,
      "Pa": 3878,
      "Pat": 3879,
      "Plan": 3880,
      "Punk": 3881,
      "Piste": 3882,
      "Ringer": 3883,
      "ai": 3884,
      "buch": 3885,
      "bückt": 3886,
      "diz": 3887,
      "fau": 3888,
      "fil": 3889,
      "flie": 3890,
      "gung": 3891,
      "ial": 3892,
      "ks": 3893,
      "krei": 3894,
      "pol": 3895,
      "putzen": 3896,
      "protest": 3897,
      "reinigen": 3898,
      "sol": 3899,
      "wurf": 3900,
      "zten": 3901,
      "öt": 3902,
      "üff": 3903,
      "üchte": 3904,
      "engen": 3905,
      "erleuch": 3906,
      "Einrad": 3907,
      "eiben": 3908,
      "eisten": 3909,
      "gespr": 3910,
      "ternen": 3911,
      "trom": 3912,
      "transport": 3913,
      "spü": 3914,
      "ehmen": 3915,
      "zuge": 3916,
      "Schildern": 3917,
      "bert": 3918,
      "bli": 3919,
      "nes": 3920,
      "bevor": 3921,
      "bespritzt": 3922,
      "umge": 3923,
      "attrakt": 3924,
      "ildet": 3925,
      "Stangen": 3926,
      "ausgeb": 3927,
      "gerich": 3928,
      "überprüft": 3929,
      "übergewicht": 3930,
      "iker": 3931,
      "ikul": 3932,
      "reckt": 3933,
      "verb": 3934,
      "verm": 3935,
      "verlässt": 3936,
      "brauen": 3937,
      "langärmel": 3938,
      "Bogen": 3939,
      "zenden": 3940,
      "sammen": 3941,
      "werfer": 3942,
      "Flur": 3943,
      "Straßenmusik": 3944,
      "schieben": 3945,
      "Motorräder": 3946,
      "Reklam": 3947,
      "Händler": 3948,
      "Betr": 3949,
      "Baumes": 3950,
      "usses": 3951,
      "ussell": 3952,
      "hänger": 3953,
      "Kran": 3954,
      "Kricket": 3955,
      "Frie": 3956,
      "Waldweg": 3957,
      "Bandan": 3958,
      "vielleicht": 3959,
      "Basketballspiel": 3960,
      "Taxi": 3961,
      "karte": 3962,
      "Sportkleidung": 3963,
      "Blumenmuster": 3964,
      "Poster": 3965,
      "Podium": 3966,
      "hüpfen": 3967,
      "Maulkorb": 3968,
      "festhält": 3969,
      "Stufe": 3970,
      "Rohr": 3971,
      "schreiben": 3972,
      "orangefarbene": 3973,
      "kreuz": 3974,
      "scheinbar": 3975,
      "Büschen": 3976,
      "Bike": 3977,
      "Teenageralter": 3978,
      "Saiten": 3979,
      "etzte": 3980,
      "näht": 3981,
      "folgen": 3982,
      "eep": 3983,
      "Müllton": 3984,
      "städtische": 3985,
      "Akustik": 3986,
      "starren": 3987,
      "gleichen": 3988,
      "Ziegelmauer": 3989,
      "ruhigen": 3990,
      "Decken": 3991,
      "Tanzen": 3992,
      "Klassenraum": 3993,
      "Kapuze": 3994,
      "feier": 3995,
      "Kreide": 3996,
      "Theater": 3997,
      "eingezäunten": 3998,
      "oberteil": 3999,
      "Tennisspielerin": 4000,
      "nieder": 4001,
      "Säugl": 4002,
      "Mittages": 4003,
      "joggen": 4004,
      "fertig": 4005,
      "Hotel": 4006,
      "förmigen": 4007,
      "Welpen": 4008,
      "Eishockeyspieler": 4009,
      "Olymp": 4010,
      "bietet": 4011,
      "Fußgängerüberweg": 4012,
      "Vögel": 4013,
      "Violine": 4014,
      "Afroamerikaner": 4015,
      "Messer": 4016,
      "kamera": 4017,
      "bewundert": 4018,
      "diskutieren": 4019,
      "Afrikan": 4020,
      "bemalung": 4021,
      "Dudelsack": 4022,
      "Elefanten": 4023,
      "Silhouette": 4024,
      "Schubkarre": 4025,
      "Schirmen": 4026,
      "dizin": 4027,
      "faulen": 4028,
      "Mittagessen": 4029,
      "Bill": 4030,
      "Camp": 4031,
      "Colle": 4032,
      "Fack": 4033,
      "Küh": 4034,
      "Köpfen": 4035,
      "Khaki": 4036,
      "Mi": 4037,
      "Muster": 4038,
      "Museum": 4039,
      "Net": 4040,
      "Por": 4041,
      "Rande": 4042,
      "Sack": 4043,
      "Szene": 4044,
      "Web": 4045,
      "Zöpfen": 4046,
      "ail": 4047,
      "bäl": 4048,
      "back": 4049,
      "dah": 4050,
      "feuert": 4051,
      "lter": 4052,
      "mas": 4053,
      "maler": 4054,
      "nast": 4055,
      "packt": 4056,
      "präsent": 4057,
      "ruhen": 4058,
      "sschild": 4059,
      "trau": 4060,
      "the": 4061,
      "teln": 4062,
      "uten": 4063,
      "ven": 4064,
      "wich": 4065,
      "wahr": 4066,
      "öhr": 4067,
      "insp": 4068,
      "einzu": 4069,
      "einwand": 4070,
      "anzu": 4071,
      "eist": 4072,
      "eile": 4073,
      "schar": 4074,
      "aufmerksam": 4075,
      "gebeugt": 4076,
      "decke": 4077,
      "Einem": 4078,
      "orter": 4079,
      "trikot": 4080,
      "span": 4081,
      "genen": 4082,
      "zubereitet": 4083,
      "neue": 4084,
      "best": 4085,
      "beutel": 4086,
      "iertes": 4087,
      "Streifen": 4088,
      "umr": 4089,
      "urm": 4090,
      "schendraht": 4091,
      "ott": 4092,
      "Stofft": 4093,
      "geländer": 4094,
      "refle": 4095,
      "verkehr": 4096,
      "verdeckt": 4097,
      "landet": 4098,
      "groß": 4099,
      "ello": 4100,
      "webt": 4101,
      "boten": 4102,
      "abrik": 4103,
      "teilweise": 4104,
      "herr": 4105,
      "entlanggeht": 4106,
      "gehende": 4107,
      "fenster": 4108,
      "hindurch": 4109,
      "Fahrrads": 4110,
      "Ballerin": 4111,
      "Derby": 4112,
      "ühle": 4113,
      "gestikul": 4114,
      "rosar": 4115,
      "vorbeigeht": 4116,
      "Floß": 4117,
      "Kameras": 4118,
      "schnüff": 4119,
      "ammlung": 4120,
      "Sonnenschirm": 4121,
      "drinnen": 4122,
      "Sandwich": 4123,
      "Bühnen": 4124,
      "kurs": 4125,
      "Aufführung": 4126,
      "kesen": 4127,
      "Radrennen": 4128,
      "Boots": 4129,
      "Freu": 4130,
      "schlamm": 4131,
      "Tablett": 4132,
      "wäsche": 4133,
      "akd": 4134,
      "bare": 4135,
      "Badezimmer": 4136,
      "rosafarbene": 4137,
      "rosafarbener": 4138,
      "zeitig": 4139,
      "knien": 4140,
      "Aussicht": 4141,
      "Seilen": 4142,
      "Marktplatz": 4143,
      "Moment": 4144,
      "aussehenden": 4145,
      "nehmer": 4146,
      "wenden": 4147,
      "Computerbildschirm": 4148,
      "Locken": 4149,
      "greifen": 4150,
      "Lebensmitt": 4151,
      "gebäudes": 4152,
      "Reifenschaukel": 4153,
      "Asiatinnen": 4154,
      "gleichzeitig": 4155,
      "Pfadf": 4156,
      "Snowboardfahrer": 4157,
      "feiert": 4158,
      "holen": 4159,
      "Schmuck": 4160,
      "Schmutz": 4161,
      "Maschendraht": 4162,
      "verkleidete": 4163,
      "Fernglas": 4164,
      "teams": 4165,
      "Blättern": 4166,
      "Stehen": 4167,
      "lockigen": 4168,
      "niedr": 4169,
      "bewegen": 4170,
      "rothaariges": 4171,
      "Innenstadt": 4172,
      "beginnt": 4173,
      "dienen": 4174,
      "Stirnband": 4175,
      "ländlichen": 4176,
      "Hotdog": 4177,
      "kante": 4178,
      "einsamer": 4179,
      "Gewändern": 4180,
      "jubelt": 4181,
      "Grimassen": 4182,
      "Rettungswesten": 4183,
      "Bällen": 4184,
      "Mitglieder": 4185,
      "passenden": 4186,
      "khakifarbenen": 4187,
      "Linie": 4188,
      "Pitcher": 4189,
      "kapelle": 4190,
      "klatscht": 4191,
      "Häusern": 4192,
      "ymnast": 4193,
      "geborenes": 4194,
      "angehör": 4195,
      "Breakd": 4196,
      "hlet": 4197,
      "Bibli": 4198,
      "Köche": 4199,
      "glatzköpfiger": 4200,
      "nächsten": 4201,
      "Kürbis": 4202,
      "Löffel": 4203,
      "brechen": 4204,
      "bräun": 4205,
      "ämmerung": 4206,
      "Achterbahn": 4207,
      "Irokesen": 4208,
      "Bandana": 4209,
      "Akustikgitarre": 4210,
      "reflekt": 4211,
      "Bibliothek": 4212,
      "Amp": 4213,
      "Bro": 4214,
      "Eu": 4215,
      "Fit": 4216,
      "Fänger": 4217,
      "Gi": 4218,
      "Gehen": 4219,
      "Gymnast": 4220,
      "Kil": 4221,
      "Lang": 4222,
      "Mc": 4223,
      "Mas": 4224,
      "Maler": 4225,
      "Mützen": 4226,
      "Neu": 4227,
      "Py": 4228,
      "Pel": 4229,
      "Pil": 4230,
      "Puppe": 4231,
      "Sä": 4232,
      "Sar": 4233,
      "Smo": 4234,
      "Ur": 4235,
      "Uhr": 4236,
      "Wange": 4237,
      "Wake": 4238,
      "Ze": 4239,
      "ace": 4240,
      "bilden": 4241,
      "figur": 4242,
      "hes": 4243,
      "holz": 4244,
      "io": 4245,
      "koh": 4246,
      "kasten": 4247,
      "line": 4248,
      "laub": 4249,
      "ool": 4250,
      "ofon": 4251,
      "sor": 4252,
      "sort": 4253,
      "tut": 4254,
      "Älter": 4255,
      "äste": 4256,
      "Einkäufer": 4257,
      "itr": 4258,
      "schul": 4259,
      "stisch": 4260,
      "stap": 4261,
      "stuch": 4262,
      "gemacht": 4263,
      "gefüllten": 4264,
      "rauchen": 4265,
      "oranger": 4266,
      "trop": 4267,
      "spark": 4268,
      "genommen": 4269,
      "ichten": 4270,
      "dieser": 4271,
      "ami": 4272,
      "Schach": 4273,
      "Schilder": 4274,
      "berg": 4275,
      "vorbereitet": 4276,
      "utt": 4277,
      "senk": 4278,
      "Kindes": 4279,
      "grillen": 4280,
      "otiv": 4281,
      "Stä": 4282,
      "Stahl": 4283,
      "Stunt": 4284,
      "Stühle": 4285,
      "irl": 4286,
      "ausge": 4287,
      "leckt": 4288,
      "menade": 4289,
      "ister": 4290,
      "istole": 4291,
      "Klasse": 4292,
      "lanze": 4293,
      "stehender": 4294,
      "Wasserspr": 4295,
      "trät": 4296,
      "lack": 4297,
      "Handschuh": 4298,
      "abel": 4299,
      "lichem": 4300,
      "lichkeit": 4301,
      "renn": 4302,
      "langhaarige": 4303,
      "Bohr": 4304,
      "indischer": 4305,
      "osa": 4306,
      "gehender": 4307,
      "lernt": 4308,
      "bracht": 4309,
      "bricht": 4310,
      "Bauarbeiten": 4311,
      "werke": 4312,
      "zeige": 4313,
      "Flöte": 4314,
      "ündel": 4315,
      "dress": 4316,
      "sseln": 4317,
      "beladen": 4318,
      "Bewegung": 4319,
      "gestreiftes": 4320,
      "Radfahrern": 4321,
      "abends": 4322,
      "Vortrag": 4323,
      "gemuster": 4324,
      "wandt": 4325,
      "Mittel": 4326,
      "Karte": 4327,
      "Asien": 4328,
      "Turban": 4329,
      "strecken": 4330,
      "küche": 4331,
      "Schlagmann": 4332,
      "Werfer": 4333,
      "Papiere": 4334,
      "Cowboys": 4335,
      "streicht": 4336,
      "streifen": 4337,
      "biss": 4338,
      "Plastiktüte": 4339,
      "waschen": 4340,
      "unbefestigte": 4341,
      "Pferdeschw": 4342,
      "Liefer": 4343,
      "Fingern": 4344,
      "gnis": 4345,
      "Werkstatt": 4346,
      "Clowns": 4347,
      "prüfen": 4348,
      "Labork": 4349,
      "wunderschöne": 4350,
      "Trainer": 4351,
      "Golfball": 4352,
      "Gesichtsbemalung": 4353,
      "erwachsener": 4354,
      "Feder": 4355,
      "Luftballon": 4356,
      "Saxofon": 4357,
      "Quad": 4358,
      "landschaft": 4359,
      "Schneeh": 4360,
      "treiben": 4361,
      "loser": 4362,
      "Exper": 4363,
      "türk": 4364,
      "räsentation": 4365,
      "Film": 4366,
      "Kettensäge": 4367,
      "Versammlung": 4368,
      "Halstuch": 4369,
      "Ozean": 4370,
      "Inlineskates": 4371,
      "haube": 4372,
      "Donal": 4373,
      "Strickmütze": 4374,
      "verheiratetes": 4375,
      "sowie": 4376,
      "geparkten": 4377,
      "Holzt": 4378,
      "Tribüne": 4379,
      "Feuerwehrleute": 4380,
      "Banner": 4381,
      "Mülltonne": 4382,
      "gestikuliert": 4383,
      "reflektieren": 4384,
      "Euro": 4385,
      "Fitne": 4386,
      "Asp": 4387,
      "Ba": 4388,
      "Bu": 4389,
      "Bam": 4390,
      "Bur": 4391,
      "Car": 4392,
      "DJ": 4393,
      "Durch": 4394,
      "Fabrik": 4395,
      "Glat": 4396,
      "Haltung": 4397,
      "Junger": 4398,
      "Japan": 4399,
      "Kell": 4400,
      "Kette": 4401,
      "Köpfe": 4402,
      "Lei": 4403,
      "Mün": 4404,
      "Pon": 4405,
      "Präsentation": 4406,
      "Rik": 4407,
      "Röhr": 4408,
      "Sicht": 4409,
      "Tank": 4410,
      "Töpf": 4411,
      "Wol": 4412,
      "Während": 4413,
      "Yog": 4414,
      "brei": 4415,
      "bat": 4416,
      "beln": 4417,
      "egt": 4418,
      "far": 4419,
      "fischen": 4420,
      "feuer": 4421,
      "glän": 4422,
      "hist": 4423,
      "hart": 4424,
      "iers": 4425,
      "ium": 4426,
      "jung": 4427,
      "kör": 4428,
      "kuchen": 4429,
      "met": 4430,
      "mern": 4431,
      "moder": 4432,
      "od": 4433,
      "passt": 4434,
      "sung": 4435,
      "soll": 4436,
      "tä": 4437,
      "tie": 4438,
      "vie": 4439,
      "vieren": 4440,
      "wär": 4441,
      "xas": 4442,
      "za": 4443,
      "zelt": 4444,
      "öst": 4445,
      "üpp": 4446,
      "ino": 4447,
      "aneinander": 4448,
      "ansieht": 4449,
      "unken": 4450,
      "stem": 4451,
      "station": 4452,
      "staub": 4453,
      "statue": 4454,
      "aufgestellt": 4455,
      "arter": 4456,
      "ieb": 4457,
      "ieg": 4458,
      "rauß": 4459,
      "hrt": 4460,
      "deut": 4461,
      "orden": 4462,
      "altes": 4463,
      "spä": 4464,
      "spekt": 4465,
      "rost": 4466,
      "iment": 4467,
      "ambur": 4468,
      "Schuss": 4469,
      "beisammen": 4470,
      "spielern": 4471,
      "neon": 4472,
      "bedruck": 4473,
      "begleitet": 4474,
      "achter": 4475,
      "nerin": 4476,
      "ummel": 4477,
      "attel": 4478,
      "grap": 4479,
      "schwarzhaarige": 4480,
      "ausgestellt": 4481,
      "assiert": 4482,
      "Spie": 4483,
      "sprüht": 4484,
      "regen": 4485,
      "pflanzen": 4486,
      "interess": 4487,
      "Wassermel": 4488,
      "ellschaft": 4489,
      "Dreirad": 4490,
      "langärm": 4491,
      "Booten": 4492,
      "Hocker": 4493,
      "angeboten": 4494,
      "eitung": 4495,
      "igiert": 4496,
      "wegungen": 4497,
      "Hinterb": 4498,
      "spielerisch": 4499,
      "agieren": 4500,
      "Anwei": 4501,
      "Anhänger": 4502,
      "Schneeanzug": 4503,
      "schnitzt": 4504,
      "adet": 4505,
      "Ess": 4506,
      "obahn": 4507,
      "Inline": 4508,
      "Autobahn": 4509,
      "herumstehen": 4510,
      "Tee": 4511,
      "Texas": 4512,
      "Reg": 4513,
      "Schwimmweste": 4514,
      "Vergnü": 4515,
      "Beach": 4516,
      "Besitz": 4517,
      "Paare": 4518,
      "betre": 4519,
      "gestreifter": 4520,
      "iziert": 4521,
      "Hüte": 4522,
      "gebildet": 4523,
      "Schleife": 4524,
      "Kragen": 4525,
      "Pflaster": 4526,
      "Bandmitglie": 4527,
      "Bahnglei": 4528,
      "schlauch": 4529,
      "Kunstwerke": 4530,
      "frem": 4531,
      "wäh": 4532,
      "Eisw": 4533,
      "Feuerweh": 4534,
      "öffnung": 4535,
      "Badeanzügen": 4536,
      "Lacros": 4537,
      "Snack": 4538,
      "dunklem": 4539,
      "ession": 4540,
      "Pudel": 4541,
      "Kontr": 4542,
      "schriften": 4543,
      "herunterge": 4544,
      "mannschaften": 4545,
      "falls": 4546,
      "Betonwand": 4547,
      "Frisur": 4548,
      "Sprungbrett": 4549,
      "krat": 4550,
      "Schüsseln": 4551,
      "Engel": 4552,
      "Nebel": 4553,
      "Computern": 4554,
      "Geräten": 4555,
      "Türen": 4556,
      "manche": 4557,
      "Draht": 4558,
      "verschneite": 4559,
      "Freundin": 4560,
      "bemalten": 4561,
      "spannt": 4562,
      "balken": 4563,
      "Asiatische": 4564,
      "Knei": 4565,
      "Knöpfen": 4566,
      "appt": 4567,
      "ständer": 4568,
      "watet": 4569,
      "marine": 4570,
      "traditionellen": 4571,
      "Tänzerin": 4572,
      "Laptops": 4573,
      "Treppenhaus": 4574,
      "Treppenstufen": 4575,
      "Waschbecken": 4576,
      "aufgerei": 4577,
      "behälter": 4578,
      "sauber": 4579,
      "paddeln": 4580,
      "begeister": 4581,
      "afroamerikanische": 4582,
      "Trommeln": 4583,
      "Mountainbiker": 4584,
      "Quarter": 4585,
      "flugzeug": 4586,
      "Welpe": 4587,
      "nisse": 4588,
      "stößt": 4589,
      "Schrift": 4590,
      "Fliesen": 4591,
      "Bälle": 4592,
      "Möbel": 4593,
      "Tarnkleidung": 4594,
      "schwebt": 4595,
      "Banjo": 4596,
      "barfüßige": 4597,
      "Produkte": 4598,
      "Tätowierung": 4599,
      "Tätowierungen": 4600,
      "USA": 4601,
      "Spaziergang": 4602,
      "geöffneten": 4603,
      "Schafe": 4604,
      "Jackett": 4605,
      "klaren": 4606,
      "Zahlreiche": 4607,
      "kümmert": 4608,
      "Trainingsanzug": 4609,
      "brocken": 4610,
      "Gesichtern": 4611,
      "Beleuchtung": 4612,
      "Konferenz": 4613,
      "Heißluftballon": 4614,
      "sandigen": 4615,
      "gepunkteten": 4616,
      "gungspark": 4617,
      "transportiert": 4618,
      "schnüffelt": 4619,
      "Pfadfinder": 4620,
      "Maschendrahtzaun": 4621,
      "Breakdance": 4622,
      "Gymnastik": 4623,
      "McDonal": 4624,
      "Lieferwagen": 4625,
      "türkis": 4626,
      "Fitness": 4627,
      "Asphalt": 4628,
      "Bambus": 4629,
      "Riksch": 4630,
      "Yoga": 4631,
      "glänzenden": 4632,
      "Vergnügungspark": 4633,
      "Feuerwehraut": 4634,
      "Lacrosse": 4635,
      "App": 4636,
      "Amer": 4637,
      "Apfel": 4638,
      "Best": 4639,
      "City": 4640,
      "Cello": 4641,
      "Dock": 4642,
      "Fischen": 4643,
      "Farb": 4644,
      "Gläsern": 4645,
      "Horn": 4646,
      "John": 4647,
      "Jeep": 4648,
      "Kerle": 4649,
      "Lass": 4650,
      "Leinwand": 4651,
      "Mat": 4652,
      "Ofen": 4653,
      "Pir": 4654,
      "Pos": 4655,
      "Pink": 4656,
      "Rahmen": 4657,
      "Sen": 4658,
      "Swimm": 4659,
      "Top": 4660,
      "Urein": 4661,
      "Vert": 4662,
      "Wach": 4663,
      "Wette": 4664,
      "Woll": 4665,
      "Waffe": 4666,
      "Zy": 4667,
      "Zuck": 4668,
      "atet": 4669,
      "appen": 4670,
      "bungen": 4671,
      "bändern": 4672,
      "deln": 4673,
      "eer": 4674,
      "fers": 4675,
      "llen": 4676,
      "mobil": 4677,
      "namen": 4678,
      "ous": 4679,
      "ph": 4680,
      "putz": 4681,
      "prä": 4682,
      "ron": 4683,
      "ube": 4684,
      "vö": 4685,
      "vent": 4686,
      "zun": 4687,
      "zahl": 4688,
      "üge": 4689,
      "indem": 4690,
      "erw": 4691,
      "einf": 4692,
      "eingang": 4693,
      "ansp": 4694,
      "angel": 4695,
      "ansammlung": 4696,
      "unorden": 4697,
      "Einsatz": 4698,
      "eise": 4699,
      "itor": 4700,
      "elig": 4701,
      "gesehen": 4702,
      "gedr": 4703,
      "iefel": 4704,
      "ichte": 4705,
      "rop": 4706,
      "ims": 4707,
      "klippe": 4708,
      "diese": 4709,
      "benen": 4710,
      "Schein": 4711,
      "blocken": 4712,
      "besteht": 4713,
      "sicher": 4714,
      "Strumpf": 4715,
      "ildes": 4716,
      "Stöcke": 4717,
      "Geschw": 4718,
      "überd": 4719,
      "ängen": 4720,
      "spring": 4721,
      "pfle": 4722,
      "vergnü": 4723,
      "verteilt": 4724,
      "ish": 4725,
      "iss": 4726,
      "isse": 4727,
      "Wasserrutsche": 4728,
      "hohe": 4729,
      "hoher": 4730,
      "abgeworfen": 4731,
      "teilnehmen": 4732,
      "Boo": 4733,
      "Home": 4734,
      "kleineren": 4735,
      "Arzt": 4736,
      "ome": 4737,
      "füllen": 4738,
      "gestür": 4739,
      "ackelt": 4740,
      "örtlichen": 4741,
      "agger": 4742,
      "Fußballdress": 4743,
      "Auge": 4744,
      "ingpool": 4745,
      "ützt": 4746,
      "ettern": 4747,
      "Straßenverkäufer": 4748,
      "ärlich": 4749,
      "dritte": 4750,
      "Erzeug": 4751,
      "Babys": 4752,
      "Hänge": 4753,
      "Händchen": 4754,
      "Beam": 4755,
      "Begl": 4756,
      "Baseballschläger": 4757,
      "Holzbank": 4758,
      "gebaut": 4759,
      "egten": 4760,
      "astanien": 4761,
      "braunhaariger": 4762,
      "Früchte": 4763,
      "schwingen": 4764,
      "Helme": 4765,
      "ienten": 4766,
      "formt": 4767,
      "dunkelten": 4768,
      "Eiscreme": 4769,
      "Herz": 4770,
      "ietung": 4771,
      "Post": 4772,
      "licherweise": 4773,
      "ainer": 4774,
      "Karussell": 4775,
      "knall": 4776,
      "Ausstellung": 4777,
      "Kleinkinder": 4778,
      "Rode": 4779,
      "Rennfahrer": 4780,
      "männlichen": 4781,
      "Einkaufstü": 4782,
      "serviert": 4783,
      "rutschen": 4784,
      "Biker": 4785,
      "Felsvor": 4786,
      "Rollschuh": 4787,
      "Türöffnung": 4788,
      "werker": 4789,
      "Untergrund": 4790,
      "Kante": 4791,
      "linder": 4792,
      "Jugendlichen": 4793,
      "projekt": 4794,
      "Volleyballspieler": 4795,
      "Obststand": 4796,
      "sprecher": 4797,
      "Fußgängern": 4798,
      "Maschinen": 4799,
      "gefleck": 4800,
      "Eimern": 4801,
      "Vorderseite": 4802,
      "Obje": 4803,
      "leuchtenden": 4804,
      "Turnschuhen": 4805,
      "Telefonz": 4806,
      "Bull": 4807,
      "Katzen": 4808,
      "Liegest": 4809,
      "mäher": 4810,
      "silberfarbenen": 4811,
      "Kaffeet": 4812,
      "Matr": 4813,
      "Marathonläufer": 4814,
      "pinkfarbener": 4815,
      "sammeln": 4816,
      "Tiere": 4817,
      "Geländewagen": 4818,
      "hellhäutige": 4819,
      "haltung": 4820,
      "schütteln": 4821,
      "Teilnehmer": 4822,
      "ähnlichen": 4823,
      "Fecht": 4824,
      "bekleidet": 4825,
      "bekleideter": 4826,
      "bekleidete": 4827,
      "afroamerikanischer": 4828,
      "Krankenschwe": 4829,
      "Nachbar": 4830,
      "Säulen": 4831,
      "orientalische": 4832,
      "Gegenständen": 4833,
      "Brettspiel": 4834,
      "Picknick": 4835,
      "Karton": 4836,
      "stürzt": 4837,
      "Banan": 4838,
      "Perlen": 4839,
      "unterschiedlichen": 4840,
      "Profi": 4841,
      "Staubsau": 4842,
      "trägern": 4843,
      "seltsamen": 4844,
      "Gürtel": 4845,
      "Cola": 4846,
      "Legg": 4847,
      "kräfte": 4848,
      "schüssel": 4849,
      "Stammes": 4850,
      "flauschiger": 4851,
      "Einkaufstasche": 4852,
      "möglicherweise": 4853,
      "Plüscht": 4854,
      "rückwärts": 4855,
      "Eisenbahn": 4856,
      "japanischen": 4857,
      "2012": 4858,
      "Nagel": 4859,
      "gesprungen": 4860,
      "langärmeligen": 4861,
      "Säugling": 4862,
      "Netze": 4863,
      "Porträt": 4864,
      "Webstuhl": 4865,
      "präsentiert": 4866,
      "traur": 4867,
      "Ballerina": 4868,
      "Freude": 4869,
      "Lebensmitteln": 4870,
      "Smok": 4871,
      "Zebr": 4872,
      "Wasserspren": 4873,
      "Pferdeschwanz": 4874,
      "Laborkittel": 4875,
      "Experiment": 4876,
      "Töpfer": 4877,
      "Beachvolleyball": 4878,
      "Quarterback": 4879,
      "Feuerwehrauto": 4880,
      "Swimmingpool": 4881,
      "Ureinwoh": 4882,
      "Zylinder": 4883,
      "zunehmen": 4884,
      "Acht": 4885,
      "Axt": 4886,
      "Ble": 4887,
      "Bildern": 4888,
      "Cr": 4889,
      "Con": 4890,
      "Di": 4891,
      "Dun": 4892,
      "Del": 4893,
      "Dämmerung": 4894,
      "Eier": 4895,
      "Flan": 4896,
      "Font": 4897,
      "Hier": 4898,
      "Hab": 4899,
      "Hör": 4900,
      "Hallen": 4901,
      "Heim": 4902,
      "Kit": 4903,
      "Kauf": 4904,
      "Kie": 4905,
      "Kick": 4906,
      "Kasse": 4907,
      "Kittel": 4908,
      "Log": 4909,
      "Lampe": 4910,
      "Lampen": 4911,
      "Pin": 4912,
      "Rie": 4913,
      "Ras": 4914,
      "Richt": 4915,
      "Sl": 4916,
      "Sal": 4917,
      "Tim": 4918,
      "Tomaten": 4919,
      "Vol": 4920,
      "bu": 4921,
      "bchen": 4922,
      "bindet": 4923,
      "ex": 4924,
      "fig": 4925,
      "fischt": 4926,
      "fasst": 4927,
      "finden": 4928,
      "gers": 4929,
      "gitter": 4930,
      "gläsern": 4931,
      "hten": 4932,
      "hle": 4933,
      "haf": 4934,
      "hammer": 4935,
      "jacken": 4936,
      "ligen": 4937,
      "loh": 4938,
      "mischt": 4939,
      "militär": 4940,
      "meisten": 4941,
      "nch": 4942,
      "nasser": 4943,
      "odie": 4944,
      "opp": 4945,
      "pack": 4946,
      "rund": 4947,
      "ring": 4948,
      "ragt": 4949,
      "seil": 4950,
      "wilden": 4951,
      "wissenschaft": 4952,
      "xikan": 4953,
      "ynch": 4954,
      "zün": 4955,
      "zäh": 4956,
      "üd": 4957,
      "üchern": 4958,
      "inner": 4959,
      "iniert": 4960,
      "erk": 4961,
      "erhält": 4962,
      "erho": 4963,
      "einiger": 4964,
      "chsen": 4965,
      "auten": 4966,
      "eift": 4967,
      "eibt": 4968,
      "ital": 4969,
      "elte": 4970,
      "elzen": 4971,
      "schung": 4972,
      "schiff": 4973,
      "stolz": 4974,
      "ged": 4975,
      "gefolgt": 4976,
      "onnen": 4977,
      "onischen": 4978,
      "deten": 4979,
      "trot": 4980,
      "trock": 4981,
      "trif": 4982,
      "spärlich": 4983,
      "robat": 4984,
      "dene": 4985,
      "dens": 4986,
      "kle": 4987,
      "Schaum": 4988,
      "Schutt": 4989,
      "andschaft": 4990,
      "reiter": 4991,
      "becher": 4992,
      "bekann": 4993,
      "ungl": 4994,
      "ierung": 4995,
      "Streich": 4996,
      "ßes": 4997,
      "Hunder": 4998,
      "uth": 4999,
      "Stöcken": 5000,
      "Stelzen": 5001,
      "gehüll": 5002,
      "ausstellung": 5003,
      "überall": 5004,
      "ischem": 5005,
      "esse": 5006,
      "Menschenansammlung": 5007,
      "regner": 5008,
      "unteren": 5009,
      "unterrichtet": 5010,
      "pfad": 5011,
      "vert": 5012,
      "verschw": 5013,
      "verwenden": 5014,
      "entlichkeit": 5015,
      "last": 5016,
      "Handschuhe": 5017,
      "bocken": 5018,
      "abgestellt": 5019,
      "abgebildet": 5020,
      "ließt": 5021,
      "Kom": 5022,
      "oss": 5023,
      "angebracht": 5024,
      "Fahrradhelm": 5025,
      "Skil": 5026,
      "Bruder": 5027,
      "Tracht": 5028,
      "Transport": 5029,
      "Strands": 5030,
      "Kopfschmuck": 5031,
      "hochzu": 5032,
      "Schneeschuhen": 5033,
      "steiger": 5034,
      "Flip": 5035,
      "Fußballmannschaft": 5036,
      "schneit": 5037,
      "schnellen": 5038,
      "Inter": 5039,
      "drib": 5040,
      "Motorhaube": 5041,
      "ssaal": 5042,
      "Essensstand": 5043,
      "kurze": 5044,
      "lächelnden": 5045,
      "Aufzug": 5046,
      "Unfall": 5047,
      "Holzboden": 5048,
      "Holzzaun": 5049,
      "llig": 5050,
      "Pfeil": 5051,
      "Pflanze": 5052,
      "Früh": 5053,
      "front": 5054,
      "froren": 5055,
      "Armee": 5056,
      "iene": 5057,
      "Pull": 5058,
      "Sprüh": 5059,
      "Bergsteiger": 5060,
      "Vorrichtung": 5061,
      "Herkunft": 5062,
      "schminkt": 5063,
      "Laternen": 5064,
      "Schutzkleidung": 5065,
      "Schutzausrüstung": 5066,
      "Toil": 5067,
      "jeder": 5068,
      "jeweil": 5069,
      "festgebunden": 5070,
      "Kostüme": 5071,
      "Gleich": 5072,
      "Gleisen": 5073,
      "Schulkinder": 5074,
      "schrieben": 5075,
      "Turm": 5076,
      "freien": 5077,
      "männliches": 5078,
      "Landstraße": 5079,
      "medizin": 5080,
      "Schaulust": 5081,
      "krab": 5082,
      "konzert": 5083,
      "Ente": 5084,
      "Gericht": 5085,
      "Garn": 5086,
      "Sieg": 5087,
      "Mülleimer": 5088,
      "Unterwäsche": 5089,
      "Halskette": 5090,
      "Drink": 5091,
      "Parcours": 5092,
      "streichen": 5093,
      "Ziegelwand": 5094,
      "Ziegelsteinen": 5095,
      "ruhigem": 5096,
      "bewal": 5097,
      "Herrn": 5098,
      "kurzem": 5099,
      "geflo": 5100,
      "Partie": 5101,
      "Obdach": 5102,
      "rudern": 5103,
      "fernung": 5104,
      "ips": 5105,
      "jüngerer": 5106,
      "Schmetter": 5107,
      "zeichnung": 5108,
      "kostümen": 5109,
      "afrikanischen": 5110,
      "Overalls": 5111,
      "eingeschlafen": 5112,
      "oberen": 5113,
      "schaukeln": 5114,
      "ebenfalls": 5115,
      "uniformen": 5116,
      "Verkehrs": 5117,
      "Schlauchboot": 5118,
      "aufgeregt": 5119,
      "alerie": 5120,
      "Festival": 5121,
      "Rücksitz": 5122,
      "Rückseite": 5123,
      "Säule": 5124,
      "fliegenden": 5125,
      "fertigen": 5126,
      "Ziellinie": 5127,
      "tags": 5128,
      "Boxer": 5129,
      "Gitarristen": 5130,
      "amüsiert": 5131,
      "Erdhügel": 5132,
      "wettbewerb": 5133,
      "fröhlich": 5134,
      "Lagerfeuer": 5135,
      "viertel": 5136,
      "geschoben": 5137,
      "burgunder": 5138,
      "Namensschild": 5139,
      "erklimmen": 5140,
      "blondhaarige": 5141,
      "kauert": 5142,
      "Freizeitpark": 5143,
      "löschen": 5144,
      "wohl": 5145,
      "größeren": 5146,
      "Entfernung": 5147,
      "bäumen": 5148,
      "bürste": 5149,
      "Körben": 5150,
      "schlendert": 5151,
      "Klappstuhl": 5152,
      "verzierten": 5153,
      "garten": 5154,
      "Öffentlichkeit": 5155,
      "Redner": 5156,
      "ungewöhnlichen": 5157,
      "filmt": 5158,
      "übergewichtiger": 5159,
      "verbunden": 5160,
      "Reklamet": 5161,
      "College": 5162,
      "niedrigen": 5163,
      "Ampel": 5164,
      "histor": 5165,
      "staubigen": 5166,
      "fremden": 5167,
      "heruntergekommen": 5168,
      "kratzt": 5169,
      "aufgereiht": 5170,
      "Rikscha": 5171,
      "Lasso": 5172,
      "Verteid": 5173,
      "namens": 5174,
      "unordentlichen": 5175,
      "vergnügt": 5176,
      "Bootes": 5177,
      "Erzeugnisse": 5178,
      "Staubsauger": 5179,
      "Leggings": 5180,
      "Fontä": 5181,
      "Richtungen": 5182,
      "ynchron": 5183,
      "trifft": 5184,
      "regnerischen": 5185,
      "10": 5186,
      "Busses": 5187,
      "Bildes": 5188,
      "Des": 5189,
      "Darb": 5190,
      "Et": 5191,
      "Fu": 5192,
      "Fische": 5193,
      "Go": 5194,
      "Grau": 5195,
      "Gabel": 5196,
      "Har": 5197,
      "Hor": 5198,
      "Hall": 5199,
      "Hambur": 5200,
      "Kul": 5201,
      "Lich": 5202,
      "Lade": 5203,
      "Mön": 5204,
      "Morgen": 5205,
      "OP": 5206,
      "Osten": 5207,
      "Pop": 5208,
      "Rosa": 5209,
      "Stern": 5210,
      "Sub": 5211,
      "Smart": 5212,
      "Sattel": 5213,
      "Tüten": 5214,
      "Welt": 5215,
      "Wart": 5216,
      "Zer": 5217,
      "Zus": 5218,
      "Zuh": 5219,
      "Zeich": 5220,
      "buck": 5221,
      "bast": 5222,
      "bzw": 5223,
      "binden": 5224,
      "cre": 5225,
      "cont": 5226,
      "diert": 5227,
      "dreck": 5228,
      "fält": 5229,
      "flaschen": 5230,
      "gten": 5231,
      "gaben": 5232,
      "hirt": 5233,
      "hack": 5234,
      "horn": 5235,
      "iö": 5236,
      "ipfl": 5237,
      "kas": 5238,
      "kastanien": 5239,
      "lampe": 5240,
      "leiter": 5241,
      "mü": 5242,
      "mat": 5243,
      "melt": 5244,
      "mützen": 5245,
      "ose": 5246,
      "owe": 5247,
      "passiert": 5248,
      "rühr": 5249,
      "sungen": 5250,
      "saal": 5251,
      "to": 5252,
      "tun": 5253,
      "uf": 5254,
      "uer": 5255,
      "weinen": 5256,
      "würde": 5257,
      "yer": 5258,
      "Übung": 5259,
      "ünen": 5260,
      "inz": 5261,
      "inkl": 5262,
      "erhö": 5263,
      "erreichen": 5264,
      "chan": 5265,
      "anhaben": 5266,
      "angehalten": 5267,
      "une": 5268,
      "schrau": 5269,
      "auftritt": 5270,
      "gesp": 5271,
      "gefahren": 5272,
      "gefangen": 5273,
      "geschlagen": 5274,
      "geöffnet": 5275,
      "gespannt": 5276,
      "mitarbeiter": 5277,
      "raus": 5278,
      "decken": 5279,
      "techn": 5280,
      "denkt": 5281,
      "diesen": 5282,
      "diesel": 5283,
      "Schok": 5284,
      "blase": 5285,
      "beam": 5286,
      "besucht": 5287,
      "bestellen": 5288,
      "bedienen": 5289,
      "vorführt": 5290,
      "vorderen": 5291,
      "nern": 5292,
      "ump": 5293,
      "ata": 5294,
      "athlet": 5295,
      "warmen": 5296,
      "urz": 5297,
      "grin": 5298,
      "gramm": 5299,
      "adung": 5300,
      "Stil": 5301,
      "Staffel": 5302,
      "Stativ": 5303,
      "irur": 5304,
      "gehol": 5305,
      "ausgezogen": 5306,
      "läser": 5307,
      "lädt": 5308,
      "Ges": 5309,
      "gelangen": 5310,
      "überprüfen": 5311,
      "Speer": 5312,
      "Speise": 5313,
      "springer": 5314,
      "verwir": 5315,
      "vergn": 5316,
      "Wasserbecken": 5317,
      "Wasserfläche": 5318,
      "hohem": 5319,
      "hohes": 5320,
      "fahrrad": 5321,
      "Fahrg": 5322,
      "Fahrzeuge": 5323,
      "ahnen": 5324,
      "Board": 5325,
      "hervor": 5326,
      "Oberfläche": 5327,
      "Hoodie": 5328,
      "indigkeit": 5329,
      "lern": 5330,
      "lernen": 5331,
      "Brillen": 5332,
      "Blasen": 5333,
      "ierende": 5334,
      "steile": 5335,
      "Flipfl": 5336,
      "Fußballtrikot": 5337,
      "Gehstock": 5338,
      "arty": 5339,
      "fahrenden": 5340,
      "Straßenarbeiter": 5341,
      "Straßenfest": 5342,
      "Straßenseite": 5343,
      "objekt": 5344,
      "Inder": 5345,
      "dritter": 5346,
      "Pferder": 5347,
      "Skateboards": 5348,
      "heller": 5349,
      "Text": 5350,
      "wieder": 5351,
      "Repar": 5352,
      "Schwimmflü": 5353,
      "darin": 5354,
      "daran": 5355,
      "Aufnahme": 5356,
      "Holzkonstruktion": 5357,
      "losen": 5358,
      "izont": 5359,
      "Hüpf": 5360,
      "Kraft": 5361,
      "Tennisp": 5362,
      "Musikgruppe": 5363,
      "schluss": 5364,
      "frischen": 5365,
      "formeller": 5366,
      "akust": 5367,
      "Eiswagen": 5368,
      "Fenstern": 5369,
      "Feuerwerk": 5370,
      "karren": 5371,
      "insel": 5372,
      "Regenbogen": 5373,
      "Regenmantel": 5374,
      "Zeitschriften": 5375,
      "Karohemd": 5376,
      "Laster": 5377,
      "Flusses": 5378,
      "Flussufer": 5379,
      "stecken": 5380,
      "Steintreppe": 5381,
      "liegende": 5382,
      "Rennens": 5383,
      "Puppen": 5384,
      "flach": 5385,
      "amerikanisches": 5386,
      "Konstruktion": 5387,
      "Studio": 5388,
      "Zauns": 5389,
      "sonnen": 5390,
      "Familien": 5391,
      "orangefarbenes": 5392,
      "mittag": 5393,
      "spaziert": 5394,
      "kraft": 5395,
      "kontr": 5396,
      "kämpft": 5397,
      "scheinlich": 5398,
      "Plate": 5399,
      "aussehendes": 5400,
      "Felsbrocken": 5401,
      "Rasenfläche": 5402,
      "nächt": 5403,
      "hause": 5404,
      "schützen": 5405,
      "schützt": 5406,
      "Lokal": 5407,
      "Trock": 5408,
      "prof": 5409,
      "Schürzen": 5410,
      "Akten": 5411,
      "Hockeyspiel": 5412,
      "awai": 5413,
      "gestellten": 5414,
      "Tanzfläche": 5415,
      "heraushängen": 5416,
      "weiteren": 5417,
      "Kampfsportler": 5418,
      "leitet": 5419,
      "gelegenen": 5420,
      "mäht": 5421,
      "beleuchtet": 5422,
      "Laufbahn": 5423,
      "Großer": 5424,
      "ausgestreckt": 5425,
      "Geländefahrzeug": 5426,
      "Flugzeugs": 5427,
      "Imbiss": 5428,
      "angezogener": 5429,
      "Fischernetz": 5430,
      "ähnlich": 5431,
      "struktur": 5432,
      "saugt": 5433,
      "Nachrichten": 5434,
      "Verkaufsstand": 5435,
      "Hindernisp": 5436,
      "Platte": 5437,
      "rollen": 5438,
      "orientalisch": 5439,
      "Flügeln": 5440,
      "Außenbereich": 5441,
      "Student": 5442,
      "ärmellos": 5443,
      "Kapuzenpullover": 5444,
      "zäun": 5445,
      "entfernen": 5446,
      "Sicherheitsweste": 5447,
      "eisterung": 5448,
      "Forscher": 5449,
      "Kartons": 5450,
      "armon": 5451,
      "blockt": 5452,
      "hübschen": 5453,
      "hübsche": 5454,
      "türki": 5455,
      "mertag": 5456,
      "Mitglied": 5457,
      "pferd": 5458,
      "Rugbyspieler": 5459,
      "Figuren": 5460,
      "Wildwasser": 5461,
      "tätowierte": 5462,
      "getroffen": 5463,
      "Segelboot": 5464,
      "schneebedeckte": 5465,
      "schneebedecktes": 5466,
      "elektrischen": 5467,
      "Notiz": 5468,
      "geöffne": 5469,
      "Stromschnellen": 5470,
      "China": 5471,
      "Passagiere": 5472,
      "seichten": 5473,
      "Pizza": 5474,
      "Schachtel": 5475,
      "Bauernmarkt": 5476,
      "Sessel": 5477,
      "club": 5478,
      "gabe": 5479,
      "befahrenen": 5480,
      "Begeisterung": 5481,
      "Musikinstrumente": 5482,
      "Fernseher": 5483,
      "Patienten": 5484,
      "protestiert": 5485,
      "erleuchteten": 5486,
      "attraktive": 5487,
      "Straßenmusiker": 5488,
      "Betrachter": 5489,
      "Friedens": 5490,
      "Camping": 5491,
      "Fackel": 5492,
      "dahinter": 5493,
      "umringt": 5494,
      "schlammigen": 5495,
      "Irokesenschnitt": 5496,
      "Kilt": 5497,
      "Neugeborenes": 5498,
      "Wakeboard": 5499,
      "kohol": 5500,
      "rennfahrer": 5501,
      "Badem": 5502,
      "Münz": 5503,
      "Röhre": 5504,
      "Wolken": 5505,
      "wärmen": 5506,
      "späht": 5507,
      "bedruckten": 5508,
      "Spiegelb": 5509,
      "Hinterbeinen": 5510,
      "betreten": 5511,
      "Kneipe": 5512,
      "putzer": 5513,
      "völlig": 5514,
      "eligiö": 5515,
      "Scheinwerfer": 5516,
      "Geschwindigkeit": 5517,
      "überdachten": 5518,
      "Einkaufstüten": 5519,
      "Felsvorsprung": 5520,
      "Nachbarschaft": 5521,
      "Plüschtier": 5522,
      "Blech": 5523,
      "Dunkel": 5524,
      "erhobenen": 5525,
      "unglück": 5526,
      "dribbelt": 5527,
      "Pullunder": 5528,
      "jeweils": 5529,
      "bewaldeten": 5530,
      "geflochten": 5531,
      "tagsüber": 5532,
      "Reklametafel": 5533,
      "heruntergekommenen": 5534,
      "Verteidiger": 5535,
      "Darbietung": 5536,
      "Hallowe": 5537,
      "Hamburger": 5538,
      "Zusammen": 5539,
      "Schokol": 5540,
      "vergnügen": 5541,
      "Flipflops": 5542,
      "Tennisplatz": 5543,
      "Halloween": 5544,
      "\".": 5545,
      "Air": 5546,
      "Akt": 5547,
      "All": 5548,
      "Bes": 5549,
      "Bla": 5550,
      "Bark": 5551,
      "Bündel": 5552,
      "Dig": 5553,
      "Dia": 5554,
      "Em": 5555,
      "Fan": 5556,
      "Gla": 5557,
      "Gurt": 5558,
      "Hy": 5559,
      "Hub": 5560,
      "Halle": 5561,
      "Halb": 5562,
      "Ich": 5563,
      "Jet": 5564,
      "Lig": 5565,
      "Nad": 5566,
      "Papp": 5567,
      "Padd": 5568,
      "Ra": 5569,
      "Sho": 5570,
      "Tut": 5571,
      "Them": 5572,
      "Wir": 5573,
      "Wanne": 5574,
      "Xyl": 5575,
      "Zelten": 5576,
      "bär": 5577,
      "baby": 5578,
      "breiten": 5579,
      "dicken": 5580,
      "ddy": 5581,
      "fas": 5582,
      "fal": 5583,
      "ging": 5584,
      "girl": 5585,
      "helle": 5586,
      "häus": 5587,
      "lten": 5588,
      "lle": 5589,
      "mun": 5590,
      "mten": 5591,
      "mor": 5592,
      "meiß": 5593,
      "nier": 5594,
      "nungen": 5595,
      "ochen": 5596,
      "punkt": 5597,
      "ragen": 5598,
      "saft": 5599,
      "siv": 5600,
      "show": 5601,
      "uhr": 5602,
      "vr": 5603,
      "zone": 5604,
      "äte": 5605,
      "öser": 5606,
      "ücher": 5607,
      "inge": 5608,
      "eng": 5609,
      "ennt": 5610,
      "enzt": 5611,
      "endet": 5612,
      "eindr": 5613,
      "eingewickelt": 5614,
      "einheim": 5615,
      "chor": 5616,
      "auber": 5617,
      "andes": 5618,
      "ansehen": 5619,
      "angeln": 5620,
      "unbekann": 5621,
      "eider": 5622,
      "itu": 5623,
      "els": 5624,
      "schlan": 5625,
      "schür": 5626,
      "schienen": 5627,
      "school": 5628,
      "stab": 5629,
      "staben": 5630,
      "stift": 5631,
      "strauß": 5632,
      "aufges": 5633,
      "gespielt": 5634,
      "gefroren": 5635,
      "geschrieben": 5636,
      "arr": 5637,
      "annen": 5638,
      "terne": 5639,
      "orch": 5640,
      "orte": 5641,
      "tete": 5642,
      "imer": 5643,
      "denk": 5644,
      "dent": 5645,
      "kla": 5646,
      "klamm": 5647,
      "zuhört": 5648,
      "beißen": 5649,
      "blüh": 5650,
      "bluse": 5651,
      "itzern": 5652,
      "beauf": 5653,
      "beten": 5654,
      "betet": 5655,
      "beteil": 5656,
      "bestehend": 5657,
      "bewegung": 5658,
      "bewegungen": 5659,
      "ierend": 5660,
      "vorsicht": 5661,
      "Stru": 5662,
      "Street": 5663,
      "ppel": 5664,
      "Grund": 5665,
      "Grünf": 5666,
      "oly": 5667,
      "olen": 5668,
      "ollen": 5669,
      "olymp": 5670,
      "europ": 5671,
      "Stiefel": 5672,
      "ausländ": 5673,
      "ausgeschnitten": 5674,
      "gert": 5675,
      "geräten": 5676,
      "iken": 5677,
      "ände": 5678,
      "änkten": 5679,
      "sprüh": 5680,
      "rest": 5681,
      "pfahl": 5682,
      "pfosten": 5683,
      "verkauf": 5684,
      "verschr": 5685,
      "affen": 5686,
      "wegen": 5687,
      "hocken": 5688,
      "Fahrzeugen": 5689,
      "Leucht": 5690,
      "indian": 5691,
      "osaur": 5692,
      "wirt": 5693,
      "uhn": 5694,
      "Bron": 5695,
      "Blon": 5696,
      "Bauwerk": 5697,
      "Trink": 5698,
      "Kleidungs": 5699,
      "hochhack": 5700,
      "Ang": 5701,
      "striert": 5702,
      "strahl": 5703,
      "strüm": 5704,
      "Flops": 5705,
      "befind": 5706,
      "Kameram": 5707,
      "schnappt": 5708,
      "apier": 5709,
      "opoly": 5710,
      "ffiz": 5711,
      "Esstisch": 5712,
      "graues": 5713,
      "ucher": 5714,
      "führer": 5715,
      "Feldhockey": 5716,
      "Sonnenlicht": 5717,
      "Straßenrennen": 5718,
      "Straßenszene": 5719,
      "Stadtpark": 5720,
      "Fotograp": 5721,
      "position": 5722,
      "ärb": 5723,
      "Indi": 5724,
      "Indien": 5725,
      "dritten": 5726,
      "dranten": 5727,
      "Sandhügel": 5728,
      "Sandburg": 5729,
      "rothaariger": 5730,
      "hellgrünen": 5731,
      "Arbeitern": 5732,
      "Teddy": 5733,
      "sser": 5734,
      "Hängem": 5735,
      "Verschie": 5736,
      "darüber": 5737,
      "Baseballfeld": 5738,
      "perspekt": 5739,
      "Reis": 5740,
      "gestreifte": 5741,
      "lose": 5742,
      "Hüfte": 5743,
      "Walmart": 5744,
      "Schlucht": 5745,
      "Pfanne": 5746,
      "zerr": 5747,
      "Hosenträgern": 5748,
      "Bahnstation": 5749,
      "schlaf": 5750,
      "Spielerin": 5751,
      "Basketballfeld": 5752,
      "Tages": 5753,
      "ätte": 5754,
      "Footballspiel": 5755,
      "aken": 5756,
      "Polo": 5757,
      "Polohemd": 5758,
      "Feuerstelle": 5759,
      "öffnen": 5760,
      "Spielzeugauto": 5761,
      "Bäcker": 5762,
      "Vorführung": 5763,
      "karierter": 5764,
      "gelbau": 5765,
      "Sporthalle": 5766,
      "gemalt": 5767,
      "schmalen": 5768,
      "ämmen": 5769,
      "Weißer": 5770,
      "Mitspieler": 5771,
      "telefonieren": 5772,
      "Buchstaben": 5773,
      "Steinbank": 5774,
      "Handys": 5775,
      "Hause": 5776,
      "Metallstange": 5777,
      "Auslage": 5778,
      "gewinnen": 5779,
      "Univers": 5780,
      "koration": 5781,
      "flip": 5782,
      "Konf": 5783,
      "Papiert": 5784,
      "Rosen": 5785,
      "schöner": 5786,
      "schreien": 5787,
      "Betonmauer": 5788,
      "Betonplat": 5789,
      "umgebenen": 5790,
      "lachende": 5791,
      "End": 5792,
      "dtimer": 5793,
      "Mopp": 5794,
      "Neben": 5795,
      "Rollers": 5796,
      "Teenagern": 5797,
      "Garage": 5798,
      "Rockband": 5799,
      "Rasenmäher": 5800,
      "mittelalter": 5801,
      "Kopfbedeckungen": 5802,
      "shorts": 5803,
      "Absatz": 5804,
      "lings": 5805,
      "Hochstuhl": 5806,
      "Marmor": 5807,
      "Müllcont": 5808,
      "vollstän": 5809,
      "Unterhemd": 5810,
      "nackte": 5811,
      "Volleyballspiel": 5812,
      "Paras": 5813,
      "surfen": 5814,
      "Ziegelgebäude": 5815,
      "ruhig": 5816,
      "Brautjung": 5817,
      "farbiger": 5818,
      "Läuferin": 5819,
      "Dekoration": 5820,
      "golden": 5821,
      "hunde": 5822,
      "maschinen": 5823,
      "Geldautomaten": 5824,
      "Chef": 5825,
      "Taube": 5826,
      "weiterer": 5827,
      "Turnier": 5828,
      "dose": 5829,
      "skatet": 5830,
      "Schieß": 5831,
      "Kajakfahrer": 5832,
      "ipe": 5833,
      "zeichnen": 5834,
      "traditionelle": 5835,
      "sägt": 5836,
      "Seifenblase": 5837,
      "silberne": 5838,
      "Laufband": 5839,
      "gepflasterte": 5840,
      "Tourist": 5841,
      "Elmo": 5842,
      "Waschmaschine": 5843,
      "Backsteinmauer": 5844,
      "soeben": 5845,
      "ummern": 5846,
      "handschuh": 5847,
      "Anzahl": 5848,
      "angezogene": 5849,
      "Baumstumpf": 5850,
      "Training": 5851,
      "Randstein": 5852,
      "ood": 5853,
      "irgendeinem": 5854,
      "irgendwo": 5855,
      "chinesische": 5856,
      "Gesichtsaus": 5857,
      "afroamerikanisches": 5858,
      "frischem": 5859,
      "geschmückt": 5860,
      "kompletter": 5861,
      "schaufeln": 5862,
      "Platten": 5863,
      "orientalischer": 5864,
      "Schlafzimmer": 5865,
      "kanad": 5866,
      "möchte": 5867,
      "Schneem": 5868,
      "Sicherheitswesten": 5869,
      "Projektor": 5870,
      "Form": 5871,
      "Fliege": 5872,
      "Kartoff": 5873,
      "Oldtimer": 5874,
      "Sommertag": 5875,
      "emonie": 5876,
      "uniformierter": 5877,
      "Monopoly": 5878,
      "mehrfarbigen": 5879,
      "wettei": 5880,
      "wettkampf": 5881,
      "aufblasbare": 5882,
      "Dose": 5883,
      "Fußgängerübergang": 5884,
      "Kabine": 5885,
      "schwenken": 5886,
      "erklimmt": 5887,
      "dekoriert": 5888,
      "Produkt": 5889,
      "Vögeln": 5890,
      "Wildnis": 5891,
      "Ziegen": 5892,
      "Ziegelbau": 5893,
      "zielt": 5894,
      "zielen": 5895,
      "Spielsachen": 5896,
      "Jockeys": 5897,
      "Jogger": 5898,
      "Jogging": 5899,
      "muskul": 5900,
      "elektronischen": 5901,
      "Ozeans": 5902,
      "Zahnbürste": 5903,
      "wolke": 5904,
      "legerer": 5905,
      "bürstet": 5906,
      "brennende": 5907,
      "Stabhoch": 5908,
      "schlendern": 5909,
      "trockenen": 5910,
      "Schachteln": 5911,
      "Windhunde": 5912,
      "Batman": 5913,
      "Peace": 5914,
      "dünnen": 5915,
      "Blaskapelle": 5916,
      "Schlittschuh": 5917,
      "Supermarkt": 5918,
      "Demonstranten": 5919,
      "altmodischen": 5920,
      "formationen": 5921,
      "probiert": 5922,
      "probieren": 5923,
      "Fächer": 5924,
      "kreis": 5925,
      "spült": 5926,
      "ausgebrei": 5927,
      "kreuzten": 5928,
      "Olympischen": 5929,
      "faulenzen": 5930,
      "Billard": 5931,
      "bällen": 5932,
      "wahrscheinlich": 5933,
      "verkehrs": 5934,
      "rosaroten": 5935,
      "Gipfel": 5936,
      "Pelz": 5937,
      "Pilot": 5938,
      "Ältere": 5939,
      "Bohrmaschine": 5940,
      "Europa": 5941,
      "Glatze": 5942,
      "Kellner": 5943,
      "farbe": 5944,
      "rostigen": 5945,
      "Anweisungen": 5946,
      "begeistert": 5947,
      "Piraten": 5948,
      "Wachmann": 5949,
      "Wollmütze": 5950,
      "prächt": 5951,
      "Strumpfhose": 5952,
      "Telefonzelle": 5953,
      "Smoking": 5954,
      "Wassersprenger": 5955,
      "Ureinwohner": 5956,
      "Kaufhaus": 5957,
      "Logo": 5958,
      "Rasier": 5959,
      "Times": 5960,
      "Volks": 5961,
      "zündet": 5962,
      "gehüllt": 5963,
      "verteid": 5964,
      "bockenden": 5965,
      "Gleichgewicht": 5966,
      "Fontäne": 5967,
      "Horizont": 5968,
      "Ladefläche": 5969,
      "Smartphon": 5970,
      "Zeremonie": 5971,
      "rührt": 5972,
      "schrauber": 5973,
      "dieselbe": 5974,
      "Reparatur": 5975,
      "profession": 5976,
      "heraushängender": 5977,
      "armonika": 5978,
      "Spiegelbild": 5979,
      "Dunkelheit": 5980,
      "Xylophon": 5981,
      "fasz": 5982,
      "meißelt": 5983,
      "klammert": 5984,
      "vorsichtig": 5985,
      "Grünfläche": 5986,
      "europä": 5987,
      "verschränkten": 5988,
      "Hängematte": 5989,
      "perspektive": 5990,
      "muskulöser": 5991,
      "Ap": 5992,
      "Aquar": 5993,
      "BH": 5994,
      "Brau": 5995,
      "Bades": 5996,
      "Bong": 5997,
      "Bagger": 5998,
      "CE": 5999,
      "Cock": 6000,
      "Dom": 6001,
      "Draußen": 6002,
      "Dosen": 6003,
      "Dschung": 6004,
      "Erei": 6005,
      "Fa": 6006,
      "Fau": 6007,
      "Fir": 6008,
      "Fle": 6009,
      "Fäu": 6010,
      "Fang": 6011,
      "Fangen": 6012,
      "Fliegen": 6013,
      "Führ": 6014,
      "Gas": 6015,
      "Gok": 6016,
      "Hasen": 6017,
      "Halte": 6018,
      "Hawai": 6019,
      "Huhn": 6020,
      "Ihr": 6021,
      "Jen": 6022,
      "Ku": 6023,
      "Kamm": 6024,
      "Kuss": 6025,
      "Käm": 6026,
      "Kasten": 6027,
      "Können": 6028,
      "Küsten": 6029,
      "Leh": 6030,
      "Laut": 6031,
      "Live": 6032,
      "Latz": 6033,
      "MS": 6034,
      "Mil": 6035,
      "Mus": 6036,
      "Mag": 6037,
      "Nik": 6038,
      "Nummern": 6039,
      "Ochsen": 6040,
      "Offiz": 6041,
      "Prei": 6042,
      "Ping": 6043,
      "Pain": 6044,
      "Pistole": 6045,
      "Pinsel": 6046,
      "Rast": 6047,
      "Ser": 6048,
      "Squar": 6049,
      "Sims": 6050,
      "Temp": 6051,
      "Ufers": 6052,
      "Wa": 6053,
      "We": 6054,
      "Wür": 6055,
      "Wetter": 6056,
      "Wunder": 6057,
      "Wippe": 6058,
      "Waffel": 6059,
      "Wissenschaft": 6060,
      "Waffen": 6061,
      "Zut": 6062,
      "Zitr": 6063,
      "Zauber": 6064,
      "ager": 6065,
      "adern": 6066,
      "büh": 6067,
      "brot": 6068,
      "ca": 6069,
      "caf": 6070,
      "een": 6071,
      "frau": 6072,
      "gu": 6073,
      "galerie": 6074,
      "hy": 6075,
      "har": 6076,
      "hackt": 6077,
      "ix": 6078,
      "ider": 6079,
      "iPo": 6080,
      "kä": 6081,
      "keln": 6082,
      "kott": 6083,
      "mon": 6084,
      "mark": 6085,
      "muss": 6086,
      "nummer": 6087,
      "out": 6088,
      "pur": 6089,
      "person": 6090,
      "puppe": 6091,
      "pert": 6092,
      "rahmen": 6093,
      "rami": 6094,
      "religiö": 6095,
      "sem": 6096,
      "tippt": 6097,
      "teile": 6098,
      "ugen": 6099,
      "upf": 6100,
      "wal": 6101,
      "wenn": 6102,
      "Öl": 6103,
      "övr": 6104,
      "iner": 6105,
      "inchen": 6106,
      "erst": 6107,
      "einfahrt": 6108,
      "aner": 6109,
      "anze": 6110,
      "ansicht": 6111,
      "anzusehen": 6112,
      "uns": 6113,
      "Einzel": 6114,
      "itischen": 6115,
      "itäten": 6116,
      "schatt": 6117,
      "schlange": 6118,
      "schildern": 6119,
      "steiner": 6120,
      "start": 6121,
      "stäm": 6122,
      "stiefeln": 6123,
      "stöcken": 6124,
      "steuert": 6125,
      "storte": 6126,
      "aufeinander": 6127,
      "aufgenommen": 6128,
      "getragen": 6129,
      "geträn": 6130,
      "gespritzt": 6131,
      "arin": 6132,
      "onne": 6133,
      "hren": 6134,
      "dest": 6135,
      "ash": 6136,
      "orten": 6137,
      "oreiter": 6138,
      "organ": 6139,
      "albern": 6140,
      "ckigen": 6141,
      "tra": 6142,
      "tro": 6143,
      "treide": 6144,
      "trüben": 6145,
      "spur": 6146,
      "spitzen": 6147,
      "genau": 6148,
      "iellen": 6149,
      "imon": 6150,
      "Män": 6151,
      "denken": 6152,
      "zurecht": 6153,
      "zuhause": 6154,
      "Schrau": 6155,
      "Schals": 6156,
      "Schienen": 6157,
      "blatt": 6158,
      "bleiben": 6159,
      "bleibt": 6160,
      "ney": 6161,
      "beug": 6162,
      "beschm": 6163,
      "bebalken": 6164,
      "beeindr": 6165,
      "achel": 6166,
      "voran": 6167,
      "vorrichtung": 6168,
      "sichert": 6169,
      "allt": 6170,
      "aller": 6171,
      "etwa": 6172,
      "etscher": 6173,
      "umzäunten": 6174,
      "wart": 6175,
      "schenkt": 6176,
      "Graben": 6177,
      "Kinn": 6178,
      "gress": 6179,
      "gruppen": 6180,
      "grube": 6181,
      "olster": 6182,
      "adr": 6183,
      "Gesch": 6184,
      "Getreide": 6185,
      "gelenk": 6186,
      "gelegten": 6187,
      "anderem": 6188,
      "assage": 6189,
      "mensch": 6190,
      "ikel": 6191,
      "Spar": 6192,
      "Spitz": 6193,
      "Spinn": 6194,
      "änzern": 6195,
      "regelt": 6196,
      "unterricht": 6197,
      "pfeln": 6198,
      "versteckt": 6199,
      "langes": 6200,
      "entwe": 6201,
      "segelt": 6202,
      "intervie": 6203,
      "interagieren": 6204,
      "stehendes": 6205,
      "Wasserstraße": 6206,
      "hedr": 6207,
      "ellern": 6208,
      "spielenden": 6209,
      "Handwerker": 6210,
      "bohrt": 6211,
      "abteil": 6212,
      "Boote": 6213,
      "Body": 6214,
      "Spielers": 6215,
      "Spielern": 6216,
      "zweite": 6217,
      "sieben": 6218,
      "Kok": 6219,
      "chtathlet": 6220,
      "angefeuert": 6221,
      "hinweg": 6222,
      "hindern": 6223,
      "Fahrradrennen": 6224,
      "Skim": 6225,
      "Blut": 6226,
      "Block": 6227,
      "ult": 6228,
      "Transp": 6229,
      "Truth": 6230,
      "Basken": 6231,
      "hinteren": 6232,
      "Kopfstein": 6233,
      "haltend": 6234,
      "hochgehoben": 6235,
      "Anl": 6236,
      "Ansicht": 6237,
      "Schneeball": 6238,
      "etti": 6239,
      "Flammen": 6240,
      "beför": 6241,
      "Fußballteam": 6242,
      "Hundespielzeug": 6243,
      "ütz": 6244,
      "Bergl": 6245,
      "inke": 6246,
      "Stadtszene": 6247,
      "masten": 6248,
      "Indu": 6249,
      "Jeansshorts": 6250,
      "laufenden": 6251,
      "gegend": 6252,
      "Beutel": 6253,
      "Begriff": 6254,
      "Wandmaler": 6255,
      "Aufnah": 6256,
      "Aufkle": 6257,
      "Holzbrett": 6258,
      "stücken": 6259,
      "Reihen": 6260,
      "locken": 6261,
      "ketten": 6262,
      "kegel": 6263,
      "affeln": 6264,
      "egte": 6265,
      "astreifen": 6266,
      "Pfeife": 6267,
      "zeria": 6268,
      "Musikinstrument": 6269,
      "schlitten": 6270,
      "schleift": 6271,
      "Kunstgalerie": 6272,
      "frü": 6273,
      "frische": 6274,
      "Food": 6275,
      "Basketballkorb": 6276,
      "Felsens": 6277,
      "Pult": 6278,
      "Footballfeld": 6279,
      "Eisschnell": 6280,
      "kost": 6281,
      "Vorstellung": 6282,
      "karten": 6283,
      "Leop": 6284,
      "Herzen": 6285,
      "Badehosen": 6286,
      "Badekappe": 6287,
      "Pullovern": 6288,
      "hüten": 6289,
      "Zeitungen": 6290,
      "Weih": 6291,
      "Ausflug": 6292,
      "essel": 6293,
      "Alkohol": 6294,
      "Gleis": 6295,
      "Gletscher": 6296,
      "Papa": 6297,
      "Schnorch": 6298,
      "streut": 6299,
      "manns": 6300,
      "ogie": 6301,
      "Betonstufen": 6302,
      "Landung": 6303,
      "mexikan": 6304,
      "krie": 6305,
      "schwimmer": 6306,
      "Werbe": 6307,
      "alteten": 6308,
      "Enten": 6309,
      "Torbogen": 6310,
      "Felsblock": 6311,
      "Felsklippe": 6312,
      "Neon": 6313,
      "etzter": 6314,
      "nähe": 6315,
      "Warte": 6316,
      "eeper": 6317,
      "parken": 6318,
      "nackter": 6319,
      "Dress": 6320,
      "Soon": 6321,
      "Zigarre": 6322,
      "Kanus": 6323,
      "Kaninchen": 6324,
      "schützern": 6325,
      "Winterjacke": 6326,
      "Wintertag": 6327,
      "produ": 6328,
      "promenade": 6329,
      "violett": 6330,
      "violetter": 6331,
      "einsamen": 6332,
      "bewoh": 6333,
      "Fischmarkt": 6334,
      "gestellte": 6335,
      "Knien": 6336,
      "gefärb": 6337,
      "gepack": 6338,
      "gepolster": 6339,
      "Handtaschen": 6340,
      "Ladens": 6341,
      "Coach": 6342,
      "Coca": 6343,
      "Backflip": 6344,
      "Geldbeutel": 6345,
      "Tauziehen": 6346,
      "Fahrzeugs": 6347,
      "Lebensmittelmarkt": 6348,
      "Schülern": 6349,
      "Vogelperspektive": 6350,
      "Kajaks": 6351,
      "iffen": 6352,
      "schlafendes": 6353,
      "seligkeiten": 6354,
      "lilafarbener": 6355,
      "weiblichen": 6356,
      "pult": 6357,
      "Fernsehen": 6358,
      "linke": 6359,
      "Cheerleadern": 6360,
      "Backsteinstraße": 6361,
      "gegnerische": 6362,
      "glückliche": 6363,
      "dieses": 6364,
      "abgesperr": 6365,
      "Baumstämmen": 6366,
      "Labrad": 6367,
      "Videokamera": 6368,
      "irgendeiner": 6369,
      "Militärangehör": 6370,
      "nied": 6371,
      "gießen": 6372,
      "bläser": 6373,
      "Innenhof": 6374,
      "Innenraum": 6375,
      "Cheerleaderin": 6376,
      "beginnen": 6377,
      "Nachmittag": 6378,
      "fertigt": 6379,
      "wärtss": 6380,
      "gesäumte": 6381,
      "Nahen": 6382,
      "Schritt": 6383,
      "Softballspieler": 6384,
      "dirigiert": 6385,
      "Bücherreg": 6386,
      "braunhaariges": 6387,
      "Dinosaur": 6388,
      "ispan": 6389,
      "hübsch": 6390,
      "instrumente": 6391,
      "Großstadt": 6392,
      "schwere": 6393,
      "fröhliche": 6394,
      "Möwen": 6395,
      "Palme": 6396,
      "Ringkampf": 6397,
      "udd": 6398,
      "udeln": 6399,
      "neuen": 6400,
      "Filz": 6401,
      "Kabel": 6402,
      "Perücke": 6403,
      "barfüßiger": 6404,
      "Kartenspiel": 6405,
      "dekorativ": 6406,
      "Ziege": 6407,
      "khakifarbener": 6408,
      "aufgeblasen": 6409,
      "blondhaariger": 6410,
      "Motocrossfahrer": 6411,
      "Käse": 6412,
      "Käfig": 6413,
      "Versuch": 6414,
      "nassem": 6415,
      "getrock": 6416,
      "Häuser": 6417,
      "uscheln": 6418,
      "regnet": 6419,
      "ganzen": 6420,
      "Passagieren": 6421,
      "Fassade": 6422,
      "brennenden": 6423,
      "seichtem": 6424,
      "schließen": 6425,
      "schließt": 6426,
      "kümmern": 6427,
      "Warnweste": 6428,
      "Löwen": 6429,
      "Pizzeria": 6430,
      "Ruderboot": 6431,
      "Startlinie": 6432,
      "Einkaufstaschen": 6433,
      "freut": 6434,
      "Schlittschuhen": 6435,
      "Demonstration": 6436,
      "säubert": 6437,
      "Schwebebalken": 6438,
      "befahrene": 6439,
      "Beginn": 6440,
      "Musikinstrumenten": 6441,
      "Absperrung": 6442,
      "Highschool": 6443,
      "ausgebreitet": 6444,
      "gerichtet": 6445,
      "Afrikaner": 6446,
      "faulenzt": 6447,
      "Kühl": 6448,
      "Stofftier": 6449,
      "Pyj": 6450,
      "Säge": 6451,
      "Urlaub": 6452,
      "sorg": 6453,
      "sortiert": 6454,
      "tropischen": 6455,
      "gemusterten": 6456,
      "reflektierenden": 6457,
      "Leichtathlet": 6458,
      "Pony": 6459,
      "Tankstelle": 6460,
      "breit": 6461,
      "körben": 6462,
      "modernen": 6463,
      "iegs": 6464,
      "Wassermelonen": 6465,
      "Pflasterstraße": 6466,
      "wählt": 6467,
      "Kontrolle": 6468,
      "McDonalds": 6469,
      "Apple": 6470,
      "Position": 6471,
      "Seni": 6472,
      "einfachen": 6473,
      "gestürzten": 6474,
      "Rodeoreiter": 6475,
      "gefleckter": 6476,
      "Objekte": 6477,
      "Kaffeetasse": 6478,
      "Bananen": 6479,
      "Stammeskleidung": 6480,
      "Zebrastreifen": 6481,
      "Habseligkeiten": 6482,
      "trottet": 6483,
      "verschwommen": 6484,
      "hochzuklettern": 6485,
      "Toiletten": 6486,
      "krabbelt": 6487,
      "burgunderroten": 6488,
      "historischen": 6489,
      "Popc": 6490,
      "Subway": 6491,
      "Wartungs": 6492,
      "Zuhör": 6493,
      "buckeln": 6494,
      "Staffelei": 6495,
      "Gesellschaft": 6496,
      "kontroll": 6497,
      "Aktentasche": 6498,
      "türkisen": 6499,
      "Friedenszeichen": 6500,
      "geflochtenen": 6501,
      "Schokoladen": 6502,
      "Blazer": 6503,
      "Barkeeper": 6504,
      "Digital": 6505,
      "Glastür": 6506,
      "Hubschrauber": 6507,
      "Nadel": 6508,
      "Struktur": 6509,
      "hochhackigen": 6510,
      "Kameramann": 6511,
      "Indianer": 6512,
      "Verschiedene": 6513,
      "schlafend": 6514,
      "Müllcontainer": 6515,
      "Brautjungfern": 6516,
      "Gesichtsausdruck": 6517,
      "ausgebreiteten": 6518,
      "Smartphone": 6519,
      "Dschungel": 6520,
      "Ereignis": 6521,
      "Gokart": 6522,
      "Jenga": 6523,
      "Square": 6524,
      "Zutaten": 6525,
      "bühne": 6526,
      "café": 6527,
      "kottchen": 6528,
      "beeindrucken": 6529,
      "entweder": 6530,
      "Baskenmütze": 6531,
      "Kopfsteinpflaster": 6532,
      "Berglandschaft": 6533,
      "Industr": 6534,
      "Wandmalerei": 6535,
      "00": 6536,
      "11": 6537,
      "Ac": 6538,
      "Abst": 6539,
      "Aktion": 6540,
      "Busch": 6541,
      "Cam": 6542,
      "Du": 6543,
      "Dis": 6544,
      "Dess": 6545,
      "Eist": 6546,
      "Fal": 6547,
      "Gän": 6548,
      "Haut": 6549,
      "Haken": 6550,
      "Ir": 6551,
      "Inner": 6552,
      "Jung": 6553,
      "Kund": 6554,
      "Kitt": 6555,
      "Kunde": 6556,
      "Kimon": 6557,
      "Lu": 6558,
      "Leit": 6559,
      "Mel": 6560,
      "Massen": 6561,
      "No": 6562,
      "Open": 6563,
      "Pad": 6564,
      "Ru": 6565,
      "Rall": 6566,
      "Ringen": 6567,
      "Rummel": 6568,
      "Sym": 6569,
      "SMS": 6570,
      "Trau": 6571,
      "Tren": 6572,
      "Tiger": 6573,
      "Tauch": 6574,
      "Tinten": 6575,
      "Tänzern": 6576,
      "Ult": 6577,
      "Van": 6578,
      "Wh": 6579,
      "Whe": 6580,
      "Wüsten": 6581,
      "Wände": 6582,
      "Zw": 6583,
      "Zelte": 6584,
      "ay": 6585,
      "bol": 6586,
      "car": 6587,
      "dü": 6588,
      "dit": 6589,
      "daf": 6590,
      "eter": 6591,
      "event": 6592,
      "fiel": 6593,
      "fisch": 6594,
      "glät": 6595,
      "gurt": 6596,
      "gläser": 6597,
      "hnen": 6598,
      "häu": 6599,
      "horts": 6600,
      "izen": 6601,
      "keine": 6602,
      "kie": 6603,
      "käu": 6604,
      "kart": 6605,
      "kof": 6606,
      "kicken": 6607,
      "kollegen": 6608,
      "lim": 6609,
      "mte": 6610,
      "mach": 6611,
      "meister": 6612,
      "motiv": 6613,
      "nei": 6614,
      "nte": 6615,
      "ost": 6616,
      "pan": 6617,
      "pier": 6618,
      "ple": 6619,
      "pla": 6620,
      "pern": 6621,
      "pinken": 6622,
      "packen": 6623,
      "pistole": 6624,
      "papier": 6625,
      "pipe": 6626,
      "rie": 6627,
      "ruft": 6628,
      "raufen": 6629,
      "sü": 6630,
      "san": 6631,
      "sät": 6632,
      "skop": 6633,
      "tion": 6634,
      "tänzer": 6635,
      "tackelt": 6636,
      "uell": 6637,
      "wend": 6638,
      "wink": 6639,
      "wahl": 6640,
      "waffe": 6641,
      "ye": 6642,
      "ßten": 6643,
      "üf": 6644,
      "ügel": 6645,
      "üssel": 6646,
      "übungen": 6647,
      "inde": 6648,
      "inis": 6649,
      "entr": 6650,
      "enkt": 6651,
      "erb": 6652,
      "erie": 6653,
      "erwischt": 6654,
      "erreicht": 6655,
      "erzäh": 6656,
      "einz": 6657,
      "einkaufen": 6658,
      "chtet": 6659,
      "chco": 6660,
      "außen": 6661,
      "aunen": 6662,
      "anschaut": 6663,
      "untr": 6664,
      "unktion": 6665,
      "unaufger": 6666,
      "Einrichtung": 6667,
      "schon": 6668,
      "schält": 6669,
      "schick": 6670,
      "schuss": 6671,
      "schippt": 6672,
      "stil": 6673,
      "stützt": 6674,
      "aufgeh": 6675,
      "aufhat": 6676,
      "aufrecht": 6677,
      "aufführung": 6678,
      "gekr": 6679,
      "gesenk": 6680,
      "gebeug": 6681,
      "arden": 6682,
      "arat": 6683,
      "armen": 6684,
      "arcours": 6685,
      "desten": 6686,
      "tennis": 6687,
      "order": 6688,
      "altet": 6689,
      "ckern": 6690,
      "spe": 6691,
      "splatz": 6692,
      "spiegel": 6693,
      "spassage": 6694,
      "gendet": 6695,
      "ichtet": 6696,
      "imate": 6697,
      "denschaft": 6698,
      "klein": 6699,
      "klasse": 6700,
      "zubereiten": 6701,
      "zuhören": 6702,
      "Schle": 6703,
      "Schär": 6704,
      "beigen": 6705,
      "bligen": 6706,
      "blumen": 6707,
      "nev": 6708,
      "besitz": 6709,
      "beschä": 6710,
      "bequ": 6711,
      "beson": 6712,
      "bestellt": 6713,
      "besuchen": 6714,
      "beendet": 6715,
      "ettel": 6716,
      "ethn": 6717,
      "umt": 6718,
      "umgestürzten": 6719,
      "ator": 6720,
      "atze": 6721,
      "pper": 6722,
      "Griff": 6723,
      "olf": 6724,
      "ollt": 6725,
      "euern": 6726,
      "schwarzweißer": 6727,
      "Stiel": 6728,
      "State": 6729,
      "Stelle": 6730,
      "Stücke": 6731,
      "irgendet": 6732,
      "Geste": 6733,
      "leb": 6734,
      "les": 6735,
      "leer": 6736,
      "leben": 6737,
      "lesung": 6738,
      "gerah": 6739,
      "geräte": 6740,
      "überblickt": 6741,
      "Spü": 6742,
      "Spag": 6743,
      "untergeht": 6744,
      "pflan": 6745,
      "pfang": 6746,
      "pfütze": 6747,
      "verw": 6748,
      "verär": 6749,
      "verschm": 6750,
      "verlegt": 6751,
      "verfolgen": 6752,
      "Hemdbluse": 6753,
      "Wasserball": 6754,
      "Wasserfon": 6755,
      "durchsucht": 6756,
      "boss": 6757,
      "booten": 6758,
      "boote": 6759,
      "abgest": 6760,
      "absperr": 6761,
      "abwärts": 6762,
      "teilnimmt": 6763,
      "Bob": 6764,
      "Spielzeugen": 6765,
      "Spielzeuge": 6766,
      "Spielmanns": 6767,
      "heran": 6768,
      "immten": 6769,
      "kleinere": 6770,
      "oshirt": 6771,
      "gehenden": 6772,
      "zenerie": 6773,
      "angemal": 6774,
      "wirken": 6775,
      "Brief": 6776,
      "Fußweg": 6777,
      "Blument": 6778,
      "Bleist": 6779,
      "igolf": 6780,
      "uller": 6781,
      "versehen": 6782,
      "boarden": 6783,
      "Trinken": 6784,
      "Strandpromenade": 6785,
      "nachten": 6786,
      "geste": 6787,
      "hochhält": 6788,
      "hochspringt": 6789,
      "Tische": 6790,
      "Tischdecke": 6791,
      "Tischtennis": 6792,
      "ückten": 6793,
      "zugs": 6794,
      "agiert": 6795,
      "Anzeige": 6796,
      "stron": 6797,
      "strickt": 6798,
      "strahlen": 6799,
      "befrei": 6800,
      "Fußballspielen": 6801,
      "Fußballteams": 6802,
      "schnitten": 6803,
      "ffet": 6804,
      "ettert": 6805,
      "deckten": 6806,
      "uchs": 6807,
      "Straßenbahn": 6808,
      "Straßenmarkt": 6809,
      "obwohl": 6810,
      "Ind": 6811,
      "Inhalt": 6812,
      "drängt": 6813,
      "Pferdes": 6814,
      "Sandskulptur": 6815,
      "Motorboot": 6816,
      "rothaarigen": 6817,
      "bedeckter": 6818,
      "Gehwegs": 6819,
      "Skateboardpark": 6820,
      "Skateboardtrick": 6821,
      "hellgelben": 6822,
      "hellbraune": 6823,
      "hellbraunem": 6824,
      "Arbeiten": 6825,
      "Techn": 6826,
      "wiegt": 6827,
      "wiese": 6828,
      "ford": 6829,
      "Schwimmwesten": 6830,
      "gegenstand": 6831,
      "Seatt": 6832,
      "Aufschlag": 6833,
      "Aufmerksam": 6834,
      "Baseballkleidung": 6835,
      "Holzplat": 6836,
      "Baums": 6837,
      "Bürste": 6838,
      "Reisen": 6839,
      "Reise": 6840,
      "Meg": 6841,
      "lok": 6842,
      "loch": 6843,
      "gebacken": 6844,
      "gebauten": 6845,
      "Radrennfahrer": 6846,
      "Schloss": 6847,
      "Motorradfahrern": 6848,
      "kommun": 6849,
      "komple": 6850,
      "räumen": 6851,
      "händ": 6852,
      "hänget": 6853,
      "Krug": 6854,
      "Pfannen": 6855,
      "platziert": 6856,
      "dreiköpfige": 6857,
      "Musikern": 6858,
      "qual": 6859,
      "schlacht": 6860,
      "Autositz": 6861,
      "Tennisschuhen": 6862,
      "Armband": 6863,
      "wäre": 6864,
      "akrobat": 6865,
      "Eislaufen": 6866,
      "Eisbahn": 6867,
      "Berggi": 6868,
      "Mikrofone": 6869,
      "Mikrofonen": 6870,
      "Poloshirt": 6871,
      "Vorlesung": 6872,
      "Lecker": 6873,
      "essend": 6874,
      "gelbbrauner": 6875,
      "Blumenstrauß": 6876,
      "Pose": 6877,
      "Badekleidung": 6878,
      "gemüt": 6879,
      "tresen": 6880,
      "springenden": 6881,
      "hüte": 6882,
      "schmettert": 6883,
      "iven": 6884,
      "ivität": 6885,
      "Karnev": 6886,
      "Maulkörben": 6887,
      "Toten": 6888,
      "knie": 6889,
      "Metallzaun": 6890,
      "Ausschau": 6891,
      "Auswahl": 6892,
      "Umhängen": 6893,
      "Umhänget": 6894,
      "essor": 6895,
      "autos": 6896,
      "flu": 6897,
      "fluss": 6898,
      "Seilspringen": 6899,
      "Schnell": 6900,
      "Schnuller": 6901,
      "digt": 6902,
      "geschäftige": 6903,
      "Einkaufspassage": 6904,
      "Betonbank": 6905,
      "Landkarte": 6906,
      "offener": 6907,
      "mechan": 6908,
      "Promenade": 6909,
      "Schauspieler": 6910,
      "Gemein": 6911,
      "kröte": 6912,
      "Ord": 6913,
      "servieren": 6914,
      "Cowgirl": 6915,
      "geradeaus": 6916,
      "hemden": 6917,
      "Bikinis": 6918,
      "Teenagerin": 6919,
      "Saal": 6920,
      "Garagen": 6921,
      "kehren": 6922,
      "wenig": 6923,
      "Kampfkunst": 6924,
      "bereitung": 6925,
      "manövr": 6926,
      "werkzeug": 6927,
      "Mülltüte": 6928,
      "nav": 6929,
      "nackten": 6930,
      "nacktes": 6931,
      "Schale": 6932,
      "Fußgängerbrücke": 6933,
      "nichts": 6934,
      "Nachtclub": 6935,
      "Wettlauf": 6936,
      "balgen": 6937,
      "Rollern": 6938,
      "Mannschaftsk": 6939,
      "farbenfroh": 6940,
      "köpfigen": 6941,
      "skuchen": 6942,
      "Gebir": 6943,
      "Schülerin": 6944,
      "Kegeln": 6945,
      "Hochzeitskleidung": 6946,
      "Hochzeitstorte": 6947,
      "leidenschaft": 6948,
      "jüngeres": 6949,
      "Bulle": 6950,
      "Kathedr": 6951,
      "Wohnung": 6952,
      "selben": 6953,
      "Liebl": 6954,
      "Tänzerinnen": 6955,
      "mädchen": 6956,
      "sägen": 6957,
      "studiert": 6958,
      "Fingernä": 6959,
      "Ohrhör": 6960,
      "schaffen": 6961,
      "gegenüberliegenden": 6962,
      "Chirur": 6963,
      "pinkfarbene": 6964,
      "Werkzeugen": 6965,
      "verkleideter": 6966,
      "füttern": 6967,
      "Fernrohr": 6968,
      "Kirchen": 6969,
      "ordnet": 6970,
      "bike": 6971,
      "Schwanz": 6972,
      "ausgestopf": 6973,
      "oberfläche": 6974,
      "äumten": 6975,
      "glückliches": 6976,
      "abgedunkelten": 6977,
      "Steg": 6978,
      "Schaufeln": 6979,
      "schmutziges": 6980,
      "Golfplatz": 6981,
      "chinesischer": 6982,
      "erwachsenen": 6983,
      "plant": 6984,
      "Rückwärtss": 6985,
      "buntem": 6986,
      "buntes": 6987,
      "dienung": 6988,
      "geschminkt": 6989,
      "kompliz": 6990,
      "Karateanzug": 6991,
      "Karateanzügen": 6992,
      "schaufel": 6993,
      "Zähnen": 6994,
      "Terrier": 6995,
      "wurden": 6996,
      "Bullenreiter": 6997,
      "seits": 6998,
      "seitlich": 6999,
      "Seitenlinie": 7000,
      "Schaufensterfront": 7001,
      "Softballspiel": 7002,
      "Polizeibeam": 7003,
      "Wanderweg": 7004,
      "uniformierte": 7005,
      "Montur": 7006,
      "mehrfarbige": 7007,
      "schweren": 7008,
      "Schwertern": 7009,
      "Gewehren": 7010,
      "fröhliches": 7011,
      "Küchentresen": 7012,
      "Doppel": 7013,
      "goldfarbenen": 7014,
      "Taucheranzug": 7015,
      "Kabeln": 7016,
      "pflückt": 7017,
      "unterschiedlicher": 7018,
      "ica": 7019,
      "kunstvollen": 7020,
      "dekorierten": 7021,
      "verlassenen": 7022,
      "Professor": 7023,
      "Violett": 7024,
      "tätowierter": 7025,
      "Schiffs": 7026,
      "begutachten": 7027,
      "Spazierstock": 7028,
      "Amboss": 7029,
      "Joggen": 7030,
      "Pitch": 7031,
      "kaukas": 7032,
      "welche": 7033,
      "klatschen": 7034,
      "entgegenges": 7035,
      "Freizeitkleidung": 7036,
      "Weihnachtsmannkostüm": 7037,
      "Hochzeitskleid": 7038,
      "Notizen": 7039,
      "Modellflugzeug": 7040,
      "Videospiele": 7041,
      "Chines": 7042,
      "wolk": 7043,
      "schlecht": 7044,
      "Krankenhausbett": 7045,
      "Gürteln": 7046,
      "Gummi": 7047,
      "Minigolf": 7048,
      "Essenswagen": 7049,
      "Warnwesten": 7050,
      "Körbe": 7051,
      "brochen": 7052,
      "minton": 7053,
      "Gesichter": 7054,
      "Plüsch": 7055,
      "Batik": 7056,
      "Lippenstift": 7057,
      "intensiv": 7058,
      "blätter": 7059,
      "blättern": 7060,
      "Klappstühlen": 7061,
      "geschminkten": 7062,
      "Bordsteinkante": 7063,
      "Schotterweg": 7064,
      "Schotterstraße": 7065,
      "Badminton": 7066,
      "Limon": 7067,
      "Limous": 7068,
      "stoßen": 7069,
      "ängst": 7070,
      "Dunkeln": 7071,
      "Paket": 7072,
      "Punkten": 7073,
      "trommelt": 7074,
      "umgedreh": 7075,
      "Saiteninstrument": 7076,
      "Khakihose": 7077,
      "Miami": 7078,
      "Sackhüpfen": 7079,
      "ailing": 7080,
      "bälle": 7081,
      "theke": 7082,
      "inspizieren": 7083,
      "inspiziert": 7084,
      "einzufangen": 7085,
      "Hotdogs": 7086,
      "brechenden": 7087,
      "Pyrami": 7088,
      "rauchend": 7089,
      "Holztisch": 7090,
      "Durchgang": 7091,
      "täg": 7092,
      "tiefen": 7093,
      "regenbogen": 7094,
      "Bandmitglieder": 7095,
      "Bahngleisen": 7096,
      "Eiswaffeln": 7097,
      "marineblauen": 7098,
      "Möbelstück": 7099,
      "türkisfarbenen": 7100,
      "Fitnessstudio": 7101,
      "Zuckerw": 7102,
      "angelein": 7103,
      "pflegten": 7104,
      "Beamte": 7105,
      "Begleiter": 7106,
      "Bulldo": 7107,
      "Liegestühlen": 7108,
      "Krankenschwestern": 7109,
      "Flanell": 7110,
      "Hörsaal": 7111,
      "Kiefern": 7112,
      "Pinata": 7113,
      "Salat": 7114,
      "lohfarbener": 7115,
      "trocknet": 7116,
      "Frühstück": 7117,
      "Schaulustige": 7118,
      "Obdachloser": 7119,
      "Schmetterling": 7120,
      "Kulisse": 7121,
      "crew": 7122,
      "fältig": 7123,
      "weinendes": 7124,
      "Speisekarte": 7125,
      "Textnach": 7126,
      "Schwimmflügeln": 7127,
      "Hüpfburg": 7128,
      "akustische": 7129,
      "Hindernisparcours": 7130,
      "ärmellosem": 7131,
      "geöffnetem": 7132,
      "Besuch": 7133,
      "Empfang": 7134,
      "Hydranten": 7135,
      "Thema": 7136,
      "blühenden": 7137,
      "beaufsicht": 7138,
      "beteiligt": 7139,
      "befindlichen": 7140,
      "Konfetti": 7141,
      "Betonplatte": 7142,
      "Parasailing": 7143,
      "Dekorationen": 7144,
      "wetteifern": 7145,
      "Stabhochsprung": 7146,
      "fasziniert": 7147,
      "Aquarium": 7148,
      "Domino": 7149,
      "Kämpfer": 7150,
      "Magaz": 7151,
      "Tempel": 7152,
      "Wunderker": 7153,
      "iPod": 7154,
      "outfit": 7155,
      "stämm": 7156,
      "Schrauben": 7157,
      "Leoparden": 7158,
      "Weihnachten": 7159,
      "Schnorchel": 7160,
      "Sooners": 7161,
      "bewohner": 7162,
      "abgesperrten": 7163,
      "Bücherregal": 7164,
      "Filzhut": 7165,
      "dekorativen": 7166,
      "aufgeblasenen": 7167,
      "Pyjama": 7168,
      "sorgfältig": 7169,
      "Senioren": 7170,
      "Popcorn": 7171,
      "Digitalkamera": 7172,
      "Nadelstreifen": 7173,
      "Kopfsteinpflasterstraße": 7174,
      "Industrie": 7175,
      "Rallye": 7176,
      "Trenchco": 7177,
      "Ultimate": 7178,
      "eventuell": 7179,
      "koffer": 7180,
      "untry": 7181,
      "unaufgeräumten": 7182,
      "gesenktem": 7183,
      "destens": 7184,
      "beschädig": 7185,
      "bequem": 7186,
      "irgendetwas": 7187,
      "verärgert": 7188,
      "Wasserfontä": 7189,
      "Seattle": 7190,
      "Aufmerksamkeit": 7191,
      "komplex": 7192,
      "Kathedrale": 7193,
      "Limousine": 7194,
      "Pyramide": 7195,
      "Zuckerwatte": 7196,
      "Trenchcoat": 7197,
      ".“": 7198,
      "0er": 7199,
      "Ant": 7200,
      "Acker": 7201,
      "Bö": 7202,
      "Butter": 7203,
      "Bahnen": 7204,
      "Cap": 7205,
      "Dir": 7206,
      "Dirt": 7207,
      "Dart": 7208,
      "Drä": 7209,
      "Dog": 7210,
      "Denk": 7211,
      "Eben": 7212,
      "Fund": 7213,
      "Fro": 7214,
      "Fast": 7215,
      "Gäste": 7216,
      "Hel": 7217,
      "Hüh": 7218,
      "Hüt": 7219,
      "Hart": 7220,
      "Is": 7221,
      "ICE": 7222,
      "Kau": 7223,
      "Kre": 7224,
      "Kirm": 7225,
      "Kutsche": 7226,
      "Kollegen": 7227,
      "Li": 7228,
      "Len": 7229,
      "Lob": 7230,
      "Ladung": 7231,
      "Meh": 7232,
      "Mach": 7233,
      "Misch": 7234,
      "Mast": 7235,
      "Mater": 7236,
      "Mini": 7237,
      "Motiv": 7238,
      "Messe": 7239,
      "Nasen": 7240,
      "Nudeln": 7241,
      "Pan": 7242,
      "Pend": 7243,
      "Pack": 7244,
      "Pian": 7245,
      "Punkt": 7246,
      "Reit": 7247,
      "Runde": 7248,
      "Rampen": 7249,
      "San": 7250,
      "Sam": 7251,
      "Saft": 7252,
      "Söh": 7253,
      "Sumpf": 7254,
      "Synchron": 7255,
      "Tun": 7256,
      "Tab": 7257,
      "Tast": 7258,
      "Tief": 7259,
      "Tüte": 7260,
      "Tellern": 7261,
      "UN": 7262,
      "Vie": 7263,
      "WA": 7264,
      "Wäl": 7265,
      "Wort": 7266,
      "Wangen": 7267,
      "Wash": 7268,
      "Zom": 7269,
      "Zehen": 7270,
      "adenen": 7271,
      "bö": 7272,
      "bon": 7273,
      "bter": 7274,
      "biet": 7275,
      "bellen": 7276,
      "bumm": 7277,
      "bündel": 7278,
      "badet": 7279,
      "cap": 7280,
      "cing": 7281,
      "dhof": 7282,
      "dicker": 7283,
      "eo": 7284,
      "fä": 7285,
      "fein": 7286,
      "feh": 7287,
      "fchen": 7288,
      "fass": 7289,
      "furch": 7290,
      "fpipe": 7291,
      "funktion": 7292,
      "gür": 7293,
      "gäh": 7294,
      "gumm": 7295,
      "gäste": 7296,
      "ha": 7297,
      "han": 7298,
      "ham": 7299,
      "häm": 7300,
      "hütte": 7301,
      "iot": 7302,
      "iqu": 7303,
      "jüd": 7304,
      "kein": 7305,
      "küh": 7306,
      "ktem": 7307,
      "kisten": 7308,
      "kater": 7309,
      "kolle": 7310,
      "künst": 7311,
      "kissen": 7312,
      "kiste": 7313,
      "kippt": 7314,
      "leit": 7315,
      "letzten": 7316,
      "mi": 7317,
      "motor": 7318,
      "mischer": 7319,
      "misst": 7320,
      "motorrad": 7321,
      "museum": 7322,
      "nam": 7323,
      "nchen": 7324,
      "nasse": 7325,
      "nippt": 7326,
      "pit": 7327,
      "por": 7328,
      "piste": 7329,
      "rasse": 7330,
      "rückt": 7331,
      "rid": 7332,
      "rustik": 7333,
      "ses": 7334,
      "sänger": 7335,
      "sgeschäft": 7336,
      "sumpf": 7337,
      "synchron": 7338,
      "ta": 7339,
      "tuch": 7340,
      "uen": 7341,
      "utet": 7342,
      "ufern": 7343,
      "vo": 7344,
      "vis": 7345,
      "viet": 7346,
      "völ": 7347,
      "wt": 7348,
      "winken": 7349,
      "waten": 7350,
      "wadet": 7351,
      "winz": 7352,
      "ys": 7353,
      "zz": 7354,
      "zchen": 7355,
      "zettel": 7356,
      "Übungen": 7357,
      "ßlich": 7358,
      "äter": 7359,
      "öße": 7360,
      "ügt": 7361,
      "inform": 7362,
      "enen": 7363,
      "enge": 7364,
      "erhalten": 7365,
      "erzielen": 7366,
      "einig": 7367,
      "einschlie": 7368,
      "anschauen": 7369,
      "anscheinen": 7370,
      "anzeige": 7371,
      "unner": 7372,
      "Einfahrt": 7373,
      "eien": 7374,
      "eignis": 7375,
      "eleine": 7376,
      "elie": 7377,
      "schu": 7378,
      "schigen": 7379,
      "schrä": 7380,
      "schale": 7381,
      "schwarm": 7382,
      "steine": 7383,
      "stro": 7384,
      "stall": 7385,
      "stol": 7386,
      "stimmt": 7387,
      "aufgaben": 7388,
      "geg": 7389,
      "geschen": 7390,
      "gesen": 7391,
      "gewe": 7392,
      "gefähr": 7393,
      "gesicht": 7394,
      "geschl": 7395,
      "gejagt": 7396,
      "gebogen": 7397,
      "geBob": 7398,
      "mitte": 7399,
      "arab": 7400,
      "ards": 7401,
      "ied": 7402,
      "iester": 7403,
      "ongeBob": 7404,
      "deutsche": 7405,
      "deutet": 7406,
      "weite": 7407,
      "ore": 7408,
      "alie": 7409,
      "alber": 7410,
      "teur": 7411,
      "tetes": 7412,
      "trü": 7413,
      "trie": 7414,
      "trennt": 7415,
      "triot": 7416,
      "ichter": 7417,
      "imen": 7418,
      "klich": 7419,
      "klass": 7420,
      "klapp": 7421,
      "zugeht": 7422,
      "zueinander": 7423,
      "zupft": 7424,
      "Schweiß": 7425,
      "Schalter": 7426,
      "School": 7427,
      "Schanze": 7428,
      "beruh": 7429,
      "blöcke": 7430,
      "nebligen": 7431,
      "reich": 7432,
      "reist": 7433,
      "reihen": 7434,
      "besch": 7435,
      "bess": 7436,
      "beenden": 7437,
      "besprüh": 7438,
      "beugen": 7439,
      "bevöl": 7440,
      "ierigkeiten": 7441,
      "sitzend": 7442,
      "vorbereiten": 7443,
      "vorstellung": 7444,
      "etch": 7445,
      "umor": 7446,
      "umklammert": 7447,
      "atuen": 7448,
      "demon": 7449,
      "ware": 7450,
      "uren": 7451,
      "älte": 7452,
      "ilde": 7453,
      "utlich": 7454,
      "euen": 7455,
      "eudert": 7456,
      "schwarzweißen": 7457,
      "ota": 7458,
      "Staff": 7459,
      "Stoß": 7460,
      "Sturm": 7461,
      "Stopp": 7462,
      "Sturz": 7463,
      "blaugrünen": 7464,
      "Straf": 7465,
      "läss": 7466,
      "läufern": 7467,
      "Ged": 7468,
      "leere": 7469,
      "lehrt": 7470,
      "gerei": 7471,
      "überw": 7472,
      "überwie": 7473,
      "übersä": 7474,
      "überkreuzten": 7475,
      "esst": 7476,
      "iko": 7477,
      "ikatur": 7478,
      "Spider": 7479,
      "SpongeBob": 7480,
      "istolen": 7481,
      "reagieren": 7482,
      "Klarin": 7483,
      "unterhalb": 7484,
      "pfe": 7485,
      "verzieht": 7486,
      "verbringen": 7487,
      "verkehrt": 7488,
      "verteilen": 7489,
      "vereisten": 7490,
      "verdienen": 7491,
      "verdunkelten": 7492,
      "ckepack": 7493,
      "isur": 7494,
      "ington": 7495,
      "Wasserfahrzeug": 7496,
      "Wasserlauf": 7497,
      "Kindergruppe": 7498,
      "heke": 7499,
      "hechtet": 7500,
      "durchsicht": 7501,
      "sitzendes": 7502,
      "ellauf": 7503,
      "grüßen": 7504,
      "fahrzeuge": 7505,
      "Handgelenk": 7506,
      "boter": 7507,
      "book": 7508,
      "lieb": 7509,
      "weißhaariger": 7510,
      "ktor": 7511,
      "teiligen": 7512,
      "Boogie": 7513,
      "Spielzug": 7514,
      "herz": 7515,
      "herein": 7516,
      "Oberhemd": 7517,
      "zweiter": 7518,
      "zweiten": 7519,
      "osk": 7520,
      "osn": 7521,
      "angeb": 7522,
      "igebiet": 7523,
      "farbenes": 7524,
      "Arch": 7525,
      "halm": 7526,
      "wirbt": 7527,
      "brät": 7528,
      "Fahrradreifen": 7529,
      "Skist": 7530,
      "Skigebiet": 7531,
      "Fußtritt": 7532,
      "Fußboden": 7533,
      "Blu": 7534,
      "Ballbesitz": 7535,
      "igner": 7536,
      "uldig": 7537,
      "Freiheit": 7538,
      "Bauer": 7539,
      "Tritt": 7540,
      "gestapel": 7541,
      "gestützt": 7542,
      "ört": 7543,
      "vorbeifahren": 7544,
      "hochklettert": 7545,
      "zuguckt": 7546,
      "zugucken": 7547,
      "Haarschnitt": 7548,
      "agg": 7549,
      "Anlage": 7550,
      "Ansammlung": 7551,
      "Angriff": 7552,
      "lenkt": 7553,
      "oranges": 7554,
      "Floh": 7555,
      "scheck": 7556,
      "befragt": 7557,
      "schnur": 7558,
      "ingham": 7559,
      "oper": 7560,
      "Parks": 7561,
      "ammung": 7562,
      "Skates": 7563,
      "grauhaarige": 7564,
      "grauhaariger": 7565,
      "decker": 7566,
      "uche": 7567,
      "uchten": 7568,
      "Straßenla": 7569,
      "Straßencafé": 7570,
      "Stadtplatz": 7571,
      "mast": 7572,
      "obdach": 7573,
      "ärten": 7574,
      "Informationen": 7575,
      "Autor": 7576,
      "drücken": 7577,
      "druckt": 7578,
      "drängen": 7579,
      "wache": 7580,
      "Skateboardrampe": 7581,
      "hellrosa": 7582,
      "laufender": 7583,
      "laufende": 7584,
      "Babyschaukel": 7585,
      "Schwimmerin": 7586,
      "tanz": 7587,
      "beladenen": 7588,
      "afting": 7589,
      "Bedienung": 7590,
      "Aufgabe": 7591,
      "Aufwärmen": 7592,
      "Untern": 7593,
      "Holzst": 7594,
      "Holzstuhl": 7595,
      "Holzboot": 7596,
      "betritt": 7597,
      "betrieben": 7598,
      "betrunken": 7599,
      "betrieb": 7600,
      "Meter": 7601,
      "Medizin": 7602,
      "ussel": 7603,
      "izist": 7604,
      "gebück": 7605,
      "Radio": 7606,
      "Motorradrennen": 7607,
      "rädr": 7608,
      "räumt": 7609,
      "Krab": 7610,
      "Pfau": 7611,
      "Pfoten": 7612,
      "Front": 7613,
      "zerbrochen": 7614,
      "Seife": 7615,
      "Tennisspielen": 7616,
      "Kunstausstellung": 7617,
      "frisur": 7618,
      "sstatue": 7619,
      "Restaurantküche": 7620,
      "Pulver": 7621,
      "Tax": 7622,
      "Spritz": 7623,
      "Sprache": 7624,
      "Bergsteigen": 7625,
      "Berghang": 7626,
      "anzugreifen": 7627,
      "kosten": 7628,
      "Rollen": 7629,
      "Bären": 7630,
      "Vordach": 7631,
      "Sportplatz": 7632,
      "Fensterputzer": 7633,
      "Blumenwiese": 7634,
      "Power": 7635,
      "gemach": 7636,
      "gemisch": 7637,
      "gemalten": 7638,
      "Kleinigkeit": 7639,
      "Kleinstadt": 7640,
      "Karikatur": 7641,
      "Lachen": 7642,
      "Lappen": 7643,
      "azz": 7644,
      "Schutzwesten": 7645,
      "gesellschaft": 7646,
      "fechten": 7647,
      "Metallgegenstand": 7648,
      "Auszeichnung": 7649,
      "Surfen": 7650,
      "attack": 7651,
      "gewonnen": 7652,
      "Als": 7653,
      "Alte": 7654,
      "aschine": 7655,
      "fleisch": 7656,
      "amerikaner": 7657,
      "Seilschaukel": 7658,
      "Kongress": 7659,
      "Schnür": 7660,
      "Schulk": 7661,
      "Marktstand": 7662,
      "Roboter": 7663,
      "mänteln": 7664,
      "Rennbahn": 7665,
      "schön": 7666,
      "schöpft": 7667,
      "Gegenspieler": 7668,
      "Betonrampe": 7669,
      "pustet": 7670,
      "medit": 7671,
      "vierköpfige": 7672,
      "kragen": 7673,
      "sportler": 7674,
      "Büsche": 7675,
      "Büchern": 7676,
      "Comic": 7677,
      "Toreinfahrt": 7678,
      "Schwarze": 7679,
      "Rollstühlen": 7680,
      "befestigen": 7681,
      "Abdeck": 7682,
      "Abhang": 7683,
      "Abschluss": 7684,
      "Türeingang": 7685,
      "hauses": 7686,
      "Juwel": 7687,
      "Spielplatzgerät": 7688,
      "Unterricht": 7689,
      "Halsketten": 7690,
      "Dreh": 7691,
      "Drag": 7692,
      "Zigaretten": 7693,
      "Kanal": 7694,
      "schüttet": 7695,
      "führenden": 7696,
      "Wintermantel": 7697,
      "Freundes": 7698,
      "Freundinnen": 7699,
      "probt": 7700,
      "heißt": 7701,
      "turnier": 7702,
      "streiten": 7703,
      "Korrid": 7704,
      "außerdem": 7705,
      "Golden": 7706,
      "Uferweg": 7707,
      "verschiedenfarbigen": 7708,
      "jemandes": 7709,
      "erledigen": 7710,
      "Läufern": 7711,
      "gefäl": 7712,
      "farbenfrohe": 7713,
      "Gartenstuhl": 7714,
      "Deut": 7715,
      "issenen": 7716,
      "Artikel": 7717,
      "Weihnachtsgeschen": 7718,
      "Country": 7719,
      "Grills": 7720,
      "Obama": 7721,
      "ski": 7722,
      "Vaters": 7723,
      "Brunnens": 7724,
      "Beim": 7725,
      "Polizistin": 7726,
      "Klettern": 7727,
      "Kletterwand": 7728,
      "fälle": 7729,
      "schwimmenden": 7730,
      "Kerze": 7731,
      "duscht": 7732,
      "Schminke": 7733,
      "schlafender": 7734,
      "schlafenden": 7735,
      "Warenkorb": 7736,
      "säcken": 7737,
      "Mac": 7738,
      "Make": 7739,
      "Ledermantel": 7740,
      "Geiger": 7741,
      "pullover": 7742,
      "Marathonlauf": 7743,
      "Vide": 7744,
      "kappen": 7745,
      "fallenden": 7746,
      "balancieren": 7747,
      "Schwamm": 7748,
      "Schwierigkeiten": 7749,
      "Backsteinwand": 7750,
      "handschuhen": 7751,
      "Huckepack": 7752,
      "Steak": 7753,
      "Steuer": 7754,
      "stattung": 7755,
      "schmutzige": 7756,
      "Golfspieler": 7757,
      "Jahre": 7758,
      "Militärs": 7759,
      "ähnliche": 7760,
      "ähnliches": 7761,
      "behand": 7762,
      "behinder": 7763,
      "eisenbahn": 7764,
      "Lastwagens": 7765,
      "Federn": 7766,
      "plane": 7767,
      "Schaufenstern": 7768,
      "geschmückten": 7769,
      "Kopftüchern": 7770,
      "Objektiv": 7771,
      "fliegende": 7772,
      "Verkaufs": 7773,
      "felsige": 7774,
      "Geschäftsmann": 7775,
      "Balkonen": 7776,
      "Wäsch": 7777,
      "Weingläsern": 7778,
      "üsse": 7779,
      "eigung": 7780,
      "brünettes": 7781,
      "Blattwerk": 7782,
      "Außenseite": 7783,
      "Schädel": 7784,
      "Gewicht": 7785,
      "stöcke": 7786,
      "stöbern": 7787,
      "Schrank": 7788,
      "Eishockeyspiel": 7789,
      "Day": 7790,
      "Flieger": 7791,
      "Priester": 7792,
      "bieten": 7793,
      "richtig": 7794,
      "einzelne": 7795,
      "Erdboden": 7796,
      "instrumenten": 7797,
      "Head": 7798,
      "Kamin": 7799,
      "mehrfarb": 7800,
      "geschnitz": 7801,
      "ausgestrecktem": 7802,
      "Blätterhaufen": 7803,
      "geschossen": 7804,
      "neugeboren": 7805,
      "neugeborenes": 7806,
      "besuchten": 7807,
      "dunkelhaariges": 7808,
      "streicheln": 7809,
      "vornüber": 7810,
      "pflügt": 7811,
      "barfüßiges": 7812,
      "unterschiedliche": 7813,
      "verliert": 7814,
      "verloren": 7815,
      "verletzt": 7816,
      "verlassene": 7817,
      "Plakatwand": 7818,
      "Schotten": 7819,
      "Rucksäcke": 7820,
      "Lehrerin": 7821,
      "kaput": 7822,
      "Skulpturen": 7823,
      "Bekleidungsgeschäft": 7824,
      "Kniestrüm": 7825,
      "Hochzeitsfeier": 7826,
      "Hochzeitsgesellschaft": 7827,
      "Halfpipe": 7828,
      "Hafengebiet": 7829,
      "Werkzeuggür": 7830,
      "Elternteil": 7831,
      "Afroamerikanerin": 7832,
      "bewundern": 7833,
      "bettelt": 7834,
      "Collie": 7835,
      "mindestens": 7836,
      "Ärmel": 7837,
      "Ärmeln": 7838,
      "Bauernhof": 7839,
      "flauschigen": 7840,
      "Kamelen": 7841,
      "dünne": 7842,
      "freund": 7843,
      "blättert": 7844,
      "Konferenzt": 7845,
      "geschminktem": 7846,
      "Wasserskifahrer": 7847,
      "Superman": 7848,
      "Heißluftballons": 7849,
      "Operationssaal": 7850,
      "Haupt": 7851,
      "würden": 7852,
      "Schwester": 7853,
      "Balletttänzer": 7854,
      "Orangensaft": 7855,
      "Athlet": 7856,
      "Patient": 7857,
      "Plane": 7858,
      "flieger": 7859,
      "poliert": 7860,
      "politischen": 7861,
      "erleuchtet": 7862,
      "zugewandt": 7863,
      "gerichteten": 7864,
      "vermutlich": 7865,
      "Reklame": 7866,
      "Friedhof": 7867,
      "Afrikanische": 7868,
      "Fackeln": 7869,
      "Mix": 7870,
      "masken": 7871,
      "anzuziehen": 7872,
      "scharfe": 7873,
      "spanischer": 7874,
      "großem": 7875,
      "herrlichen": 7876,
      "bräunlicher": 7877,
      "Masken": 7878,
      "Maskottchen": 7879,
      "Sari": 7880,
      "figuren": 7881,
      "sortieren": 7882,
      "Älterer": 7883,
      "Städt": 7884,
      "lackiert": 7885,
      "Schneehaufen": 7886,
      "Japaner": 7887,
      "Ponch": 7888,
      "metall": 7889,
      "Schusswaffe": 7890,
      "interessanten": 7891,
      "Wassermelone": 7892,
      "langärmligen": 7893,
      "Regal": 7894,
      "Kragenhemd": 7895,
      "Eiswaffel": 7896,
      "Fliesenboden": 7897,
      "McDonald": 7898,
      "Zucker": 7899,
      "gedrängt": 7900,
      "Hängebrücke": 7901,
      "knallbunten": 7902,
      "Matrosen": 7903,
      "Matratze": 7904,
      "Krankenschwester": 7905,
      "traurig": 7906,
      "Kites": 7907,
      "Riesen": 7908,
      "Riemen": 7909,
      "bude": 7910,
      "rundes": 7911,
      "wissenschaftliches": 7912,
      "Schaumbad": 7913,
      "Skilift": 7914,
      "medizinischen": 7915,
      "blondhaariges": 7916,
      "Rednerpult": 7917,
      "verbundenen": 7918,
      "Design": 7919,
      "Harfe": 7920,
      "Lichtern": 7921,
      "Mönch": 7922,
      "Zeichnung": 7923,
      "bastelt": 7924,
      "kastanienbraunen": 7925,
      "erhöhten": 7926,
      "gesprei": 7927,
      "grinsen": 7928,
      "geholfen": 7929,
      "verwirrt": 7930,
      "Pferderennen": 7931,
      "flaches": 7932,
      "nächtlichen": 7933,
      "Bademantel": 7934,
      "Scheinwerferlicht": 7935,
      "unglücklich": 7936,
      "Diadem": 7937,
      "Tutu": 7938,
      "einheimischer": 7939,
      "olympischen": 7940,
      "wirtschaft": 7941,
      "Teddybär": 7942,
      "Bäckerei": 7943,
      "schreiendes": 7944,
      "Endzone": 7945,
      "Rollerskates": 7946,
      "kanadischen": 7947,
      "Schneemann": 7948,
      "Kartoffel": 7949,
      "verteidigen": 7950,
      "Braun": 7951,
      "Bongo": 7952,
      "Faust": 7953,
      "Führung": 7954,
      "Kastenwagen": 7955,
      "Lehm": 7956,
      "Lautsprecher": 7957,
      "Milch": 7958,
      "Nike": 7959,
      "Pingu": 7960,
      "Paint": 7961,
      "Wissenschaftler": 7962,
      "Zitronen": 7963,
      "gute": 7964,
      "harten": 7965,
      "schattigen": 7966,
      "steinernen": 7967,
      "getränk": 7968,
      "organis": 7969,
      "Männ": 7970,
      "interviewt": 7971,
      "Kokosn": 7972,
      "Transporter": 7973,
      "Truthahn": 7974,
      "befördert": 7975,
      "früchten": 7976,
      "Eisschnellläufer": 7977,
      "Labrador": 7978,
      "Dinosaurier": 7979,
      "Zuhörer": 7980,
      "buckelnden": 7981,
      "Abstammung": 7982,
      "Disney": 7983,
      "Dessert": 7984,
      "Inneren": 7985,
      "Ruinen": 7986,
      "Tauchausrüstung": 7987,
      "Tintenfisch": 7988,
      "Wheelie": 7989,
      "dafür": 7990,
      "wendung": 7991,
      "erzählt": 7992,
      "einzig": 7993,
      "schonern": 7994,
      "gerahmte": 7995,
      "pflanzt": 7996,
      "angemaltem": 7997,
      "gesteckt": 7998,
      "gemütlich": 7999,
      "fluteten": 8000,
      "Gemeinde": 8001,
      "Garagentor": 8002,
      "navigiert": 8003,
      "Mannschaftskollegen": 8004,
      "leidenschaftlich": 8005,
      "Lieblings": 8006,
      "plantscht": 8007,
      "Rückwärtssalto": 8008,
      "Bulldozer": 8009,
      "Textnachricht": 8010,
      "beaufsichtigt": 8011,
      "Dirigen": 8012,
      "Ebene": 8013,
      "Kirmes": 8014,
      "Lobby": 8015,
      "Mehl": 8016,
      "Material": 8017,
      "funktioniert": 8018,
      "einschließlich": 8019,
      "anscheinend": 8020,
      "stolpert": 8021,
      "Staffellauf": 8022,
      "Klarinette": 8023,
      "Flohmarkt": 8024,
      "Korridor": 8025,
      "Konferenztisch": 8026,
      "!“.": 8027,
      "19": 8028,
      "30": 8029,
      "Aschen": 8030,
      "Atem": 8031,
      "Affen": 8032,
      "Aid": 8033,
      "Bunge": 8034,
      "But": 8035,
      "Bust": 8036,
      "Benz": 8037,
      "Bärten": 8038,
      "CA": 8039,
      "Cy": 8040,
      "Can": 8041,
      "Cor": 8042,
      "Cal": 8043,
      "Cro": 8044,
      "Cur": 8045,
      "Cros": 8046,
      "Cart": 8047,
      "Chem": 8048,
      "Cone": 8049,
      "DS": 8050,
      "Dar": 8051,
      "Dingen": 8052,
      "Dok": 8053,
      "Disk": 8054,
      "Eich": 8055,
      "Ehem": 8056,
      "Eiern": 8057,
      "Fein": 8058,
      "Fähr": 8059,
      "Fond": 8060,
      "Funken": 8061,
      "GA": 8062,
      "GO": 8063,
      "Ga": 8064,
      "Got": 8065,
      "Hir": 8066,
      "Hus": 8067,
      "Henn": 8068,
      "Hacken": 8069,
      "Holl": 8070,
      "Happen": 8071,
      "Harmonika": 8072,
      "Hispan": 8073,
      "IN": 8074,
      "Jump": 8075,
      "Jazz": 8076,
      "Kal": 8077,
      "Kro": 8078,
      "Kle": 8079,
      "Kass": 8080,
      "Kenn": 8081,
      "Keller": 8082,
      "Kälte": 8083,
      "Lan": 8084,
      "Lot": 8085,
      "Los": 8086,
      "Lande": 8087,
      "Lama": 8088,
      "Mal": 8089,
      "Mich": 8090,
      "Maus": 8091,
      "Mehr": 8092,
      "Müt": 8093,
      "Mart": 8094,
      "Mak": 8095,
      "Matten": 8096,
      "Mama": 8097,
      "NY": 8098,
      "Nation": 8099,
      "Nacken": 8100,
      "Nudel": 8101,
      "Note": 8102,
      "Nonnen": 8103,
      "Oh": 8104,
      "Ox": 8105,
      "Okla": 8106,
      "Ped": 8107,
      "Piers": 8108,
      "Reh": 8109,
      "Rent": 8110,
      "Roben": 8111,
      "Rena": 8112,
      "Rudel": 8113,
      "Rängen": 8114,
      "Reinig": 8115,
      "SU": 8116,
      "Si": 8117,
      "Singen": 8118,
      "Sak": 8119,
      "Sco": 8120,
      "Sumor": 8121,
      "Tassen": 8122,
      "Tub": 8123,
      "Töpfen": 8124,
      "Teile": 8125,
      "Ve": 8126,
      "Wi": 8127,
      "Wor": 8128,
      "Wisch": 8129,
      "Weit": 8130,
      "Wör": 8131,
      "Yam": 8132,
      "Zügen": 8133,
      "Zoo": 8134,
      "Zwill": 8135,
      "Zentr": 8136,
      "ael": 8137,
      "aster": 8138,
      "bü": 8139,
      "bauf": 8140,
      "bas": 8141,
      "bor": 8142,
      "bul": 8143,
      "bill": 8144,
      "baden": 8145,
      "busses": 8146,
      "bummel": 8147,
      "bagger": 8148,
      "col": 8149,
      "cert": 8150,
      "cings": 8151,
      "ctor": 8152,
      "come": 8153,
      "dil": 8154,
      "dick": 8155,
      "dige": 8156,
      "dischen": 8157,
      "diges": 8158,
      "dämmerung": 8159,
      "ditor": 8160,
      "fs": 8161,
      "fin": 8162,
      "fort": 8163,
      "flat": 8164,
      "funden": 8165,
      "go": 8166,
      "gal": 8167,
      "gange": 8168,
      "glat": 8169,
      "guten": 8170,
      "hte": 8171,
      "hier": 8172,
      "hlen": 8173,
      "haft": 8174,
      "helmen": 8175,
      "hauer": 8176,
      "harmonika": 8177,
      "imit": 8178,
      "ident": 8179,
      "ju": 8180,
      "jen": 8181,
      "jahr": 8182,
      "ky": 8183,
      "kund": 8184,
      "kol": 8185,
      "kus": 8186,
      "kab": 8187,
      "kelt": 8188,
      "kün": 8189,
      "kaum": 8190,
      "keiten": 8191,
      "katen": 8192,
      "kalte": 8193,
      "kühlen": 8194,
      "kipp": 8195,
      "kahlen": 8196,
      "lers": 8197,
      "lingen": 8198,
      "lugt": 8199,
      "live": 8200,
      "letzte": 8201,
      "nor": 8202,
      "oter": 8203,
      "oos": 8204,
      "ofen": 8205,
      "oke": 8206,
      "ohren": 8207,
      "past": 8208,
      "party": 8209,
      "pistolen": 8210,
      "rö": 8211,
      "run": 8212,
      "rum": 8213,
      "rasen": 8214,
      "raten": 8215,
      "riss": 8216,
      "rangeln": 8217,
      "sy": 8218,
      "sgebäude": 8219,
      "tier": 8220,
      "typ": 8221,
      "tafel": 8222,
      "tüten": 8223,
      "tollen": 8224,
      "ulä": 8225,
      "uff": 8226,
      "udio": 8227,
      "ustriert": 8228,
      "vill": 8229,
      "wor": 8230,
      "wäl": 8231,
      "wischen": 8232,
      "wehen": 8233,
      "yll": 8234,
      "zau": 8235,
      "zte": 8236,
      "zeln": 8237,
      "zession": 8238,
      "ären": 8239,
      "ästen": 8240,
      "äbchen": 8241,
      "ös": 8242,
      "öten": 8243,
      "öck": 8244,
      "ören": 8245,
      "üss": 8246,
      "übung": 8247,
      "“,": 8248,
      "int": 8249,
      "inne": 8250,
      "ineinander": 8251,
      "engel": 8252,
      "ero": 8253,
      "ersten": 8254,
      "erhebt": 8255,
      "erober": 8256,
      "erunner": 8257,
      "eingepack": 8258,
      "chlich": 8259,
      "chelt": 8260,
      "aune": 8261,
      "ane": 8262,
      "anie": 8263,
      "anas": 8264,
      "anbe": 8265,
      "andet": 8266,
      "angelehnt": 8267,
      "unruhigem": 8268,
      "unfertigen": 8269,
      "Einteil": 8270,
      "Einkaufen": 8271,
      "Einheim": 8272,
      "eif": 8273,
      "eigen": 8274,
      "eigenen": 8275,
      "ite": 8276,
      "eleg": 8277,
      "schacht": 8278,
      "schbecken": 8279,
      "schickt": 8280,
      "schippen": 8281,
      "ston": 8282,
      "stchen": 8283,
      "sters": 8284,
      "stär": 8285,
      "still": 8286,
      "stützen": 8287,
      "sturm": 8288,
      "stütz": 8289,
      "aufgang": 8290,
      "aufzunehmen": 8291,
      "geküsst": 8292,
      "geschirr": 8293,
      "gesichert": 8294,
      "gedeckten": 8295,
      "gepflegten": 8296,
      "gescheck": 8297,
      "are": 8298,
      "ars": 8299,
      "arme": 8300,
      "arena": 8301,
      "ieß": 8302,
      "onik": 8303,
      "Eines": 8304,
      "asil": 8305,
      "asino": 8306,
      "alien": 8307,
      "teter": 8308,
      "teuer": 8309,
      "tracht": 8310,
      "transp": 8311,
      "sper": 8312,
      "spol": 8313,
      "sparty": 8314,
      "geneig": 8315,
      "genüss": 8316,
      "ehn": 8317,
      "rochen": 8318,
      "kleiden": 8319,
      "kleider": 8320,
      "zuläuft": 8321,
      "zufinden": 8322,
      "ament": 8323,
      "benden": 8324,
      "Sche": 8325,
      "Schla": 8326,
      "Schind": 8327,
      "Scheit": 8328,
      "Schweißer": 8329,
      "Schmer": 8330,
      "Schlangen": 8331,
      "Schafen": 8332,
      "Schalen": 8333,
      "Schere": 8334,
      "Schiene": 8335,
      "Zweig": 8336,
      "chenAid": 8337,
      "blo": 8338,
      "blem": 8339,
      "blöcken": 8340,
      "spielend": 8341,
      "itzer": 8342,
      "nete": 8343,
      "neug": 8344,
      "begl": 8345,
      "besprechen": 8346,
      "beschnüffelt": 8347,
      "ungss": 8348,
      "ierungen": 8349,
      "ierig": 8350,
      "vorm": 8351,
      "vorder": 8352,
      "vorliest": 8353,
      "vorwärts": 8354,
      "sichten": 8355,
      "allel": 8356,
      "etang": 8357,
      "Sträh": 8358,
      "Strüm": 8359,
      "Strandes": 8360,
      "uma": 8361,
      "umeinander": 8362,
      "umgebung": 8363,
      "atisch": 8364,
      "älligen": 8365,
      "ilmt": 8366,
      "Grab": 8367,
      "Grillen": 8368,
      "Green": 8369,
      "Größe": 8370,
      "uts": 8371,
      "senf": 8372,
      "gren": 8373,
      "griffen": 8374,
      "olben": 8375,
      "eup": 8376,
      "euers": 8377,
      "schwarzhaariger": 8378,
      "Starb": 8379,
      "Strauß": 8380,
      "Stachel": 8381,
      "Statuen": 8382,
      "Männergruppe": 8383,
      "irsich": 8384,
      "gehe": 8385,
      "gehend": 8386,
      "gehören": 8387,
      "auszur": 8388,
      "auslage": 8389,
      "ausflug": 8390,
      "ausgefallen": 8391,
      "Gestr": 8392,
      "lesel": 8393,
      "geld": 8394,
      "gern": 8395,
      "geroll": 8396,
      "übergibt": 8397,
      "endr": 8398,
      "Menü": 8399,
      "ikeln": 8400,
      "Spir": 8401,
      "Spee": 8402,
      "Spitzen": 8403,
      "Spanien": 8404,
      "Sporter": 8405,
      "ändert": 8406,
      "Menschenschlange": 8407,
      "ballspiel": 8408,
      "istall": 8409,
      "Hemdchen": 8410,
      "unterbricht": 8411,
      "verspritzt": 8412,
      "verbringt": 8413,
      "verrück": 8414,
      "verstecken": 8415,
      "verzerr": 8416,
      "verhindern": 8417,
      "landen": 8418,
      "langer": 8419,
      "enthält": 8420,
      "enteil": 8421,
      "entladen": 8422,
      "schaum": 8423,
      "achtvollen": 8424,
      "ison": 8425,
      "isierten": 8426,
      "Wasserkante": 8427,
      "Wasserschlauch": 8428,
      "Frauenvolleyball": 8429,
      "ellung": 8430,
      "wechs": 8431,
      "host": 8432,
      "homa": 8433,
      "spielende": 8434,
      "usel": 8435,
      "usive": 8436,
      "fahrers": 8437,
      "fahrbaren": 8438,
      "bow": 8439,
      "Fahren": 8440,
      "abr": 8441,
      "absol": 8442,
      "abbert": 8443,
      "lichter": 8444,
      "lichkeiten": 8445,
      "reno": 8446,
      "langsam": 8447,
      "aha": 8448,
      "Boston": 8449,
      "herauf": 8450,
      "herstellt": 8451,
      "Oberteile": 8452,
      "eidebrett": 8453,
      "indischen": 8454,
      "zweier": 8455,
      "zweiteiligen": 8456,
      "entlanggehen": 8457,
      "Kop": 8458,
      "kleinerer": 8459,
      "zenans": 8460,
      "angem": 8461,
      "angezeigt": 8462,
      "farbene": 8463,
      "Feldes": 8464,
      "Arc": 8465,
      "wirbeln": 8466,
      "brettern": 8467,
      "Fahrradgeschäft": 8468,
      "Fahrradtrick": 8469,
      "Sky": 8470,
      "Skyl": 8471,
      "Brünet": 8472,
      "Blöcken": 8473,
      "Blase": 8474,
      "day": 8475,
      "weggeht": 8476,
      "Hinterteil": 8477,
      "verse": 8478,
      "Baustellen": 8479,
      "Bauprojekt": 8480,
      "Luftsprung": 8481,
      "Trans": 8482,
      "hatte": 8483,
      "nacheinander": 8484,
      "gestreckt": 8485,
      "gestalteten": 8486,
      "ackeln": 8487,
      "Kopfball": 8488,
      "örschutz": 8489,
      "werken": 8490,
      "werbung": 8491,
      "Tisches": 8492,
      "latte": 8493,
      "Anblick": 8494,
      "Angeln": 8495,
      "Angestellte": 8496,
      "Angesicht": 8497,
      "Ananas": 8498,
      "Schneeengel": 8499,
      "itarre": 8500,
      "ankommen": 8501,
      "Fußballplatz": 8502,
      "Fußballmannschaften": 8503,
      "schnallt": 8504,
      "ansetzt": 8505,
      "Gehörschutz": 8506,
      "artig": 8507,
      "artment": 8508,
      "artikeln": 8509,
      "ockt": 8510,
      "ennbahn": 8511,
      "fahrener": 8512,
      "Essst": 8513,
      "Beruf": 8514,
      "Sonnenschein": 8515,
      "Sonnenhut": 8516,
      "Sonnenschirmen": 8517,
      "Straßenarbeiten": 8518,
      "Stadtviertel": 8519,
      "maj": 8520,
      "Ins": 8521,
      "Inse": 8522,
      "zusammenzu": 8523,
      "drän": 8524,
      "gleiten": 8525,
      "glitzern": 8526,
      "Sandplatz": 8527,
      "Dampf": 8528,
      "rott": 8529,
      "Jeansrock": 8530,
      "sichtbar": 8531,
      "sichtbaren": 8532,
      "bedeckte": 8533,
      "ohl": 8534,
      "hellroten": 8535,
      "hinunterfährt": 8536,
      "Schwimmhilfe": 8537,
      "Verstär": 8538,
      "belei": 8539,
      "beleuchtung": 8540,
      "Bekann": 8541,
      "Bewegungen": 8542,
      "arbeitende": 8543,
      "daraus": 8544,
      "Seetang": 8545,
      "Aufdruck": 8546,
      "Aufgaben": 8547,
      "Baseballwerfer": 8548,
      "Baseballkappen": 8549,
      "Holzrampe": 8550,
      "Holzkoh": 8551,
      "Holzpfahl": 8552,
      "stüm": 8553,
      "antiken": 8554,
      "Reitern": 8555,
      "Meda": 8556,
      "Maulesel": 8557,
      "Bürgerkr": 8558,
      "kegeln": 8559,
      "Waldes": 8560,
      "Radfahren": 8561,
      "Schleif": 8562,
      "liesten": 8563,
      "Motorradhelm": 8564,
      "Krücken": 8565,
      "Kronen": 8566,
      "Pfahl": 8567,
      "zieher": 8568,
      "Frisch": 8569,
      "Frank": 8570,
      "Frucht": 8571,
      "zerkleiner": 8572,
      "Seile": 8573,
      "quet": 8574,
      "queren": 8575,
      "quadr": 8576,
      "schlumm": 8577,
      "merkw": 8578,
      "schwanger": 8579,
      "Meerwasser": 8580,
      "Meerjung": 8581,
      "Tenniskleidung": 8582,
      "Tennisbällen": 8583,
      "Kunsthand": 8584,
      "Kunstmuseum": 8585,
      "ampag": 8586,
      "abend": 8587,
      "fran": 8588,
      "früh": 8589,
      "franz": 8590,
      "fremd": 8591,
      "früchte": 8592,
      "freuen": 8593,
      "frustriert": 8594,
      "Basketballplatz": 8595,
      "Basketballwurf": 8596,
      "Felsenklippe": 8597,
      "iente": 8598,
      "Geländern": 8599,
      "Spruch": 8600,
      "Springen": 8601,
      "Sprinkl": 8602,
      "ätzchen": 8603,
      "Footballteam": 8604,
      "dunkelgrünen": 8605,
      "dunkelbrauner": 8606,
      "akers": 8607,
      "akes": 8608,
      "Eiscrem": 8609,
      "Eisskulptur": 8610,
      "Feuerleiter": 8611,
      "Spielzeugpferd": 8612,
      "kostet": 8613,
      "kodil": 8614,
      "Rolle": 8615,
      "steller": 8616,
      "Vorhang": 8617,
      "Vorstadt": 8618,
      "Vorbereitung": 8619,
      "kargen": 8620,
      "kariertes": 8621,
      "Leben": 8622,
      "Lesen": 8623,
      "Leot": 8624,
      "gelbbraunen": 8625,
      "Sportspiel": 8626,
      "Blumenkleid": 8627,
      "Blumenfeld": 8628,
      "Blumenmädchen": 8629,
      "Pokal": 8630,
      "Podest": 8631,
      "bares": 8632,
      "Badebekleidung": 8633,
      "auna": 8634,
      "gemachten": 8635,
      "treppen": 8636,
      "treklam": 8637,
      "Schildkröte": 8638,
      "Kleinbus": 8639,
      "Raums": 8640,
      "ahlt": 8641,
      "rosafarbenes": 8642,
      "Zeitungs": 8643,
      "Metz": 8644,
      "belebter": 8645,
      "Toy": 8646,
      "knur": 8647,
      "knöpf": 8648,
      "knappen": 8649,
      "knabbert": 8650,
      "Steinwand": 8651,
      "Steingebäude": 8652,
      "Steinstufen": 8653,
      "Hausmeister": 8654,
      "Hausaufgaben": 8655,
      "bstiften": 8656,
      "liegender": 8657,
      "dunkles": 8658,
      "Metallkonstruktion": 8659,
      "Ausblick": 8660,
      "Ausführung": 8661,
      "Ausdruck": 8662,
      "grafie": 8663,
      "esso": 8664,
      "essluft": 8665,
      "festival": 8666,
      "gewaschen": 8667,
      "gewöhn": 8668,
      "ungsort": 8669,
      "ungsfahrzeug": 8670,
      "Alt": 8671,
      "Alle": 8672,
      "Pub": 8673,
      "Schneider": 8674,
      "Schneidebrett": 8675,
      "Schulbus": 8676,
      "Rod": 8677,
      "Rotes": 8678,
      "heruntergefallen": 8679,
      "Skiausrüstung": 8680,
      "Skipiste": 8681,
      "dicke": 8682,
      "geschäfts": 8683,
      "Outfiel": 8684,
      "Radfahrerin": 8685,
      "Gewächs": 8686,
      "ogitarre": 8687,
      "Zugs": 8688,
      "wehren": 8689,
      "ärtner": 8690,
      "Rückenschwimmen": 8691,
      "puppen": 8692,
      "offene": 8693,
      "anstalt": 8694,
      "Arbeitsplatz": 8695,
      "Prop": 8696,
      "Programm": 8697,
      "Schaukeln": 8698,
      "kremp": 8699,
      "Werbet": 8700,
      "sportliche": 8701,
      "Wagens": 8702,
      "Enkel": 8703,
      "parallel": 8704,
      "Felsformation": 8705,
      "Neun": 8706,
      "mittelgroßen": 8707,
      "shalle": 8708,
      "Teammitglie": 8709,
      "Sieb": 8710,
      "folie": 8711,
      "Abschle": 8712,
      "Absol": 8713,
      "bereits": 8714,
      "stäben": 8715,
      "Bierflaschen": 8716,
      "Marsch": 8717,
      "Müllbeutel": 8718,
      "Unterteil": 8719,
      "Unterseite": 8720,
      "Unterhalt": 8721,
      "Unterhaltung": 8722,
      "Unterstütz": 8723,
      "Dritte": 8724,
      "Sou": 8725,
      "Poolbill": 8726,
      "Kanone": 8727,
      "Wintermänteln": 8728,
      "Barr": 8729,
      "Barren": 8730,
      "Lou": 8731,
      "Lokom": 8732,
      "Love": 8733,
      "linge": 8734,
      "Glasgebäude": 8735,
      "Feuerwehrwagen": 8736,
      "Feuerwehrfahrzeug": 8737,
      "prunk": 8738,
      "prallen": 8739,
      "prachtvollen": 8740,
      "öffentliche": 8741,
      "Gemüsem": 8742,
      "riesiger": 8743,
      "turm": 8744,
      "Akrobat": 8745,
      "Mundharmonika": 8746,
      "Korbst": 8747,
      "einsames": 8748,
      "gleiche": 8749,
      "verschiedener": 8750,
      "verschiedenfarbige": 8751,
      "Ziegeln": 8752,
      "ruhige": 8753,
      "Hockeyschläger": 8754,
      "knietief": 8755,
      "Brautkleid": 8756,
      "bärtige": 8757,
      "nahöst": 8758,
      "Knochen": 8759,
      "gefilmt": 8760,
      "gefliesten": 8761,
      "Defen": 8762,
      "Deere": 8763,
      "Court": 8764,
      "änzerin": 8765,
      "herausragen": 8766,
      "befestigten": 8767,
      "leuchtende": 8768,
      "Telefonmasten": 8769,
      "doch": 8770,
      "Gebäck": 8771,
      "Bikinioberteil": 8772,
      "applau": 8773,
      "appschuss": 8774,
      "Schießen": 8775,
      "Kek": 8776,
      "silien": 8777,
      "unbefestigtem": 8778,
      "wanderweg": 8779,
      "gelegen": 8780,
      "Regenschirme": 8781,
      "Wohnwagen": 8782,
      "Wohnmobil": 8783,
      "Schläfchen": 8784,
      "lilafarbene": 8785,
      "traditionell": 8786,
      "sächlich": 8787,
      "bewachsenen": 8788,
      "Kaffe": 8789,
      "Mais": 8790,
      "Maisk": 8791,
      "afrikanisches": 8792,
      "Geish": 8793,
      "Künstlerin": 8794,
      "schafft": 8795,
      "ulpen": 8796,
      "Krawatten": 8797,
      "Chips": 8798,
      "Höhle": 8799,
      "Hölle": 8800,
      "Werkzeuge": 8801,
      "Treppengeländer": 8802,
      "Kirsch": 8803,
      "Lasters": 8804,
      "ordnung": 8805,
      "Elf": 8806,
      "Große": 8807,
      "kanne": 8808,
      "eingegraben": 8809,
      "gezogenen": 8810,
      "Schwan": 8811,
      "Schwung": 8812,
      "Schwimmen": 8813,
      "Backsteingebäudes": 8814,
      "grasbewachsene": 8815,
      "grasbewachsenes": 8816,
      "oberhalb": 8817,
      "sodass": 8818,
      "tauchen": 8819,
      "Anzüge": 8820,
      "glücklicher": 8821,
      "hellhäutigen": 8822,
      "Schnauzer": 8823,
      "abgewandt": 8824,
      "angezogenes": 8825,
      "Stepp": 8826,
      "baumgesäumten": 8827,
      "schmutziger": 8828,
      "schönes": 8829,
      "kostümierte": 8830,
      "Fischerboot": 8831,
      "lockigem": 8832,
      "irgendeine": 8833,
      "Angelschnur": 8834,
      "geworfenen": 8835,
      "Akkordeonspieler": 8836,
      "Jahren": 8837,
      "Militäruniform": 8838,
      "Militäruniformen": 8839,
      "rasieren": 8840,
      "rasierten": 8841,
      "rasiertem": 8842,
      "Gesichtsmaske": 8843,
      "Sicherheitskleidung": 8844,
      "Pickup": 8845,
      "saust": 8846,
      "öhnt": 8847,
      "Innenseite": 8848,
      "Kurs": 8849,
      "Windjacke": 8850,
      "planschen": 8851,
      "stadion": 8852,
      "Festzug": 8853,
      "Rückhand": 8854,
      "Farm": 8855,
      "Farbstiften": 8856,
      "Schuhgeschäft": 8857,
      "Schuhputzer": 8858,
      "ölf": 8859,
      "Meeresufer": 8860,
      "gesäumt": 8861,
      "orientalischen": 8862,
      "Sitzende": 8863,
      "Strohhalm": 8864,
      "brünett": 8865,
      "Flügel": 8866,
      "Wassersk": 8867,
      "edlen": 8868,
      "helfer": 8869,
      "möbeln": 8870,
      "Gewür": 8871,
      "Sicherheitsausrüstung": 8872,
      "Schaufensterpuppe": 8873,
      "förmlicher": 8874,
      "Laubhaufen": 8875,
      "Laubbläser": 8876,
      "stöckigen": 8877,
      "Umzugs": 8878,
      "Abenddämmerung": 8879,
      "Fallschirmspringen": 8880,
      "Fallschirmspringer": 8881,
      "Wanderung": 8882,
      "Sportlerin": 8883,
      "nähern": 8884,
      "Prüf": 8885,
      "Pressluft": 8886,
      "Sombr": 8887,
      "biegt": 8888,
      "laufbahn": 8889,
      "stürm": 8890,
      "vorübergehen": 8891,
      "Boxkampf": 8892,
      "Rettungsweste": 8893,
      "Rettungsschwimmer": 8894,
      "armhemd": 8895,
      "vorbeigehenden": 8896,
      "Erdbe": 8897,
      "Großm": 8898,
      "Großküche": 8899,
      "Heck": 8900,
      "idyll": 8901,
      "tiefes": 8902,
      "schwerer": 8903,
      "fröhlicher": 8904,
      "Küchentisch": 8905,
      "Küchentheke": 8906,
      "Wäschekorb": 8907,
      "Doktor": 8908,
      "Möwe": 8909,
      "platten": 8910,
      "getackelt": 8911,
      "getupf": 8912,
      "Gerätschaften": 8913,
      "Taucherbrille": 8914,
      "Überqueren": 8915,
      "erklärt": 8916,
      "angerichtet": 8917,
      "Geschirrspü": 8918,
      "abzuwerfen": 8919,
      "abzuwehren": 8920,
      "Rugbyspiel": 8921,
      "Kiosk": 8922,
      "Staubwolke": 8923,
      "heiraten": 8924,
      "Linien": 8925,
      "kauern": 8926,
      "musizieren": 8927,
      "muslim": 8928,
      "musikal": 8929,
      "nasses": 8930,
      "welchen": 8931,
      "Segelboote": 8932,
      "violettes": 8933,
      "Knieschonern": 8934,
      "Angelruten": 8935,
      "Hafenbecken": 8936,
      "lötet": 8937,
      "Deckel": 8938,
      "Passagier": 8939,
      "seltsames": 8940,
      "cremefarbenen": 8941,
      "Inlineskater": 8942,
      "Gummist": 8943,
      "Gummih": 8944,
      "Miniat": 8945,
      "bären": 8946,
      "haupt": 8947,
      "traktion": 8948,
      "Motorrollern": 8949,
      "Baseballspiels": 8950,
      "Dorfbewohner": 8951,
      "diskutiert": 8952,
      "Lego": 8953,
      "Talent": 8954,
      "lustigen": 8955,
      "Ärzte": 8956,
      "schüre": 8957,
      "trockenem": 8958,
      "trockenes": 8959,
      "Strickjacke": 8960,
      "Notenständer": 8961,
      "Sesseln": 8962,
      "sowohl": 8963,
      "ignor": 8964,
      "Freiluftmarkt": 8965,
      "Clubs": 8966,
      "Lebensmittelgeschäfts": 8967,
      "Elektriker": 8968,
      "Elektronik": 8969,
      "Elektrogitarre": 8970,
      "Sommerkleid": 8971,
      "Protestschild": 8972,
      "aufzuheben": 8973,
      "empor": 8974,
      "Hundeshow": 8975,
      "auszuführen": 8976,
      "altmodischer": 8977,
      "Absperrband": 8978,
      "Geburtstags": 8979,
      "Geburtstagskuchen": 8980,
      "Attraktion": 8981,
      "Bassgitarre": 8982,
      "Dunking": 8983,
      "Planschbecken": 8984,
      "flieder": 8985,
      "protestieren": 8986,
      "sollen": 8987,
      "trommel": 8988,
      "trommeln": 8989,
      "attraktion": 8990,
      "vermäh": 8991,
      "Betrieb": 8992,
      "Kranich": 8993,
      "Kricketspieler": 8994,
      "kreuzung": 8995,
      "Kühen": 8996,
      "Khakihosen": 8997,
      "mask": 8998,
      "venten": 8999,
      "bestan": 9000,
      "Broschüre": 9001,
      "Langarmhemd": 9002,
      "Saris": 9003,
      "laubbedeckten": 9004,
      "sorgt": 9005,
      "Einkäufern": 9006,
      "itrine": 9007,
      "schulkinder": 9008,
      "stapelt": 9009,
      "stapeln": 9010,
      "stapler": 9011,
[...]
